t h 950746871
i n 846013267
a n 575423826
E R</w> 447998774
U S 447850832
US ER</w> 440272843
@ USER</w> 440261608
o u 422341094
in g</w> 420026756
e a 419629083
e r 398300233
o n 372626063
th e</w> 363483513
t o</w> 332540372
e r</w> 316508188
a r 304471115
o r 299516334
e d</w> 282272640
h a 273883889
e n 269800323
i s</w> 267474810
i t 266679682
a l 261236001
U R 257876384
T T 257201515
s t 255268371
P UR 254735427
H TT 254612195
PUR L</w> 254586370
HTT PURL</w> 254586319
o n</w> 250159292
o u</w> 236529589
i n</w> 235589716
a c 234346810
an d</w> 233702680
m e</w> 222780451
e s</w> 217061400
a t 211634292
y ou</w> 207236160
r e 204093373
s t</w> 201954340
l o 194887820
l i 191784139
v e</w> 189917342
o r</w> 189012153
i l 183875649
a t</w> 181160908
i t</w> 180778189
o f</w> 177806924
r o 171924893
e n</w> 158974231
e l 155675573
n o 154122029
a y</w> 147844102
i c 147427663
a n</w> 146717099
h o 134974904
. .</w> 130167238
f or</w> 127427828
l y</w> 127203719
' s</w> 126956615
t i 124199720
s e</w> 121995636
m y</w> 120602869
a s</w> 118804569
o m 118545231
r i 118036404
h e</w> 115446745
k e</w> 115188539
e e 112042802
b e 109181423
' t</w> 108325982
w h 106072440
l e</w> 105818942
in g 105409236
th at</w> 104733153
e v 102830880
f ac 102733016
o o 102673582
e s 102465255
r ea 102461892
u r 99837193
ea r 98425237
g h 97242336
. ..</w> 97058312
o l 94382848
e t</w> 93332238
i s 92904996
u n 91324266
l a 91294577
fac e 90979682
b u 89495879
th e 89149750
m a 88997417
ou t</w> 87579885
i r 86826366
b e</w> 86557457
w it 86301985
e c 85827328
on e</w> 84637972
ou r</w> 84236528
r a 84134921
n 't</w> 83423987
s h 78785101
s i 78670845
t s</w> 78186118
d o</w> 77761574
c h 77407783
a b 76573975
wit h</w> 76046265
d i 74930205
u c 74627995
al l</w> 73712218
ar e</w> 73074360
er e</w> 72096716
a l</w> 71790788
u st</w> 71354158
p p 71200291
th is</w> 70632814
s o</w> 70252881
l d</w> 69313746
gh t</w> 66732702
t o 66454689
d ay</w> 65555314
ha ve</w> 65019605
n e 64526153
il l</w> 62207251
w i 62175170
ing _ 62127667
w as</w> 61856477
no w</w> 60864519
g o 60278360
a m 59698361
ha t</w> 59488603
' m</w> 59298576
T h 58900047
e m 57185369
t t 56094633
a g 56065907
d o 55938107
bu t</w> 55863297
en t</w> 55442817
li ke</w> 55235982
ou ld</w> 54761609
o f 54453946
y our</w> 54239226
s e 53355229
j ust</w> 53185565
at i 53110209
wi th 53064579
a y 53055918
no t</w> 52699305
i d 52619457
o p 52611310
er s</w> 52429417
a s 51105080
k ing</w> 50715845
T he</w> 49405114
face _ 48694364
u p</w> 48628733
w or 48599287
p l 48542106
t r 47495213
ou n 46756151
p o 46402382
with _ 46267129
c e</w> 46116492
or e</w> 45360004
d s</w> 45277532
c a 45071290
o me</w> 44829396
u m 44822324
e x 44646731
face_ with_ 44552380
g et</w> 44219716
c h</w> 43745270
m o 43115572
ro m</w> 42174535
s p 42005872
j o 41397876
face :</w> 40892768
t er</w> 40180188
t h</w> 40080398
d e</w> 39923422
th er</w> 39636677
f rom</w> 39277929
t a 39223823
k s</w> 39044431
l e 38727922
w e</w> 38639742
b o 38606226
th ing</w> 38430390
an t</w> 38257222
i g 37773002
b y</w> 37696665
s u 37547074
c an</w> 37393324
c om 36964163
s a 36733275
the y</w> 36491593
c on 36490916
v er 36383624
p ro 35914206
ac k</w> 35849419
l l</w> 35522376
s m 35329209
v i 35203856
h ear 34976214
oo d</w> 34399369
ev er</w> 34309430
ab out</w> 34148923
at e</w> 33854731
i f</w> 33842510
r e</w> 33785283
wh en</w> 33715274
i ght</w> 33501129
p er 33486723
w hat</w> 33411142
p e 33355302
el l</w> 33051215
ho w</w> 32983883
w ee 32643995
u s 32507900
an d 32486607
h i 32289572
f or 32117950
k now</w> 31890040
d e 31738600
g u 31584085
om e 31513525
d y</w> 31020051
lo ve</w> 30911757
w ill</w> 30756458
f u 30578779
ay s</w> 29921026
es s</w> 29610465
q u 29307567
ti me</w> 29099854
t ed</w> 28881154
u se</w> 28695520
u s</w> 28522777
ati on</w> 28511279
s c 28303912
s _ 28268621
ea r</w> 28207567
a d 28193720
e st 28148844
Y ou</w> 28123357
i r</w> 28084393
g i 28054947
w n</w> 28045922
op le</w> 27888070
f a 27856890
W h 27840687
t e</w> 27826273
al ly</w> 27717186
t ing</w> 27504589
e y</w> 27458678
i d</w> 27423664
2 0 27361103
I t</w> 27276029
in k</w> 27116673
ev er 27028895
: face_with_ 26986273
e y 26893439
n o</w> 26858540
g o</w> 26819508
l ea 26059118
A n 26050142
m ore</w> 26049515
g e 25959597
hear t 25938603
t er 25776808
n a</w> 25769564
p re 25733078
en d</w> 25732481
C h 25678269
in e</w> 25624505
it y</w> 25583800
S t 25337952
jo y 25315838
s ome 25256738
' re</w> 25182025
lo o 25122662
g e</w> 25103060
on s</w> 25100883
u t</w> 24846911
pe ople</w> 24830971
ol lo 24752544
t ear 24672691
ur e</w> 24606579
uc h</w> 24502647
g h</w> 24477627
e d 24448589
on g</w> 24432575
v er</w> 24274459
of _ 24253963
ic e</w> 24160834
p ar 24050089
ou r 23936835
c o 23864888
s_ of_ 23726650
tear s_of_ 23722677
joy :</w> 23722673
tears_of_ joy:</w> 23722673
w ay</w> 23704991
w ould</w> 23693597
wh o</w> 23688358
:face_with_ tears_of_joy:</w> 23511295
l ly</w> 23425609
h er</w> 23309009
s on</w> 23261069
i m 22931372
h is</w> 22870021
sm il 22835134
ha s</w> 22824322
y ing</w> 22331390
u l 22286447
w a 22047255
r y</w> 22001684
g ood</w> 21905308
se e</w> 21893331
a d</w> 21834612
go t</w> 21815780
k ed</w> 21741420
ti on</w> 21739715
f e</w> 21504500
e st</w> 21386097
in d</w> 21254275
w ant</w> 21128499
f ollo 21019259
r u 20973057
s he</w> 20856164
a m</w> 20756470
en t 20697682
b ack</w> 20675969
ing_ face:</w> 20552544
th ere</w> 20496004
it e</w> 20481110
ar d</w> 20287898
an y</w> 20276685
s s</w> 20268232
d ing</w> 20151983
th ink</w> 20106726
c an 20027658
ou gh</w> 19987604
di d</w> 19875069
lo l</w> 19796414
it s</w> 19785263
l u 19747938
o c 19581031
o w</w> 19490361
the m</w> 19459604
T H 19409156
s ome</w> 19385118
I n 19366825
l s</w> 19323619
_ face:</w> 19258207
m e 19202190
be en</w> 19133124
ca use</w> 19071195
to o</w> 19038425
f f 19026942
s el 19025844
d er</w> 18922324
v ing</w> 18901700
N e 18704406
t y</w> 18595321
m uch</w> 18406373
ma ke</w> 18199382
' ll</w> 18179133
f uc 18150962
ne ed</w> 18145393
I N 18075532
ing s</w> 18071697
es :</w> 18039490
rea lly</w> 17980917
ne w</w> 17962906
L i 17819476
w s</w> 17795189
f ri 17785987
a me</w> 17636355
ee p</w> 17588088
a pp 17579421
p la 17516875
go ing</w> 17480956
t w 17444287
L o 17414268
ha d</w> 17395931
ha pp 17354057
an y 17352700
20 1 17162591
oun d</w> 16981193
' ve</w> 16940979
w at 16932522
on ly</w> 16878020
smil ing_ 16869206
e p 16862948
ri ght</w> 16821549
n ing</w> 16805931
g r 16768934
i es</w> 16753059
b er</w> 16752802
id e 16717965
s ho 16651522
m on 16616121
t al 16522643
M y</w> 16516124
b r 16499860
s s 16461677
f ir 16356691
h ea 16227441
a f 16227067
ever y 16219365
i c</w> 16176194
p e</w> 16149287
ol d</w> 16123281
h a</w> 16085521
hi m</w> 16079783
s :</w> 16069594
w an 16028031
i on</w> 15987513
re c 15976406
ev en</w> 15975538
I f</w> 15914631
o ther</w> 15895375
Th is</w> 15806383
f e 15715458
to day</w> 15682200
c ome</w> 15659840
d er 15655605
p a 15614506
can 't</w> 15575503
R B 15511996
u p 15486535
c r 15450109
ag e</w> 15423141
st ar 15328510
the ir</w> 15310674
g ir 15166972
t on 15149086
RB -</w> 15100506
th en</w> 15078096
W e</w> 14965610
l ing</w> 14925385
o ver</w> 14875377
s k 14870186
an s</w> 14862220
el y</w> 14855302
wor k</w> 14854313
st ill</w> 14847377
sh it</w> 14813609
h ere</w> 14810307
w ays</w> 14755640
li fe</w> 14747316
ou s</w> 14582100
ey es:</w> 14537437
s ay</w> 14491691
A N 14440095
re e</w> 14300452
ho o 14298714
of f</w> 14288846
th an</w> 14247672
m in 14049249
m an</w> 14043964
p h 14010576
0 0</w> 14008556
h and 13971688
e l</w> 13945365
s ed</w> 13936358
f in 13929336
t ur 13912668
wh y</w> 13876298
n ever</w> 13864816
w ere</w> 13837941
ic k</w> 13801436
_ heart 13685659
st r 13678575
p s</w> 13665795
b l 13652825
G o 13645557
ab le</w> 13582583
l y 13556610
N o 13550500
: )</w> 13546234
f i 13528636
rea t</w> 13522541
tt er</w> 13510658
sh ould</w> 13435828
c ould</w> 13397542
be cause</w> 13333939
ac t 13331756
y s</w> 13329797
an ce</w> 13305423
is h</w> 13255012
ag a 13220422
b i 13183705
u t 13135244
L O 13026272
k es</w> 12980040
p or 12963846
fu l</w> 12955655
vi a</w> 12939339
b ea 12923984
m is 12914564
i m</w> 12878571
oo k</w> 12829086
v es</w> 12822288
t wee 12795294
sel f</w> 12747741
h el 12733056
ee l</w> 12729864
en ce</w> 12658424
1 9 12645465
m ar 12625869
n i 12586379
s er 12559077
re d 12501971
do es</w> 12478831
tt ing</w> 12425375
An d</w> 12387117
en ts</w> 12333332
ec t</w> 12308280
s l 12272313
l ed</w> 12166752
p r 12149487
an k</w> 12135822
an g 12131935
E A 12057822
t ra 12039799
fir st</w> 11973393
be st</w> 11973001
d ed</w> 11932560
pl ea 11924866
d is 11919625
il e</w> 11897126
follo w</w> 11881736
c u 11820964
H e</w> 11783386
ar y</w> 11777280
A l 11677257
e t 11666670
n ight</w> 11637743
al ways</w> 11622705
W hat</w> 11622476
be ing</w> 11584471
ta ke</w> 11544043
T hat</w> 11499480
ro w</w> 11494507
in t 11448780
do wn</w> 11428660
a r</w> 11428291
i l</w> 11414860
T o 11399985
H a 11388284
la st</w> 11383288
wh ere</w> 11369480
ide o</w> 11368779
H A 11287161
l ou 11277475
f t</w> 11231940
I n</w> 11212182
D o</w> 11124675
w ell</w> 11066247
n a 11046843
it t 11037126
m s</w> 11036194
mo st</w> 11033729
m ent</w> 10968929
f eel</w> 10949017
i al</w> 10928063
b ab 10919671
af ter</w> 10903679
b le</w> 10793487
e :</w> 10759397
on na</w> 10724882
be tter</w> 10714032
ac e</w> 10705556
as s</w> 10607113
_heart :</w> 10596687
S o</w> 10566243
ha ha</w> 10527958
p u 10507798
a v 10505800
c la 10488737
at ed</w> 10488201
loo k</w> 10482960
l et</w> 10460594
es s 10459967
plea se</w> 10396047
g ra 10395681
ic h</w> 10377128
: smiling_ 10363014
c oun 10333870
O n 10274252
at t 10248289
en ds</w> 10196050
y ear</w> 10193525
ver y</w> 10173407
' '</w> 10168834
a w 10157811
t ea 10155077
on t</w> 10154607
in to</w> 10148556
ic k 10135515
some one</w> 10134750
ac k 10106117
:smiling_ face_with_ 10100820
M ar 10098787
` `</w> 10079990
il y</w> 10067494
sh i 10016364
ti m 10007412
lo w 9986668
s in 9976927
M a 9969888
s o 9969233
i st 9966811
T r 9925411
B ut</w> 9917102
rea dy</w> 9884837
or y</w> 9852616
s on 9824111
sa id</w> 9824006
g onna</w> 9798919
C on 9789120
ear s</w> 9756577
S h 9713744
s h</w> 9701740
d u 9698072
hoo l</w> 9677251
f ore</w> 9653234
J o 9649169
v ed</w> 9636327
Y O 9634106
E R 9605690
tr y</w> 9596799
s w 9579450
w r 9517571
b a 9516375
l l 9499017
IN G</w> 9474390
bo dy</w> 9472146
m er 9466270
M o 9463066
ea n</w> 9453829
in c 9443292
st o 9435836
ou ght</w> 9416202
J ust</w> 9379473
an ks</w> 9345016
the se</w> 9341526
g g 9320038
em ber</w> 9261527
ig g 9234084
g reat</w> 9233408
v ideo</w> 9196156
b ro 9182830
cr y 9171900
v o 9136895
some thing</w> 9133144
w on 9087449
u d 9082388
H ow</w> 9072760
O N 9063887
u r</w> 9035487
c al 9002943
d ea 8994878
p ri 8975542
ati on 8962484
w n 8957629
Wh en</w> 8897766
ma de</w> 8896674
E n 8868444
in t</w> 8846108
d es 8831628
aga in</w> 8827533
x t</w> 8819628
gh t 8819262
p ic 8793469
c ar 8790320
or t</w> 8756149
c lo 8748931
g ame</w> 8724009
gir l</w> 8691388
Ne w</w> 8677852
B o 8675443
P o 8670195
s ing</w> 8650793
an c 8648524
a p 8646652
R T</w> 8609098
in n 8603753
in d 8585871
follo w 8558404
be fore</w> 8555383
con t 8532644
li c 8532420
ec k</w> 8523695
i z 8499683
cry ing_face:</w> 8433034
ou t 8400274
1 0 8394981
ch ing</w> 8391987
s ure</w> 8383803
ne xt</w> 8376227
N o</w> 8366864
ho me</w> 8366146
th o 8359665
1 0</w> 8356300
m any</w> 8352802
gi ve</w> 8350721
# S 8348903
m u 8347797
s ec 8330078
wor ld</w> 8325531
s si 8314154
of f 8308892
in ter 8299132
pla y 8288596
b it 8259769
R e 8237125
- R 8185033
- L 8180514
happ y</w> 8166261
e en</w> 8154553
d ays</w> 8128020
si de</w> 8125506
s ee 8094848
wee k</w> 8094412
c ol 8091091
sa me</w> 8073796
th r 8068965
A L 8053491
O O 8053122
e b 8047338
sc hool</w> 8033679
' d</w> 8029040
b ad</w> 8011731
fri end</w> 7990732
m at 7960676
ge tting</w> 7959855
it ed</w> 7941908
e e</w> 7941168
t ri 7937950
th ings</w> 7923162
wan na</w> 7921046
fuc k</w> 7917834
uc k</w> 7899273
ly _ 7853985
t ure</w> 7845562
lou d 7836964
A r 7836188
R E 7818553
m or 7806017
i a</w> 7793355
ever y</w> 7791719
Th ey</w> 7789461
su pp 7782537
t om 7773898
itt le</w> 7760949
R o 7736877
al s</w> 7730366
al so</w> 7716440
t ell</w> 7711123
u e</w> 7705963
u ally</w> 7703384
ho pe</w> 7653583
a u 7649160
P ro 7635156
m a</w> 7620889
b rea 7620150
T o</w> 7601775
tim es</w> 7578021
c ha 7572748
lo c 7553749
-L RB-</w> 7550968
-R RB-</w> 7549538
v e 7541568
or row</w> 7539513
ea t</w> 7539066
l es</w> 7488893
c or 7481856
ou se</w> 7474249
: loud 7456910
pl ay</w> 7430848
ly_ crying_face:</w> 7425653
:loud ly_crying_face:</w> 7425653
en d 7425074
m p 7420133
I S</w> 7403461
wh ich</w> 7403106
oo l</w> 7394590
me di 7356078
ou s 7330657
si on</w> 7311155
m y 7299959
Wh y</w> 7299907
in s</w> 7278823
W or 7252853
wit ter</w> 7238734
M E</w> 7238614
st er</w> 7230104
or s</w> 7226544
do ing</w> 7212672
w ar 7209411
U n 7209348
n y</w> 7203619
en ti 7194145
k no 7187847
b er 7187682
ha te</w> 7184138
f f</w> 7181405
y ears</w> 7169701
si c</w> 7162448
wa it</w> 7150172
tw o</w> 7149786
s it 7122682
ea h</w> 7113332
lo w</w> 7055514
an ge</w> 7049418
ic al</w> 7049259
# B 7048178
si g 7008001
S T 6987120
u st 6980520
twee t</w> 6978439
rea l</w> 6962313
R ea 6960044
s how</w> 6949279
re m 6942291
n ed</w> 6929699
f ind</w> 6927203
c ra 6917960
wat ch</w> 6914066
us ed</w> 6909007
M A 6896310
s ur 6891345
th ough</w> 6889748
l at 6885260
l ong</w> 6872326
s y 6869201
g re 6869160
H o 6867393
fri ends</w> 6864085
P ar 6861608
an t 6845396
Th e 6843946
f un 6838866
ex c 6828314
l ittle</w> 6813937
ati ons</w> 6805593
k eep</w> 6795455
C o 6789312
at es</w> 6778322
l ess</w> 6776418
um p</w> 6772592
g a 6764656
u ti 6754521
B r 6753997
sto p</w> 6736662
d one</w> 6723859
E N 6719529
p er</w> 6695704
tom orrow</w> 6694900
w om 6687384
hel p</w> 6685512
com m 6666269
d r 6661174
f am 6660496
y a</w> 6659179
p ut</w> 6657315
tho se</w> 6650927
m ean</w> 6633071
g s</w> 6618703
a ma 6615943
wh ile</w> 6607363
l ine</w> 6606942
L I 6598378
: red 6566719
TH E</w> 6558253
b all</w> 6557456
F O 6542115
C om 6536878
s en 6534791
smiling_ eyes:</w> 6506155
b s</w> 6505108
at s</w> 6504549
YO U</w> 6488794
N O 6487672
lo t</w> 6484454
be li 6478012
u m</w> 6469769
S he</w> 6467110
E x 6452731
ton ight</w> 6450814
V E</w> 6445263
:red _heart:</w> 6443044
I s</w> 6441312
li ve</w> 6433412
per son</w> 6431868
il l 6425907
b ir 6421602
L a 6396199
el l 6387155
D o 6381714
d ec 6371705
a a 6367138
in _ 6364757
our s</w> 6362438
ar ound</w> 6350119
: f 6350073
tal k</w> 6324346
n igg 6319043
e ve</w> 6310932
d uc 6309557
e i 6308398
fe el 6308099
ti l</w> 6301403
al l 6300218
m an 6289674
every one</w> 6282952
ro o 6271554
rea d</w> 6270213
st u 6256581
b or 6256371
ing_ face_with_ 6245168
: w 6229159
en s</w> 6224163
h ard</w> 6214850
d re 6209926
s ha 6206266
un der 6194826
il li 6194043
hea d</w> 6173868
for m 6171114
it ing</w> 6169033
F or</w> 6153115
li st 6134917
z ing</w> 6111222
th in 6109741
thr ough</w> 6104697
lea se</w> 6096118
w ho 6078166
f r 6070952
s y</w> 6069060
k e 6062873
en c 6052342
# C 6030849
S p 6022789
ph one</w> 6019677
al i 6007250
act ually</w> 6002020
A R 6001163
it h</w> 5987148
gu ys</w> 5985773
star t</w> 5973580
w al 5970504
tt a</w> 5958138
I T 5954179
D i 5953607
n ee 5944049
ro w 5940242
_ hand 5940214
shi p</w> 5928660
a way</w> 5927883
: p 5925553
tt y</w> 5904392
N ow</w> 5900421
en ing</w> 5899746
per son 5860491
sl eep</w> 5849478
E D</w> 5839066
sp ec 5829725
d ont</w> 5827307
n ame</w> 5819043
every thing</w> 5817374
al ready</w> 5807809
am es</w> 5807240
fuc king</w> 5789741
th ought</w> 5785713
s ea 5785244
A ll</w> 5784969
s et</w> 5775513
ay ing</w> 5770164
e a</w> 5767051
# M 5765487
A mer 5736821
bi g</w> 5731638
on d</w> 5713271
a in 5711952
Amer ic 5686858
com ing</w> 5677709
S u 5665684
l and</w> 5657955
ig h</w> 5650662
P re 5643021
al e</w> 5639396
th day</w> 5627308
c er 5605220
B e 5587138
to p</w> 5583487
f ree</w> 5577031
No t</w> 5571026
th er 5570788
ff er 5570535
ri st 5567798
M e</w> 5564493
e m</w> 5561580
at ing</w> 5552815
w in</w> 5541158
ic s</w> 5534194
mis s</w> 5530967
ac c 5526631
rea m</w> 5522939
mon ey</w> 5514293
s or 5509311
c are</w> 5501490
ma kes</w> 5499803
2 0</w> 5496958
A A 5495086
t y 5492474
r ed</w> 5480834
sin ce</w> 5476885
o wn</w> 5473428
v is 5470261
O U 5460153
3 0</w> 5453579
Th ere</w> 5453477
c all</w> 5442193
O N</w> 5434502
e w</w> 5428446
z e</w> 5427224
mor ning</w> 5422275
p ing</w> 5406132
em ent</w> 5396575
k is 5396074
s es</w> 5393482
h u 5392351
ac t</w> 5385858
tr ying</w> 5381828
an g</w> 5357580
w e 5346874
T O</w> 5338851
any thing</w> 5338561
Lo l</w> 5331009
h ar 5329536
n t</w> 5325684
w ish</w> 5322933
F or 5319704
is h 5312514
z y</w> 5305418
la u 5289622
o h</w> 5277980
Y our</w> 5271605
p i 5260724
a k 5257601
ha ving</w> 5251176
Lo ve</w> 5243222
ch ar 5241990
b ed</w> 5236915
P e 5229739
on es</w> 5217739
fac e</w> 5216311
ma o</w> 5212132
fa v 5211864
20 0 5209375
d ra 5196219
b li 5195834
N E 5190440
tea m</w> 5188748
gh ts</w> 5178022
M on 5175862
# T 5174960
st and</w> 5172274
par t</w> 5163954
an other</w> 5162504
l ear 5156437
g er</w> 5155657
h ouse</w> 5153358
p le</w> 5121126
_ sk 5117648
_sk in_ 5112496
ton e:</w> 5112467
_skin_ tone:</w> 5112467
O R 5111767
Go d</w> 5108662
c ho 5105112
O n</w> 5102858
ha ha 5088943
A T 5085976
no thing</w> 5084087
h h 5081961
f oo 5079395
: (</w> 5076382
I N</w> 5073059
un til</w> 5065945
w ard</w> 5051656
i ous</w> 5050714
s ol 5040743
C ar 5040179
loo king</w> 5034409
am n</w> 5023227
w er</w> 5022086
t on</w> 5017793
d ro 4984864
m er</w> 4983407
a h</w> 4978542
P lease</w> 4960837
b oo 4956357
E S</w> 4951477
com p 4945265
id s</w> 4942295
si d 4930768
in st 4929442
s oc 4926643
d ri 4918833
On e</w> 4908134
AN D</w> 4902422
my self</w> 4901087
s ong</w> 4896428
m i 4881555
no t 4867072
v en</w> 4859774
< 3</w> 4854389
s ing 4849256
H app 4840830
s uch</w> 4835846
R a 4833384
mo vi 4832162
I T</w> 4827866
k in</w> 4821428
in v 4820281
heart - 4799236
E E 4793854
g la 4791280
ch es</w> 4786775
C a 4778370
heart- eyes:</w> 4772517
won 't</w> 4771741
s un 4771073
y _face:</w> 4770966
L e 4767718
gir ls</w> 4761331
n ice</w> 4759831
ex p 4747506
Q u 4744765
Tr ump</w> 4736238
P L 4733393
bab y</w> 4732517
mu sic</w> 4723411
beli eve</w> 4721335
pl ace</w> 4717436
k er</w> 4713303
g en 4712601
ch il 4711614
y eah</w> 4705600
ha t 4702004
an ds</w> 4700526
ee t</w> 4690461
gu y</w> 4687452
A u 4677336
fam ily</w> 4676075
ma king</w> 4661590
c ri 4645604
b as 4642120
th ers</w> 4640648
id e</w> 4634829
h on 4631678
# F 4599121
A C 4597143
g y</w> 4596225
k ay</w> 4590533
jo b</w> 4589784
with out</w> 4575603
B l 4572262
c k</w> 4569471
O h</w> 4566752
b ur 4562120
m ay</w> 4557357
ir e</w> 4552289
di ffer 4549612
A c 4544632
se d 4540142
G et</w> 4535576
I L 4534203
ch ange</w> 4525728
m om 4520332
fu n</w> 4516744
t ex 4515021
E S 4514623
ar k 4511947
ca me</w> 4511864
at ch</w> 4511335
:smiling_face_with_ heart-eyes:</w> 4510323
pla ying</w> 4509635
y et</w> 4507229
uti ful</w> 4505494
s um 4503264
st ory</w> 4498409
roo m</w> 4498219
Th ank</w> 4495072
bit ch</w> 4494094
m ind</w> 4491588
ous ly</w> 4490873
le ft</w> 4488649
pre tty</w> 4488568
re l 4486889
A d 4480026
hear t</w> 4473019
bir thday</w> 4472668
H O 4460275
any one</w> 4452543
ent ly</w> 4449750
K K 4441639
tal king</w> 4441588
wat ching</w> 4438919
I C 4438693
re sp 4429156
ti ons</w> 4428064
m ight</w> 4426983
Th anks</w> 4416446
so on</w> 4415535
ti ve</w> 4413142
se en</w> 4409158
i an</w> 4408223
k ing_face:</w> 4393908
l ar 4393340
ou th</w> 4388471
G u 4380626
el e 4367797
h un 4366408
ing_ hand 4364611
ama zing</w> 4362309
D e 4358784
A S 4353750
f il 4346758
O M 4346044
ain 't</w> 4338951
T i 4336623
wr ong</w> 4330589
i ve</w> 4329495
G ood</w> 4329171
in ing</w> 4328829
i ons</w> 4325010
ha l 4317550
1 2</w> 4308742
ation al</w> 4307835
th ank</w> 4297996
P r 4296360
mo m</w> 4293542
B u 4289613
c ur 4288549
U S</w> 4287060
o s</w> 4283144
en g 4278660
s ays</w> 4274346
li ght 4259121
n ess</w> 4254579
u al</w> 4254496
as k</w> 4247313
D ay</w> 4239837
s uc 4237248
T a 4236624
bo th</w> 4227421
B i 4226797
5 0</w> 4223122
C an</w> 4220742
wee k 4219733
1 8 4212834
c am 4202403
ha ir</w> 4192388
i e</w> 4191143
en ough</w> 4188749
Ch rist 4187566
h ur 4180628
bab ly</w> 4180033
A Y</w> 4174485
p ol 4168871
or t 4168166
p ho 4165804
F r 4159981
U C 4156776
th anks</w> 4147836
in a</w> 4145867
: face_ 4141558
H ar 4138080
fe w</w> 4134379
w ea 4130485
ea d</w> 4125890
ed _face:</w> 4123982
S c 4117815
an k 4117576
n or 4110559
m m 4107625
1 5</w> 4106873
w ent</w> 4106316
it ion</w> 4095165
who le</w> 4090430
el se</w> 4088888
le g 4079727
pl e 4069962
ag o</w> 4067029
F ri 4057382
ur ing</w> 4055801
t old</w> 4049453
v ic 4049241
sea son</w> 4047634
o b 4040968
s aying</w> 4030385
um b 4030124
S ome 4028471
w ing</w> 4027659
y es</w> 4025157
b out</w> 4021351
c ou 4020473
o k</w> 4015051
ca r</w> 4008963
i st</w> 4006871
ch ed</w> 4006041
ear ly</w> 4001137
k y</w> 3999524
ver s 3997397
in st</w> 3995685
sor ry</w> 3992702
x x 3987723
ea ch</w> 3984356
qu est 3981365
Wh o</w> 3979034
m ust</w> 3970811
ge ts</w> 3967594
Ha ve</w> 3961729
loo ks</w> 3957124
pp ing</w> 3956101
do wn 3955586
ec tion</w> 3949292
t witter</w> 3939674
M Y</w> 3938264
b ar 3930771
m as</w> 3929179
I D 3929149
M e 3926895
ing :</w> 3926012
it er 3922288
medi um 3908383
1 2 3901621
at ur 3896660
li st</w> 3889694
Li ke</w> 3888584
th o</w> 3885334
an n 3879272
bea utiful</w> 3879242
l mao</w> 3875853
W ith</w> 3873826
b le 3866013
el s</w> 3863846
nigg a</w> 3856106
pp ed</w> 3852677
_hand :</w> 3850465
ma y 3845922
Happ y</w> 3840529
st s</w> 3838004
ac h 3837625
st ay</w> 3834517
P l 3828953
G r 3823633
E L 3821626
m il 3819511
b ook</w> 3817112
st ed</w> 3810969
re e 3802227
an a</w> 3801746
d a</w> 3801454
n s</w> 3791306
li ked</w> 3788204
ra is 3785637
en si 3777025
y our 3776545
t ic 3775966
tr ue</w> 3774161
h ear</w> 3763807
cal led</w> 3763468
d ate</w> 3762358
_ po 3760956
C ol 3760858
ig n</w> 3757633
# P 3757493
l in 3756143
sed _face:</w> 3755104
L et</w> 3754382
po int</w> 3746799
heart _ 3739820
: heart_ 3739352
em p 3736953
ge ther</w> 3734067
tur n</w> 3733653
rem ember</w> 3733503
# D 3733382
en ed</w> 3733051
c rea 3731279
0 0 3730447
d amn</w> 3729689
h or 3729601
on al</w> 3726507
cla ss</w> 3723993
aga inst</w> 3723340
li ght</w> 3721654
1 1</w> 3718948
per i 3712570
go tta</w> 3712184
b it</w> 3703416
pro bably</w> 3698101
h igh</w> 3698051
lea ve</w> 3696044
fa r</w> 3694134
t or</w> 3692582
:w ear 3689532
G O 3689157
W a 3688533
Ch eck</w> 3687287
o o</w> 3674429
: medium 3672170
cu te</w> 3671895
E ver 3663921
S E</w> 3663315
th s</w> 3662369
bo y</w> 3660906
la r</w> 3658712
O f</w> 3646549
:wear y_face:</w> 3643855
h ours</w> 3643733
lea st</w> 3643249
c our 3633561
g one</w> 3631212
r un 3630086
F a 3623055
on ce</w> 3619588
S O</w> 3614237
c ool</w> 3604125
t or 3603615
person _ 3601757
: person_ 3601714
sp ea 3597437
c lu 3589295
oo d 3584226
sl ee 3579064
sa w</w> 3576686
1 9</w> 3572459
er y</w> 3571267
d ic 3563859
h it</w> 3562087
R EA 3561934
A s</w> 3560592
al _ 3560088
k en</w> 3557264
ea t 3555333
W ell</w> 3542180
f ood</w> 3542040
week end</w> 3535113
fun ny</w> 3531582
gu e</w> 3530129
A T</w> 3526480
an e</w> 3526012
ne ws</w> 3524769
se x</w> 3524074
ep t</w> 3523525
w in 3522251
f ound</w> 3517734
t el 3517309
P er 3511665
Ne ws</w> 3509192
di o</w> 3502952
coun t</w> 3494957
gr inn 3492921
ma g 3490148
ir d</w> 3489934
h um 3489099
st or 3488890
ar t</w> 3488373
di e</w> 3486793
fav or 3479728
e _ 3475867
: grinn 3475539
T ra 3475047
; )</w> 3473237
:smiling_face_with_ smiling_eyes:</w> 3468777
S er 3466782
to gether</w> 3465982
wor king</w> 3465217
C a</w> 3444695
v ice</w> 3441063
M an 3440787
com es</w> 3438653
P h 3437064
R O 3434974
per f 3434518
it ies</w> 3433780
R I 3431982
il s</w> 3425687
# G 3422584
D a 3419733
f er 3410868
op e</w> 3407435
# A 3400843
tw een</w> 3398473
ho t</w> 3389204
ru n</w> 3388777
1 00</w> 3387049
A re</w> 3384535
t e 3376575
ro ll 3375367
an ts</w> 3373118
your self</w> 3368549
po st</w> 3368529
Ever y 3359186
tr u 3359058
C ha 3348483
do m</w> 3347447
ne y</w> 3346055
O K 3342550
un der</w> 3339008
o kay</w> 3333697
ati ve</w> 3328361
por t 3328028
par ty</w> 3326669
ch eck</w> 3323043
P la 3319508
sa d</w> 3318785
A f 3318368
d a 3317584
est er 3313552
pro duc 3311194
un ch</w> 3305848
bu y</w> 3304448
bu il 3300007
rea son</w> 3299110
em s</w> 3299096
su it 3298712
A t</w> 3296342
fu ll</w> 3294301
i se</w> 3292904
n um 3279780
mar k 3277973
rea li 3274237
A M</w> 3273821
gu ess</w> 3271916
nee ds</w> 3271624
le y</w> 3271306
d d 3270810
su b 3268599
En g 3266160
: re 3261452
es ome</w> 3261205
am u 3260356
en ding</w> 3258949
M u 3258938
n er</w> 3258283
m em 3257861
1 1 3253998
wom en</w> 3253378
lau gh 3249008
under stand</w> 3247530
y e</w> 3242454
or d</w> 3236038
T witter</w> 3232624
movi e</w> 3232285
supp ort</w> 3222860
# N 3216234
bu m</w> 3216206
# W 3210415
I m</w> 3208434
stu ff</w> 3208433
k ids</w> 3207413
vi ew</w> 3203016
t est</w> 3202015
may be</w> 3193588
d uring</w> 3192320
di a</w> 3188121
ec ted</w> 3188055
i e 3175938
S a 3174487
be tween</w> 3165448
us ing</w> 3165147
F ollo 3165088
I S 3161000
wan ted</w> 3158451
L ea 3157226
A pp 3148479
F in 3147250
s qu 3146424
ma d</w> 3144412
ec h 3144307
bl ack</w> 3143336
o t</w> 3142007
en tion</w> 3140054
g ar 3129227
J u 3123160
z z 3121908
feel ing</w> 3118911
de f 3114283
m en</w> 3112059
b low 3106901
ti c</w> 3106549
differ ent</w> 3104542
thin king</w> 3104223
i p 3101147
suit :</w> 3097357
am a</w> 3097123
e ts</w> 3096396
st ing</w> 3095739
oo oo 3095511
hal f</w> 3093565
: un 3086097
d ev 3083692
tw o 3080654
us h</w> 3078896
e f 3076548
ir us</w> 3075560
0 00</w> 3075366
b c</w> 3074107
l on 3071608
ou p</w> 3070805
lo st</w> 3070694
l iter 3070547
s po 3064868
bu sin 3060425
T I 3059546
o ver 3056599
ta king</w> 3054991
H ea 3052995
amu sed_face:</w> 3051505
:un amused_face:</w> 3051505
b ra 3049860
in f 3047835
tur es</w> 3045696
ing_hand s:</w> 3040376
C A 3039849
: D</w> 3038483
k ey</w> 3036139
in ed</w> 3035691
s ite</w> 3034454
p as 3033239
t ook</w> 3029799
wan ts</w> 3029231
Jo h 3028743
lat er</w> 3028536
h ell</w> 3026695
Pe ople</w> 3020429
r ac 3020274
ing_ heart 3018809
ic ally</w> 3018460
C or 3013898
b lo 3013301
follow ers</w> 3006815
L Y</w> 3003821
N or 3003215
h i</w> 2998642
sig n 2998542
b ack 2998205
brea k</w> 2997274
:heart_ suit:</w> 2996228
ing_face_with_ smiling_eyes:</w> 2994765
S H 2992311
y o</w> 2988743
s ent</w> 2986263
u te</w> 2984480
jo y</w> 2983281
cra zy</w> 2982808
inc lu 2981625
B ar 2976583
li es</w> 2974636
favor ite</w> 2972691
twee ts</w> 2967665
H ey</w> 2966220
g ames</w> 2963443
1 8</w> 2963266
wh ite</w> 2962812
pu bli 2962767
ti v 2961008
H i</w> 2958435
_heart s:</w> 2957737
d es</w> 2955517
sh ed</w> 2953163
at e 2947355
l d 2946050
re st</w> 2945600
ac h</w> 2940448
B e</w> 2938084
' all</w> 2932461
i f 2930728
st er 2928959
p ed</w> 2927393
S un 2927350
h y 2925249
ch ang 2925109
wor d</w> 2923622
U N 2923314
ul t</w> 2922801
0 . 2922059
hi gh 2921134
In ter 2917551
f lo 2916977
o thers</w> 2915949
re p 2914242
l ate</w> 2906072
mo ve</w> 2904642
s wee 2903247
k ey 2896597
C O 2895763
k il 2893829
op en</w> 2885788
oun g</w> 2883594
oun ds</w> 2883177
m ing</w> 2873622
W H 2872450
f l 2871651
di es</w> 2868970
ou d</w> 2866691
tex t</w> 2866581
st up 2865331
se x 2861987
sp ir 2858675
star ted</w> 2857952
m us 2853135
: two 2849373
d em 2848012
hea l 2844959
sec ond</w> 2842556
E V 2839302
hear d</w> 2839184
C H 2834281
I ts</w> 2830155
h e 2828571
To day</w> 2826439
i ously</w> 2825980
ge st</w> 2823481
t ball</w> 2822980
ta in</w> 2820495
h er 2818878
for m</w> 2816478
num ber</w> 2815995
E l 2811105
coun try</w> 2810055
h h</w> 2809983
ha haha</w> 2808174
ea l</w> 2805675
k ind</w> 2805190
li e</w> 2804227
G e 2795647
b lu 2794024
in e 2789941
M ic 2788056
1 3</w> 2784094
sid ent</w> 2782694
b al 2782023
pa st</w> 2780900
st re 2780829
al ity</w> 2778592
d en</w> 2777565
pro f 2777297
po ssi 2776606
st ra 2775823
c ant</w> 2771950
di rec 2763612
ut es</w> 2762517
1 6</w> 2762331
lo r</w> 2760929
on d 2759784
d ou 2758207
n e</w> 2756024
S ha 2751911
an s 2750698
fu lly</w> 2750168
roll ing_ 2749584
li m 2746532
H ere</w> 2744088
i ally</w> 2743828
ver n 2742707
exc ited</w> 2735983
bo ys</w> 2733162
ey es</w> 2732216
M i 2730494
F u 2729271
k ers</w> 2729139
n d</w> 2729125
follow ing</w> 2727832
go es</w> 2727718
:two _hearts:</w> 2723222
TH IS</w> 2722793
Wor ld</w> 2722167
f la 2721707
ti red</w> 2721183
m id 2717638
su l 2716262
a _ 2714816
is su 2709642
des er 2709370
G reat</w> 2708598
perf ect</w> 2703381
K E</w> 2701308
un e</w> 2700109
on av 2700085
2 5</w> 2699895
por t</w> 2696384
m ed</w> 2695810
con f 2695336
liter ally</w> 2692649
Bl ack</w> 2689591
R A 2685377
d ad</w> 2685013
P ho 2680315
fa st</w> 2679615
o t 2679306
O r 2677879
B a 2676893
D is 2676541
e p</w> 2671037
Ti me</w> 2669738
C an 2669140
illi on</w> 2661166
B ro 2659692
m ine</w> 2658131
ff ic 2656822
tt er 2655720
t f</w> 2655045
G o</w> 2653097
is m</w> 2652130
M ay 2651975
201 6</w> 2649246
el d</w> 2644659
u g 2643298
P M</w> 2642884
v al 2640889
m eet</w> 2639231
it al</w> 2638936
al most</w> 2635396
1 5 2632499
st ud 2628169
1 4 2628088
G ir 2627342
E N</w> 2625479
D id</w> 2625458
al bum</w> 2625283
li sh</w> 2622641
p m</w> 2621935
c ro 2621709
h our</w> 2618245
go d</w> 2616676
mom ent</w> 2614454
br ing</w> 2614251
any more</w> 2612034
busin ess</w> 2610173
T u 2607446
R ep 2604800
kis s:</w> 2600992
con si 2599679
1 6 2596816
p ic</w> 2596504
l es 2595601
St ar 2593021
1 4</w> 2593020
or _ 2592853
wor ds</w> 2592439
: bea 2591500
fac t</w> 2590979
AL L</w> 2589910
in ess</w> 2587789
T V</w> 2586878
Y es</w> 2584948
d ge</w> 2584094
il ity</w> 2583788
L LO 2579608
wa ke</w> 2579228
wa iting</w> 2578293
n am 2577772
f all</w> 2576547
C oun 2576445
f ans</w> 2575814
mat ter</w> 2575448
ble m</w> 2575059
le ge</w> 2573282
an sw 2572633
ide a</w> 2569690
M ay</w> 2568314
R es 2567802
_po int 2567187
onav irus</w> 2567170
me ans</w> 2565973
l ev 2562160
y s 2559141
v ol 2558052
off ic 2551963
I R 2550657
I D</w> 2550498
gi ving</w> 2547198
T O 2546195
p ay</w> 2543144
l a</w> 2542356
stup id</w> 2538592
happ en</w> 2538082
light _skin_tone:</w> 2536941
ing_ a_ 2535575
:face_ blow 2535507
ing_a_ kiss:</w> 2535507
:face_blow ing_a_kiss:</w> 2535507
inn er</w> 2534033
st ate</w> 2533420
I s 2532279
aw esome</w> 2531555
f re 2527944
S ome</w> 2526318
F ac 2523029
x x</w> 2522272
R i 2521217
oun d 2521180
is o 2519063
F ir 2519014
a st</w> 2517767
FO LLO 2517294
Af ter</w> 2515747
a ir 2515544
o pp 2515535
LO VE</w> 2515426
# H 2507924
clo se</w> 2507005
f an</w> 2506521
Fri day</w> 2504396
un ity</w> 2503913
Americ an</w> 2502790
po sit 2501480
de fin 2500568
om g</w> 2499578
201 5</w> 2499425
ei ther</w> 2499030
S ee</w> 2497478
L oo 2497466
sing le</w> 2495100
s al 2489902
st ri 2488121
N i 2487238
A M 2487156
list en</w> 2485504
ag es</w> 2483534
T S</w> 2481392
par t 2481274
p ur 2480125
i on 2479523
B est</w> 2479298
O F</w> 2477223
t en</w> 2476521
t t</w> 2475542
wom an</w> 2474377
v id 2471532
ca p 2469595
M an</w> 2469580
min utes</w> 2465014
r y 2463241
be g 2460521
a il 2458225
t ro 2457368
1 . 2455766
ss ed</w> 2455005
M in 2453919
O b 2453249
for get</w> 2453198
U p 2452307
G re 2452277
k a</w> 2450476
vo te</w> 2448163
S m 2445950
1 3 2443375
m m</w> 2437152
wat er</w> 2436657
n u 2435985
e lo 2435380
pp l</w> 2434763
sum mer</w> 2434716
E T</w> 2434708
smil ing_face:</w> 2433525
m ess 2431682
p op 2426545
war ds</w> 2421721
W ill</w> 2421655
suc c 2419544
: rais 2418707
b and</w> 2417854
On ly</w> 2417655
lo v 2417269
I G 2417255
ca se</w> 2415896
1 7</w> 2414817
pol it 2411579
th y</w> 2411425
ss es</w> 2409761
l er</w> 2408632
to wn</w> 2404965
ing_heart :</w> 2404541
smil e</w> 2403986
th ree</w> 2402734
cont in 2402713
d ream</w> 2402103
W A 2400388
W at 2400368
pic ture</w> 2399485
al one</w> 2398581
y le</w> 2396365
v s</w> 2391469
I M</w> 2388336
k ee 2384352
wor th</w> 2383845
ele br 2381974
ri ed</w> 2379839
A B 2378331
d on 2375846
i gh 2373940
W al 2373724
cur r 2370649
s end</w> 2368374
1 7 2368278
B ra 2368099
de d 2366854
19 9 2364040
Li fe</w> 2363770
pl an 2361272
dea l</w> 2360818
ester day</w> 2359803
M c 2359293
w ear</w> 2357064
im port 2355835
v il 2351182
pro blem</w> 2349213
en ded</w> 2347580
un i 2342535
ad ded</w> 2339632
t ick 2339523
HA HA 2339480
b b 2335710
d ers</w> 2333326
F rom</w> 2330470
w el 2327390
Ch ar 2326299
lo gy</w> 2321684
h and</w> 2319183
u u 2316581
:medium _ 2316575
C am 2316513
as h</w> 2314063
mon th</w> 2311836
: sp 2311064
no w 2309301
t ou 2306198
M ore</w> 2303498
ma l</w> 2303414
bea t</w> 2302125
Y eah</w> 2301914
Christ mas</w> 2301429
D O 2301128
c k 2300336
y 'all</w> 2298203
st and 2297342
st ic</w> 2296880
ch ance</w> 2290763
or der</w> 2289678
est ing</w> 2289382
f ight</w> 2288644
li ce</w> 2287640
S ho 2286428
to s</w> 2285050
P a 2284847
er al</w> 2281720
br o</w> 2281035
pr oud</w> 2277286
1 st</w> 2271590
pl ac 2271498
fin ally</w> 2270203
: - 2268049
P O 2258683
: OK 2257081
sw eat 2256660
2 4</w> 2254547
W i 2252241
see ing</w> 2250576
b ig 2250123
play ed</w> 2249825
to t 2245912
ust in</w> 2242808
y y 2242609
M or 2242480
s ick</w> 2241859
wal k</w> 2239257
sc ar 2236964
con cer 2233689
k ind 2233489
h ind</w> 2232906
t it 2232722
app o 2232359
m b 2232014
po wer</w> 2230092
dre n</w> 2229372
g row 2228593
NO T</w> 2227934
wee ks</w> 2226746
:OK _hand:</w> 2226438
j ect</w> 2224045
ne l</w> 2222032
dea d</w> 2219912
bro ther</w> 2218263
cour se</w> 2212565
t ill</w> 2211799
- -</w> 2210584
rec i 2206993
ac ks</w> 2206970
S ec 2206777
v en 2206159
h ey</w> 2205923
# R 2205431
es day</w> 2203695
mon ths</w> 2202999
FO R</w> 2202630
r ing</w> 2199072
O ur</w> 2198583
C ity</w> 2196816
inst ead</w> 2195939
U p</w> 2193876
S y 2193371
f ic 2192875
t able</w> 2191933
v el</w> 2189728
un k</w> 2189603
b ri 2186463
w on</w> 2186247
ho ld</w> 2184868
em o 2184170
ir t</w> 2179033
W ea 2176349
PL EA 2176183
f ine</w> 2175455
c l 2174854
NO W</w> 2174286
m ing_face_with_smiling_eyes:</w> 2173413
:bea ming_face_with_smiling_eyes:</w> 2173413
S ta 2171751
c oo 2171342
lo se</w> 2167359
do g</w> 2167178
W ar 2166519
lo y 2166437
D u 2165303
str uc 2165228
ac count</w> 2164546
ark l 2162188
in ts</w> 2162129
on y</w> 2161086
d le</w> 2160704
H ope</w> 2160021
4 0</w> 2157737
nigg as</w> 2157249
Fir st</w> 2156091
:sp arkl 2155728
: th 2154010
B ec 2152286
V ideo</w> 2151597
kno wn</w> 2149380
as ked</w> 2148558
:w in 2146236
n ational</w> 2145925
ea ting</w> 2145892
resp on 2145184
u ro 2144225
N a 2143182
The se</w> 2140075
LO L</w> 2138615
er a</w> 2138582
tr y 2133512
g y 2132658
y oung</w> 2131660
medi a</w> 2131174
us si 2128768
lo ad</w> 2126823
s of 2126331
ga ve</w> 2122658
b la 2122068
c ity</w> 2121305
k new</w> 2120948
it ely</w> 2120811
fu ture</w> 2119150
W om 2117101
z a</w> 2115272
V o 2112681
D ec 2112632
p t</w> 2109762
2 1</w> 2109297
n et</w> 2107815
c ry</w> 2107028
# L 2105850
du de</w> 2103602
es si 2103153
be come</w> 2102641
: smiling_face:</w> 2101277
pre ssi 2100818
j a 2098206
y esterday</w> 2097596
c ut</w> 2097357
i v 2094474
, 000</w> 2091441
est ly</w> 2090886
FOLLO W</w> 2090771
cu z</w> 2090624
H is</w> 2088414
Americ a</w> 2088327
b loc 2081411
sh ar 2081361
R ec 2079348
P P 2078387
oo o</w> 2074446
atur day</w> 2073454
bo x</w> 2073169
M is 2072922
D AY</w> 2072601
_hand s:</w> 2072358
B ea 2070324
eb ook</w> 2070065
in es</w> 2069691
gr oup</w> 2068032
r an 2067939
ti es</w> 2066824
es sed</w> 2065500
PLEA SE</w> 2065241
ear ch</w> 2062612
m ed 2061378
id k</w> 2061229
hur t</w> 2060659
) :</w> 2057366
k ill</w> 2054536
ear ing</w> 2054038
cont ro 2053792
# I 2052114
import ant</w> 2051857
won der</w> 2051247
on line</w> 2050970
U K</w> 2050864
in ce</w> 2050858
C ome</w> 2050851
st em</w> 2050040
ch er</w> 2049006
el t</w> 2048052
O r</w> 2047928
an no 2046029
lou d</w> 2045604
fr ont</w> 2044552
ec e</w> 2042434
ic a</w> 2042347
c at 2039374
y ou 2033428
si ster</w> 2031823
we ird</w> 2030775
for ward</w> 2030429
B U 2030369
s ou 2027506
gla d</w> 2027130
st e</w> 2026962
slee p 2026643
possi ble</w> 2024877
quest ion</w> 2023846
ro ss</w> 2023604
ensi ve 2023140
for ever</w> 2018508
an i 2018174
:p ensive 2017592
:pensive _face:</w> 2017592
supp o 2017393
e er</w> 2016947
: /</w> 2016348
enc y</w> 2016197
happ ened</w> 2016045
sc re 2015787
ex t 2014883
2 . 2013584
w hat 2011233
kno ws</w> 2010700
com ple 2007823
umb s_ 2006440
de p 2006434
:th umbs_ 2006403
at or</w> 2006266
vern ment</w> 2006039
pic s</w> 2005967
lear n</w> 2004128
d um 2002892
S E 2001431
D on 1998695
par ents</w> 1998378
sm all</w> 1997682
n er 1997535
be hind</w> 1997030
c re 1996837
won der 1996103
ex peri 1993455
en se</w> 1993412
bo y 1990084
N ever</w> 1989946
iso de</w> 1989572
t u 1986841
wor ks</w> 1986313
lic k</w> 1986035
F UC 1982747
i i 1981600
d ar 1980889
D es 1980690
Follo w</w> 1979987
g an 1979964
at ely</w> 1979262
C la 1976193
d ates</w> 1971838
ma il</w> 1971184
t ar 1970604
at a</w> 1970150
S e 1969986
# K 1964222
O c 1962795
th ats</w> 1962461
B O 1960251
# E 1958492
KK KK 1956850
vi e 1956802
l ink</w> 1956715
for d</w> 1955191
S o 1952036
U ni 1951946
Un ited</w> 1951344
ish ed</w> 1951269
Go t</w> 1945906
out side</w> 1941368
rel ation 1941266
ic al_ 1939552
ser iously</w> 1939008
sen se</w> 1937678
l an 1936821
t a</w> 1934970
rea ding</w> 1934121
e - 1932873
O p 1930063
foo tball</w> 1929616
S T</w> 1929441
ag ree</w> 1925134
ho l 1924345
ol ded 1923686
:f olded 1922689
:folded _hands:</w> 1922689
B y</w> 1921296
re s 1921163
m ee 1916799
some times</w> 1915490
W atch</w> 1914836
or ies</w> 1913384
Y ou 1912467
s ons</w> 1911644
ru gg 1910938
w o 1910910
Y or 1909792
d it 1908621
Wh ite</w> 1907120
Bi g</w> 1906146
pa in</w> 1904544
li ving</w> 1903913
on g 1903546
ail able</w> 1901741
up :</w> 1900838
k id</w> 1899079
u n</w> 1898999
( :</w> 1898098
hea d 1897867
sm h</w> 1896642
en ter</w> 1895428
f em 1894833
ch ec 1893621
w er 1892728
201 4</w> 1892155
z ed</w> 1890712
d nt</w> 1889420
ra ther</w> 1889107
run ning</w> 1888842
AA AA 1887369
A L</w> 1886474
F ree</w> 1886250
p ea 1885476
rec ei 1880565
co ver</w> 1879985
D em 1878476
l uck</w> 1877675
Joh n</w> 1876834
mark :</w> 1873052
d rea 1871999
sho t</w> 1871918
fir e</w> 1871891
ta kes</w> 1871623
s er</w> 1869686
G ra 1869064
Wh ere</w> 1867885
Ha ha</w> 1864787
wor st</w> 1862900
ev il 1862829
tri ed</w> 1862744
sign :</w> 1857792
sw ear</w> 1857765
i mag 1857624
J e 1855736
Sun day</w> 1854627
P u 1850674
vo ice</w> 1850182
mon key 1850168
an nel</w> 1850023
c hat</w> 1849632
May be</w> 1849454
L u 1848123
s mo 1848073
d ay 1847159
ea sy</w> 1847148
u tion</w> 1845679
ON E</w> 1844521
v ers</w> 1843870
r is</w> 1841056
du e</w> 1839602
g a</w> 1838758
L E</w> 1837618
F l 1837439
p ick</w> 1835369
In st 1835135
sm ir 1834332
chil dren</w> 1833763
sh are</w> 1830482
B ir 1830394
fi eld</w> 1829921
di an</w> 1829851
p is 1829283
f li 1826719
w eb 1826495
ent al</w> 1825429
Ph one</w> 1825385
en joy</w> 1822727
dea th</w> 1822560
re li 1822208
N O</w> 1821543
vi d</w> 1820842
g le</w> 1820775
st om 1819133
follow ed</w> 1818899
or ts</w> 1818839
Wea ther</w> 1816956
U R</w> 1816531
ind ic 1813884
spec ial</w> 1813663
per form 1813275
An y 1812888
v ide 1812525
t b 1812372
ty pe</w> 1811802
si mp 1811715
qu e</w> 1809293
S oc 1809168
c old</w> 1807517
swee t</w> 1807244
C H</w> 1807196
cou ple</w> 1805819
pro t 1805171
sweat :</w> 1805152
at ure</w> 1803532
bor n</w> 1802068
K ING</w> 1801673
Ne w 1801018
S O 1797943
or d 1796479
f an 1794383
al low 1793961
no - 1792807
tr a</w> 1791733
201 7</w> 1788049
c elebr 1787709
G en 1787588
S aturday</w> 1787506
s il 1787150
Fac ebook</w> 1787072
soc ial</w> 1785129
w w 1781856
u su 1777729
A N</w> 1775557
P ri 1773822
R em 1772225
Th en</w> 1771693
w il 1770650
publi c</w> 1770513
2 2</w> 1770471
str ong</w> 1770388
L D</w> 1767504
c i 1766895
F uck</w> 1765109
act ly</w> 1762911
NE W</w> 1762697
defin itely</w> 1761608
g ed</w> 1758439
t ly</w> 1758276
ur y</w> 1757912
j u 1755258
6 0</w> 1755240
2 4 1754186
lo ved</w> 1754108
il ls</w> 1753124
B lu 1752793
ad a</w> 1752013
est ed</w> 1751536
3 0 1751446
bl ems</w> 1751008
dre ss</w> 1750848
do or</w> 1749519
st a 1749444
Li ve</w> 1749370
fe e</w> 1748384
app ro 1747904
al e_ 1747535
gh ter</w> 1747457
co ver 1747439
ton gu 1747303
ale_ sign:</w> 1746345
G i 1746058
see ms</w> 1745224
s na 1744896
S al 1743650
col lege</w> 1743176
C al 1743017
T R 1742935
T E</w> 1742524
f al 1741422
19 8 1741419
Ma ke</w> 1739007
A m 1738585
Br it 1737060
G er 1737051
li l</w> 1735097
H T</w> 1734261
T ur 1732665
T ea 1732383
sho ws</w> 1731834
ha n</w> 1730488
H ouse</w> 1730203
B ri 1729246
f ea 1728211
sh ing</w> 1727851
c es</w> 1726156
To p</w> 1725807
ic es</w> 1725527
F e 1725063
E ar 1722465
answ er</w> 1721766
ad v 1718259
vers ity</w> 1718135
sel ves</w> 1716763
AR E</w> 1716729
: smir 1715204
:smir king_face:</w> 1715204
T al 1713426
man ag 1713207
do c 1711938
:grinn ing_face_with_ 1711603
fi re 1710791
ma in</w> 1710406
ec ts</w> 1710325
D I 1709951
tongu e:</w> 1709550
p an 1709366
kind a</w> 1709345
j ud 1708798
st on</w> 1705923
m et</w> 1703553
ser vice</w> 1702390
D ra 1702029
p at 1700942
k k 1700365
pl an</w> 1699988
f it</w> 1699891
d ol 1698340
list ening</w> 1698054
uc ky</w> 1697818
pic tures</w> 1694120
en e 1690330
ul l 1689490
B E 1684750
sig n</w> 1684118
ma j 1683518
S or 1682882
h ands</w> 1681428
M at 1681061
W ould</w> 1680260
Ob ama</w> 1680005
no body</w> 1679705
sur pri 1679225
S A 1678604
E ven</w> 1678402
ha m</w> 1677786
al ong</w> 1676145
b ers</w> 1675588
s la 1675549
TH AT</w> 1673806
B C</w> 1672942
dri ve</w> 1671682
oc k</w> 1671514
play er</w> 1671098
c le</w> 1670469
201 8</w> 1670211
stra ight</w> 1667369
r r 1667077
u lar</w> 1666885
er ing</w> 1665952
ser ies</w> 1665395
wea ther</w> 1665243
W as</w> 1664847
9 9</w> 1664670
201 3</w> 1664517
chil d</w> 1664000
k et 1663496
pl s</w> 1663377
:thumbs_ up:</w> 1661707
it ch</w> 1661399
est er</w> 1661289
E d 1659329
dr ink</w> 1659261
resp ect</w> 1658888
sh ed_face:</w> 1658266
W ee 1658175
monkey :</w> 1657694
lau gh</w> 1656625
cor onavirus</w> 1656184
fi ed</w> 1656117
Mu sic</w> 1654394
st ea 1652796
V i 1652479
dev elo 1650794
O ut</w> 1650373
g rea 1648680
ne w 1647503
son gs</w> 1646696
3 . 1646514
s ound</w> 1645020
Com m 1645005
R ev 1644312
t rea 1642259
- no- 1639127
s it</w> 1636636
a use</w> 1635924
su per</w> 1635241
re sul 1634481
evil _ 1634285
Yor k</w> 1634190
-no- evil_ 1634032
-no-evil_ monkey:</w> 1634032
feel s</w> 1632829
pre s 1629123
qu i 1628960
ab sol 1628846
Pre sident</w> 1628329
d red 1626955
St ate</w> 1626580
fil m</w> 1626353
jo in</w> 1626315
ist s</w> 1625769
pla in</w> 1625324
ap p</w> 1624663
US T</w> 1624017
f ig 1623972
m illion</w> 1623416
E very</w> 1623305
w ed</w> 1623204
:- )</w> 1623096
U M 1622053
lev el</w> 1621431
tr ust</w> 1621405
C l 1618583
s n 1617425
r a</w> 1615596
201 9</w> 1614491
r s</w> 1613657
OU T</w> 1612870
hun dred 1612545
star ting</w> 1612233
mb ol 1612230
st at 1611329
E uro 1611272
por n</w> 1610391
app reci 1610007
g n 1609693
mis sed</w> 1608875
c o</w> 1607264
f er</w> 1606312
iz e</w> 1605860
p age</w> 1604723
2 5 1604367
St ill</w> 1603763
4 5</w> 1603510
sh ort</w> 1602802
V al 1602650
w it</w> 1602352
: hundred 1602053
_point s:</w> 1602053
:hundred _points:</w> 1602053
ig n 1602000
Bec ause</w> 1600301
sy mbol 1599948
ec h</w> 1598680
av ailable</w> 1598563
s k</w> 1597636
m fa 1596444
ch e 1595352
I m 1595305
lo gi 1594936
E X 1594923
fa ke</w> 1594761
:re gi 1593777
ro ad</w> 1593434
Al so</w> 1592341
p ass</w> 1588561
sy stem</w> 1588307
c us 1587143
lo ves</w> 1586400
c li 1586001
Sc hool</w> 1585983
g ood 1585566
be t</w> 1583924
E C 1583513
c ed</w> 1583070
2 3</w> 1582548
in al</w> 1582048
clu b</w> 1582006
y ours</w> 1580948
or ig 1579788
pr act 1579580
ond on</w> 1579002
Fu ll</w> 1578180
ur ch</w> 1576666
c op 1576289
tru th</w> 1576261
lu shed_face:</w> 1574770
:f lushed_face:</w> 1574770
c as 1572038
s ounds</w> 1571776
Mon day</w> 1571282
M O 1570462
hon estly</w> 1570392
g es</w> 1570337
# t 1570022
W ow</w> 1569919
wat ched</w> 1569356
tur ned</w> 1568601
IL L</w> 1568386
b en 1567115
g on</w> 1566449
is ion</w> 1565546
t ers</w> 1564649
hi story</w> 1564639
OM G</w> 1563520
Pla ying</w> 1563125
pl et 1562063
tel ling</w> 1561544
b el 1559695
ag ra 1559672
bo ard</w> 1556945
B E</w> 1555451
F RE 1554546
n on 1553287
deser ve</w> 1553133
g an</w> 1553075
vide os</w> 1552405
d ark 1549491
C u 1549251
n ec 1548942
B ab 1548514
l eep</w> 1548074
TH E 1547997
hh h</w> 1547900
re gi 1547778
T W 1547091
La st</w> 1546646
Li st 1546533
Ta ke</w> 1546233
ti on 1545841
comp any</w> 1545297
st ro 1544960
y er</w> 1544642
D ea 1544365
W E</w> 1544320
s is</w> 1544047
Di rec 1542507
mo ther</w> 1542148
B er 1542124
L A 1541679
A b 1541301
d en 1541026
ar ti 1541009
c ul 1540633
ep isode</w> 1540369
enti al</w> 1539652
gr ound</w> 1539258
ie ty</w> 1538380
sa ve</w> 1538202
B ack</w> 1538006
r t</w> 1534103
J a 1533807
F i 1533242
m _ 1532180
di ed</w> 1531789
in king</w> 1530050
:face_with_ rolling_ 1528528
:face_with_rolling_ eyes:</w> 1528528
ex t</w> 1527917
f ro 1527212
_ b 1527094
J es 1526698
go vernment</w> 1524110
pro blems</w> 1522355
2 nd</w> 1522095
pre ss</w> 1520372
Rea lly</w> 1520350
w ed 1520086
c el 1519113
heal th</w> 1518997
of fee</w> 1518616
vis it</w> 1514995
u ght</w> 1514558
e ff 1513418
hum an</w> 1513272
S outh</w> 1512494
pho to</w> 1512173
bu s</w> 1511610
relation ship</w> 1511418
t re 1511125
ar ea</w> 1510477
V ID 1510305
st ers</w> 1510287
a int</w> 1509809
T ri 1509384
R ussi 1509170
:rais ing_hands:</w> 1508840
en n 1508430
dis appo 1508377
T w 1507532
en a</w> 1506780
w ow</w> 1506779
m outh</w> 1506584
F A 1505714
n ear</w> 1504944
ac tion</w> 1504878
in side</w> 1504196
m ul 1503935
im p 1503704
T ho 1503429
ati c</w> 1503173
pro gra 1502683
H ol 1502215
s em 1501885
ss ing</w> 1500947
ar ds</w> 1500087
: sleep 1500051
ri ble</w> 1500020
en ter 1499917
d ance</w> 1499613
play ers</w> 1499474
com pe 1497884
L ondon</w> 1497137
er :</w> 1496587
fuc ked</w> 1496392
Do es</w> 1495716
J an 1495614
il ed</w> 1495362
on :</w> 1495190
tt le</w> 1495125
: 30</w> 1494663
A bout</w> 1493774
A n</w> 1493751
w ood</w> 1493337
sp end</w> 1493003
hea v 1492283
gen er 1492054
t un 1491840
In dia</w> 1490295
lea n</w> 1490108
ic ks</w> 1489744
H er</w> 1489113
re lea 1487287
L ook</w> 1486613
es p 1485830
A fr 1485407
A ma 1485395
play list</w> 1485278
st ar</w> 1485156
s ever 1484308
S ea 1484113
le tter 1483822
H um 1482691
s a</w> 1482584
bas ed</w> 1481954
v ir 1481219
se y</w> 1480802
some body</w> 1480156
H el 1480129
B oo 1479067
c er</w> 1478092
19 7 1478000
b ly</w> 1477154
nee ded</w> 1476948
K a 1476936
form ation</w> 1476360
st y</w> 1475436
bit ches</w> 1473123
reali ze</w> 1471619
st ore</w> 1471297
ha el</w> 1471062
y el 1470292
e x</w> 1469219
pri l</w> 1469019
ch ee 1468944
oo gle</w> 1468850
ac y</w> 1467582
b t</w> 1467099
ut ely</w> 1466830
us es</w> 1466715
tr an 1466615
gra ph 1466563
mus ical_ 1466351
: musical_ 1466311
ed uc 1464951
ES T</w> 1462951
ca st</w> 1462430
r an</w> 1462018
anc es</w> 1461732
spea k</w> 1460890
9 . 1460727
fin al</w> 1459738
M il 1459453
G O</w> 1458877
# No 1458874
dum b</w> 1458469
S P 1458460
# O 1457968
cr ying</w> 1457458
ta ken</w> 1457119
p ra 1456873
EN T</w> 1456601
pro c 1456383
a ir</w> 1454696
el ec 1454468
wor ry</w> 1454426
en e</w> 1453633
al d</w> 1452755
g ay</w> 1450642
ser ious</w> 1450623
k o</w> 1450597
F C</w> 1450117
happ ens</w> 1450002
T im 1449587
D O</w> 1449127
OO OO 1448965
b loo 1448787
H u 1448442
i ans</w> 1447758
T V 1447068
Ju ly</w> 1446088
el ess</w> 1445987
j ust 1445285
Ne ed</w> 1444173
b ought</w> 1443725
l o</w> 1443564
wi fe</w> 1442675
_ letter 1442332
m ate</w> 1441910
Sor ry</w> 1439628
201 2</w> 1438584
# i 1438155
un t</w> 1437951
ing ton</w> 1437897
r ound</w> 1437124
wr ite</w> 1436291
tt e</w> 1435147
US A</w> 1434314
contro l</w> 1434124
S en 1433219
loo ked</w> 1432861
every day</w> 1432267
5 0 1432168
c ent 1431008
M y 1430018
lea d</w> 1428740
Y S</w> 1427912
k i 1426039
f o 1425800
der ed</w> 1425473
S um 1422516
sh irt</w> 1421903
K eep</w> 1421811
C ra 1421255
D M</w> 1421198
as king</w> 1419992
ic an</w> 1419794
ex actly</w> 1418544
the _ 1417921
B us 1417658
pp er</w> 1416256
what ever</w> 1415915
w earing</w> 1415137
p es</w> 1413633
ho me 1413588
Some times</w> 1413393
gi ven</w> 1413334
ta in 1412969
movi es</w> 1412559
jo bs</w> 1412463
E O</w> 1412284
u ty</w> 1411922
er gy</w> 1411508
t es</w> 1411344
ur s 1411286
Hea l 1411186
la w</w> 1410391
wor se</w> 1409304
p al 1408289
g am 1408131
g as</w> 1406961
chang ed</w> 1406383
b a</w> 1406207
T ru 1404783
in spir 1403459
Mo st</w> 1402333
le ts</w> 1402076
r or</w> 1399382
ho m 1398362
No v 1396957
:musical_ not 1395114
T em 1394323
O K</w> 1394305
off ice</w> 1394058
: 00</w> 1393765
id ed</w> 1392944
f ol 1392368
2 6</w> 1392132
L E 1391994
on _ 1391979
ug ly</w> 1391790
d i</w> 1391193
wa r</w> 1390835
am s</w> 1390811
T A 1389744
g ust</w> 1389699
H A</w> 1389582
jo ke</w> 1388278
ra in</w> 1387621
' S</w> 1387123
b an 1386391
# n 1385209
m ist 1385149
2 8</w> 1385005
b at 1384833
sc i 1384369
ir ed</w> 1382787
sho p</w> 1382385
agra m</w> 1381761
A pril</w> 1381405
indic at 1380839
H er 1380406
att le</w> 1379855
i o</w> 1379679
see m</w> 1378567
ad m 1377699
de l</w> 1377093
rea l 1376117
w ever</w> 1375850
of ten</w> 1373235
experi ence</w> 1372313
: thin 1371922
:thin king_face:</w> 1371922
2 7</w> 1371174
wor k 1370906
U P</w> 1370752
Every one</w> 1370385
mat ch</w> 1369978
g ro 1369915
str ic 1369424
c atch</w> 1368692
pi ece</w> 1368336
o wn 1367618
J ustin</w> 1367605
ann oun 1367297
W est</w> 1366868
W in 1366769
f ing 1366453
oc r 1366316
im a</w> 1365513
S top</w> 1365419
it ch 1365373
A no 1365002
sh ut</w> 1364026
W ed 1363971
it ting</w> 1363885
in ted</w> 1362599
on al_ 1362126
de li 1362011
indicat or_ 1361864
symbol _letter 1361863
:regi onal_ 1361863
indicator_ symbol_letter 1361863
:regional_ indicator_symbol_letter 1361863
ri es</w> 1361680
for got</w> 1361445
us sy</w> 1361417
ER E</w> 1361330
boy friend</w> 1359809
e f</w> 1359226
ha ts</w> 1358474
:medium _skin_tone:</w> 1355595
ev ent</w> 1355501
d ick</w> 1355004
sh es</w> 1354967
ur ity</w> 1353771
w l</w> 1352753
sa fe</w> 1352532
V ER</w> 1352411
aa aa 1352242
S co 1351440
cla pp 1351039
Mar ch</w> 1350908
Con gr 1350880
li ves</w> 1350839
or gan 1350776
H igh</w> 1350717
Eng lish</w> 1350584
sc ri 1350566
scar ed</w> 1350344
er ed</w> 1350054
p hi 1349808
d anc 1349719
ea s</w> 1349593
po ints</w> 1348218
M us 1347968
ev ed_face:</w> 1347884
pa id</w> 1347727
ar tic 1347345
f rea 1346488
tick ets</w> 1346188
Au str 1346091
tr ack</w> 1345751
s li 1345251
ho li 1344529
sex y</w> 1344368
op in 1343931
tri p</w> 1343453
: clapp 1343126
o d</w> 1341748
W e 1341622
bu l 1340985
oo oo</w> 1340932
H ome</w> 1340687
r d</w> 1340650
b ye</w> 1340560
kil led</w> 1339718
anno ying</w> 1339551
Wom en</w> 1337876
W HA 1336337
d y 1335463
J ap 1335311
: ' 1334841
g un 1334670
m ents</w> 1333524
P ol 1332321
G A 1331302
c ks</w> 1331062
# V 1330768
bro ke</w> 1330657
w tf</w> 1329907
d el 1328096
ch i 1327542
hi m 1326744
H on 1325314
c ard</w> 1325297
y _ 1325294
ke ting</w> 1324095
ing_hand :</w> 1323455
inclu ding</w> 1323381
k a 1323302
dro p</w> 1322405
ar m</w> 1322341
p ool</w> 1321853
the m 1321316
d ly</w> 1321032
att ention</w> 1320838
f oc 1320225
f at</w> 1319933
Ano ther</w> 1319826
R u 1319494
O m 1319166
I d 1317916
on ds</w> 1316907
FRE E</w> 1315262
E M 1314896
na h</w> 1314886
: light_skin_tone:</w> 1314623
tr ac 1314317
Ge or 1314241
lon ger</w> 1314220
W il 1312532
c y 1312201
I I</w> 1312015
gir l 1311463
b ru 1310974
L mao</w> 1310879
f elt</w> 1310717
:clapp ing_hands:</w> 1310397
lo ts</w> 1310234
fa ir</w> 1309265
enc es</w> 1308173
ou th 1307554
ell o</w> 1307168
4 . 1306883
:win king_face:</w> 1306782
fer ence</w> 1305789
por ts</w> 1305537
v ar 1305441
suppo sed</w> 1305119
Sta r</w> 1304379
ep t 1303827
re qu 1303323
loc al</w> 1303076
enti re</w> 1302104
sit ting</w> 1302019
K ar 1301707
O F 1300705
sc or 1300685
J une</w> 1300348
try na</w> 1300061
P i 1299772
F o 1299351
M ad 1299111
R ed</w> 1298425
every body</w> 1297431
col l 1296998
cal ling</w> 1296771
P at 1296747
S tr 1296479
F L</w> 1295605
Jes us</w> 1295603
oun t</w> 1295186
B rea 1293271
1 / 1292962
es sion</w> 1292577
an na</w> 1292557
N ational</w> 1291374
D S</w> 1290398
a f</w> 1290297
ho t 1289761
Nor th</w> 1289501
fin ished</w> 1289270
D ON 1287663
stand ing</w> 1287475
est s</w> 1286797
stud ents</w> 1286676
as s 1286617
G la 1286247
E m 1285965
big gest</w> 1285134
S k 1283313
: fire 1283088
:regional_indicator_symbol_letter _ 1282605
p a</w> 1282045
en ch</w> 1281895
in o</w> 1281068
c hoo 1280494
qu ite</w> 1280460
en tr 1280318
H ear 1280028
sc rea 1279707
ta ils</w> 1279084
li er</w> 1278994
pho tos</w> 1278857
r it 1277956
uc k 1277551
sc ho 1276579
: g 1274878
ad d</w> 1274682
S el 1273819
M er 1273347
_ _</w> 1272932
y all</w> 1272539
me ant</w> 1272200
wr iting</w> 1272070
tr ans 1271999
any way</w> 1271676
gr and 1271392
S S 1271233
ver sion</w> 1269800
en ted</w> 1267989
f our</w> 1267904
g ing</w> 1266357
ur ple 1266280
2 9</w> 1266246
Some one</w> 1266185
t ech 1265463
brea k 1263785
po or</w> 1263520
gre ss</w> 1262174
m o</w> 1261381
gla ss 1261179
st ep</w> 1260802
ri de</w> 1260550
G ame</w> 1260446
Par ty</w> 1260337
G ar 1260309
an ing</w> 1260173
AN T</w> 1258828
mid dle</w> 1258763
gi ves</w> 1256954
f y</w> 1255736
th row</w> 1254700
v el 1254553
C ould</w> 1254255
go al</w> 1252352
S il 1252261
issu e</w> 1251486
:p urple 1251363
:purple _heart:</w> 1251279
twee ting</w> 1250750
en joy 1250187
ensi ve</w> 1250063
D amn</w> 1248969
5 . 1248962
boo ks</w> 1248919
H H 1248445
inv est 1248297
_ mark:</w> 1248131
Ne t 1247732
um p 1247714
i Phone</w> 1247190
:fire :</w> 1246986
Ch ina</w> 1246107
# The 1245302
p en 1245227
ing_face_with_ tongue:</w> 1244311
un g</w> 1244124
Rea d</w> 1243286
st yle</w> 1242947
fin ish</w> 1242910
min ute</w> 1242532
la dy</w> 1242329
xx x</w> 1241549
urs day</w> 1241293
bu tt 1241234
be came</w> 1241151
A w 1240841
iz ed</w> 1240634
f ur 1240189
lov ely</w> 1240117
App le</w> 1239857
a ds</w> 1239144
e ed</w> 1237433
9 0</w> 1237400
hu ge</w> 1236942
YO UR</w> 1236938
Gir l</w> 1236307
ac ked</w> 1236200
con st 1235840
di dnt</w> 1235441
ba g</w> 1235270
Sh ould</w> 1234988
ra l</w> 1234784
lat est</w> 1234300
S how</w> 1234278
D ev 1234137
c at</w> 1233389
sit u 1232855
ou l 1232453
or ity</w> 1230485
m in</w> 1230384
d au 1230169
V e 1229483
do w</w> 1229311
t em 1229208
par tic 1229014
:grinning_face_with_ sweat:</w> 1227992
0 s</w> 1227000
mis sing</w> 1226390
se a</w> 1226088
D ar 1225719
Loo king</w> 1225367
star ts</w> 1224811
pre sent</w> 1224217
mo ved</w> 1223733
ou ghts</w> 1223550
po lice</w> 1223336
mess age</w> 1223061
ac ross</w> 1222979
:medium_ light_skin_tone:</w> 1222318
rec ord</w> 1221815
on_ the_ 1221299
flo or_ 1221047
rolling_ on_the_ 1221014
floor_ laugh 1221014
rolling_on_the_ floor_laugh 1221014
: rolling_on_the_floor_laugh 1221012
:rolling_on_the_floor_laugh ing:</w> 1221012
dark _skin_tone:</w> 1219931
Mic hael</w> 1219881
v ent</w> 1219377
en ge</w> 1218998
sec re 1218863
char ac 1218800
as si 1217531
for t</w> 1217240
J UST</w> 1216985
pa per</w> 1216606
po sted</w> 1216382
:musical_not es:</w> 1214428
AC K</w> 1213262
S i 1212383
s ch 1211127
bu sy</w> 1210634
G E</w> 1210599
S ur 1210304
dr unk</w> 1210298
sel f 1210242
# J 1208077
lo b 1207925
2 3 1207817
it u 1206951
ec ially</w> 1206170
d ru 1205764
d inner</w> 1205353
i al 1205303
j our 1205065
op s</w> 1204980
it es</w> 1204122
ey e</w> 1203864
T y 1202808
p tion</w> 1202557
Pho to</w> 1201170
B ur 1201054
cha ll 1199758
Uni versity</w> 1198479
with in</w> 1198433
B ay</w> 1198368
LI KE</w> 1197968
ti e</w> 1197553
No thing</w> 1197459
ba be</w> 1196494
c offee</w> 1196437
hoo d</w> 1195665
k i</w> 1195609
l ucky</w> 1195460
8 0</w> 1194178
J ames</w> 1193240
F un 1193148
bu ll 1192754
as leep</w> 1192690
ga in</w> 1192250
e mail</w> 1192166
# f 1192161
r ic 1191280
T er 1190669
To o</w> 1190425
Go ing</w> 1190405
web site</w> 1188091
feel ings</w> 1188080
blo g</w> 1187952
IT H</w> 1186061
gh ting</w> 1185808
ab ility</w> 1185676
la h</w> 1185599
p p</w> 1185481
thin ks</w> 1185334
Au gust</w> 1184586
contin u 1184563
p ussy</w> 1184241
shi ps</w> 1184116
li f 1183759
t ors</w> 1183332
esp ecially</w> 1183224
N igg 1182237
quest ions</w> 1182110
U P 1182049
fa ther</w> 1181068
st age</w> 1180947
et c</w> 1180765
li kes</w> 1180756
c ir 1180734
Y ear</w> 1180625
i li 1180343
m ood</w> 1180310
th es</w> 1179612
EV ER 1179507
St re 1178986
re min 1178191
A t 1176625
him self</w> 1176397
li k 1175533
ee ee 1175528
con v 1174313
vic es</w> 1173511
sp ace</w> 1173329
e qu 1172255
L A</w> 1171869
A ss 1171825
C ur 1169891
on a</w> 1169612
y ea</w> 1169355
vil le</w> 1168731
H ad</w> 1168660
M r</w> 1168518
plet ely</w> 1167871
pro v 1167870
tot ally</w> 1166913
o te</w> 1166890
mo ving</w> 1165489
Rea l</w> 1164889
Tw o</w> 1164590
wel come</w> 1164359
di st 1162614
id ent</w> 1162020
ne t 1161407
F am 1161362
to ber</w> 1160857
i or</w> 1160311
ex pressi 1159916
stu dy</w> 1159729
th ro 1159707
T om 1159628
inv ol 1158354
blu e</w> 1158340
ti onal</w> 1157583
cu stom 1157510
a ff 1157320
po t 1156656
vic tor 1156513
w ers</w> 1156241
S t</w> 1155808
L ou 1155426
ch ill</w> 1154910
t v</w> 1154846
y ed</w> 1154484
R ight</w> 1154267
ni a</w> 1154185
comm unity</w> 1154146
W el 1153605
v al</w> 1153359
vis ion</w> 1152404
exp ect</w> 1152297
W ant</w> 1151803
g l 1151674
inter esting</w> 1150613
N A</w> 1150538
qu ar 1150510
ni e</w> 1149736
T H</w> 1149284
mfa o</w> 1149048
R om 1148664
ish ing</w> 1147734
V er 1147296
issu es</w> 1146533
in ning</w> 1145949
ser v 1145364
mar k</w> 1145129
Nov ember</w> 1144944
par ty 1144321
L ord</w> 1143555
ER S</w> 1143014
o l</w> 1142558
win ning</w> 1141601
s ell</w> 1141592
O ffic 1141020
F oo 1140693
en _heart:</w> 1140311
p h</w> 1140063
a th 1139563
i di 1138729
J er 1137844
Ex c 1137690
po p</w> 1137566
sa v 1136996
B A 1136822
de st</w> 1135881
m ur 1135275
WHA T</w> 1135192
wal king</w> 1134779
C ho 1133859
y an</w> 1132867
them selves</w> 1131942
drea ms</w> 1131747
absol utely</w> 1131222
P A 1131017
be st 1130754
con n 1130616
b ad 1130407
S ing 1129725
St u 1129547
N ight</w> 1129102
c red 1128989
W OR 1128692
relea sed</w> 1128209
r ace</w> 1127320
L at 1127214
bor ed</w> 1127053
x ed</w> 1126197
sh ion</w> 1126041
2 7 1125563
T wee 1125407
id ence</w> 1125127
An g 1125064
Bir thday</w> 1123338
th ank 1123157
ick en</w> 1121856
ant ly</w> 1121691
ac king</w> 1121094
W ITH</w> 1120788
gi ft</w> 1120579
u ary</w> 1120488
r n</w> 1120414
G a 1120381
k id 1119162
19 6 1119110
ver se</w> 1118617
leg al</w> 1118615
ob vi 1118563
usu ally</w> 1118396
mem bers</w> 1117227
Ra dio</w> 1116161
ic o</w> 1115930
' T</w> 1115782
co m</w> 1115725
ec on 1115702
BU T</w> 1115487
w all</w> 1114398
Par k</w> 1114243
d ele 1113561
rep ly</w> 1113503
co de</w> 1113315
re gu 1112057
lea ving</w> 1111993
vi ol 1111921
R el 1111874
dar k</w> 1111558
Rep u 1111156
- - 1110680
c le 1110400
op er 1110225
ig nor 1110149
ang er</w> 1109736
an e 1109353
g row</w> 1108806
l em 1107995
att ack</w> 1107676
in y</w> 1107469
: sk 1107459
2 8 1106855
tri es</w> 1106148
:sparkl ing_heart:</w> 1105900
gy m</w> 1105161
M A</w> 1105023
ha m 1104913
mi se</w> 1104417
6 . 1103897
t our</w> 1103606
on ed</w> 1102964
p ul 1102886
suc ks</w> 1102581
K ing</w> 1102296
imag ine</w> 1101663
ro ck</w> 1101176
3 1</w> 1100947
concer t</w> 1100375
D ri 1100234
3 5</w> 1099602
ea l 1099421
v a</w> 1099384
ab o 1099029
:sk ull 1098990
M al 1098650
mee ting</w> 1098289
buil ding</w> 1098026
C hi 1097572
an ti 1096404
su per 1096030
beli ev 1095501
gra du 1094925
tru ly</w> 1094656
3 3</w> 1094367
:medium_ dark_skin_tone:</w> 1094257
b ile</w> 1093138
si de 1092853
f ra 1091854
d eep</w> 1091803
cho ice</w> 1091702
Bab y</w> 1091535
nam ed</w> 1091466
ol s</w> 1090387
inf o</w> 1090217
ou ble</w> 1089772
con vers 1088844
ex tra</w> 1088577
in j 1087724
wonder ful</w> 1087694
pri v 1087292
Har ry</w> 1087049
ro ll</w> 1086993
B A</w> 1086845
fuc kin</w> 1086667
p ati 1086531
fri end 1086499
L ear 1085776
pl ans</w> 1085082
C A</w> 1084425
supp or 1084270
wo ke</w> 1084209
Oc tober</w> 1083741
em ale_sign:</w> 1083253
:f emale_sign:</w> 1083253
id a</w> 1082901
HA VE</w> 1082745
Blu e</w> 1082401
atur al</w> 1082129
twee ted</w> 1081954
up er</w> 1081625
con c 1081624
f ree 1081160
St ates</w> 1080509
af ter 1080450
si ze</w> 1080226
g or 1080090
O k</w> 1079599
cal ls</w> 1079436
au th 1078992
Da vid</w> 1078549
com pletely</w> 1078508
ber t</w> 1077339
I C</w> 1076910
T ex 1076302
glass es:</w> 1075972
st :</w> 1075661
au l</w> 1075501
f s</w> 1075006
Bus iness</w> 1074631
m ember</w> 1074499
pro mo 1074052
su n</w> 1074002
p ay 1073993
qu ick</w> 1073864
I F</w> 1073859
h o</w> 1073776
inc rea 1072988
l unch</w> 1072981
Dec ember</w> 1072802
B al 1072584
M en</w> 1072313
gg ing</w> 1072268
gu n</w> 1072196
iz za</w> 1072070
ol f</w> 1071998
tou ch</w> 1071767
pro ject</w> 1071275
a po 1070973
not ice</w> 1070886
Th ursday</w> 1070118
itt en</w> 1069763
gra de</w> 1069668
l in</w> 1069322
G oogle</w> 1068609
and y</w> 1068180
h ou 1067710
I tal 1067229
: party 1067059
comple te</w> 1067038
tb h</w> 1066720
# m 1066264
k et</w> 1065907
Bu y</w> 1065808
mark et</w> 1065708
: see 1065529
ar row 1065411
bu d 1065161
cl ear</w> 1065093
wh e 1064844
Ch il 1064594
c lean</w> 1064576
appreci ate</w> 1064240
N Y 1064195
po se</w> 1063297
wi de</w> 1063136
pu tting</w> 1062747
po lic 1061592
mis sion</w> 1061309
Repu bli 1061159
pre t 1060677
i er</w> 1060367
lea gue</w> 1059718
cr it 1059623
loc k</w> 1058821
S am 1058759
li ed</w> 1058693
fi ve</w> 1058652
W illi 1058273
un ic 1056654
re w</w> 1056062
si ve</w> 1055912
c ent</w> 1055303
Do wn 1055211
a head</w> 1054479
3 rd</w> 1053801
Fl or 1053390
1 - 1053275
R E</w> 1052435
v ea 1052129
S ept 1052064
Jan uary</w> 1051850
mist a 1051521
sho es</w> 1050462
c lear 1050022
M ag 1049528
vie ws</w> 1049172
P al 1049096
Coun ty</w> 1048995
ex am 1048971
: P</w> 1048816
charac ter</w> 1048626
O kay</w> 1048342
re lease</w> 1047618
aw k 1047603
Al l 1047114
cor rec 1046812
tur ns</w> 1046130
dri ving</w> 1045653
C lu 1045640
Sh ar 1045042
on to</w> 1044241
O f 1043563
D A 1043290
ar ri 1043207
UC H</w> 1043088
dau ghter</w> 1043049
tra in</w> 1042159
pro ve</w> 1042117
re port</w> 1042045
laugh ing</w> 1041910
sk in</w> 1041868
O ff 1041862
:skull :</w> 1041777
ar ently</w> 1041415
pre sident</w> 1040780
List en</w> 1040758
wi se</w> 1040369
Jo in</w> 1040336
in formation</w> 1040180
s our 1039732
b an</w> 1039417
r ul 1039170
S S</w> 1037847
A tt 1037612
des cri 1036757
Sept ember</w> 1035581
:sparkl es:</w> 1035089
H ello</w> 1034856
t in</w> 1034571
l ying</w> 1034518
Ch annel</w> 1034417
j e 1034288
blu e 1033931
ay lor</w> 1033447
wor ked</w> 1033094
:see -no-evil_monkey:</w> 1032854
sp ent</w> 1032612
ad dy</w> 1032589
b by</w> 1032555
clo thes</w> 1032250
victor y 1032223
st uck</w> 1031713
id ity</w> 1031486
dec ided</w> 1031213
k m</w> 1031076
al ia</w> 1030456
a st 1030389
contin ue</w> 1030330
Al ways</w> 1029841
Sp ec 1029345
: victory 1028815
:victory _hand:</w> 1028815
0 1</w> 1028783
n esday</w> 1028581
O ut 1028458
opp ort 1027867
st rugg 1027021
ac ting</w> 1026126
ant a</w> 1025530
li eved_face:</w> 1025295
:re lieved_face:</w> 1025295
B L 1025185
D r 1025171
pp er:</w> 1024966
slee ping</w> 1024827
rec or 1024811
lin es</w> 1024545
C all</w> 1024363
sun glasses:</w> 1023925
artic le</w> 1023470
car eer</w> 1022199
al es</w> 1021515
S uper</w> 1021319
en ergy</w> 1020926
K now</w> 1020831
ther n</w> 1020799
I ' 1020760
ri d</w> 1020558
k in 1020483
TH ING</w> 1020252
person al</w> 1019912
Ch ris</w> 1019069
tea cher</w> 1019004
:p out 1018765
:smiling_face_with_ sunglasses:</w> 1018724
s ale</w> 1018420
maj or</w> 1017839
curr ently</w> 1017696
Eng land</w> 1017379
C ap 1016898
_po pper:</w> 1016217
:party _popper:</w> 1016217
dis cus 1015976
s uck</w> 1015430
low er</w> 1015354
lo g 1015269
se :</w> 1015183
M id 1015129
ro l 1015037
choo se</w> 1014722
differ ence</w> 1014484
om s</w> 1014270
re co 1014206
part ment</w> 1013537
ch er 1013349
ch ea 1013044
b om 1013033
c tion</w> 1011918
and a</w> 1011672
b ar</w> 1010568
G ET</w> 1009518
tt en</w> 1008677
ra dio</w> 1008648
I M 1008067
stor ies</w> 1007608
: crying_face:</w> 1007381
C up</w> 1007090
sh ine</w> 1007006
ali st</w> 1006758
ig r 1006277
B re 1006214
sp ee 1006085
: eyes:</w> 1005979
z z</w> 1005667
bro ken</w> 1005416
emp loy 1005310
o d 1004531
V is 1004395
A ir 1004081
h ang</w> 1004078
HA PP 1004004
Don ald</w> 1003874
P aul</w> 1003666
e ber</w> 1003569
W ind</w> 1003532
t - 1003002
st ation</w> 1001586
C E</w> 1000965
Su pp 1000900
el ection</w> 1000095
ri ght 999194
7 . 998832
posit ion</w> 998313
br ought</w> 998309
opin ion</w> 997167
hel d</w> 996775
g ers</w> 996752
Jo b</w> 996579
to m</w> 996486
Tu esday</w> 996434
gi c</w> 996254
ra id</w> 995368
pr ice</w> 995224
Brit ish</w> 994877
succ ess</w> 994387
L L 994310
rea ch</w> 994001
sing ing</w> 993702
ter n 993490
L y 993409
re turn</w> 993054
ear lier</w> 992914
:pout ing_face:</w> 992475
f ell</w> 992315
V ery</w> 992217
sou l</w> 992178
B ook</w> 991942
M ex 991564
sof t</w> 991533
ea se</w> 990901
0 8 990359
d ition</w> 989099
s wi 989000
it ary</w> 988579
W ar</w> 988342
di vid 988195
ec tive</w> 988140
simp le</w> 987931
N ext</w> 987892
En d</w> 987688
C our 987571
tot al</w> 985984
S ee 985587
7 0</w> 985538
J ack 985141
O ff</w> 984894
O R</w> 984815
Can ada</w> 984623
Q U 984604
Com p 984329
polit ical</w> 983390
S an</w> 983260
: s 983147
j i</w> 982484
am i</w> 982316
th oughts</w> 981957
pa ign</w> 981659
kis s</w> 981584
Gir ls</w> 981451
: blue 981399
:blue _heart:</w> 981399
Om g</w> 980336
a de</w> 979329
M ed 978316
squ int 977689
ou gh 977249
Man ag 976953
ket ball</w> 976902
#M TV 976357
ff ic</w> 976216
an o</w> 975828
dep end 975258
ch urch</w> 974548
st ick</w> 974001
S im 973820
ind ex 973509
ir ing</w> 973422
col ate</w> 972897
O ver</w> 972820
p un 972701
star s</w> 972190
happ ening</w> 972144
qu ality</w> 972035
min s</w> 971752
mar ried</w> 971598
Lea gue</w> 971206
uc e</w> 971201
tea ms</w> 971077
pop ul 970272
y ers</w> 970135
cla im 970104
st ry</w> 969910
ic ed</w> 969744
T ell</w> 969601
in du 969459
ch ers</w> 968594
c ru 968563
V I 967992
fem ale</w> 967817
orig inal</w> 967747
Ca use</w> 967445
G A</w> 967183
we ight</w> 966751
f ly</w> 966482
kee ps</w> 966231
ist er</w> 966177
H or 965997
f ru 965893
arrow :</w> 965483
na ked</w> 965344
d ata</w> 965248
m ac 965102
Tu be</w> 965006
tra ining</w> 964722
Ho t</w> 964316
w est</w> 964051
g g</w> 963738
pl us</w> 963302
spo t</w> 962893
t reat</w> 962629
nor mal</w> 962527
An y</w> 962036
pho to 961706
c ked</w> 960813
ter m</w> 960600
5 00</w> 960107
re di 959387
ri st</w> 959216
Dem ocr 959150
cover ed</w> 958640
P S 958242
fav our 958237
B een</w> 957996
Th ink</w> 957978
peri od</w> 957884
i x</w> 957862
pract ice</w> 957705
ing ing</w> 957383
oun ded</w> 957330
F U 956899
C ON 956605
S hi 955734
lo ad 955598
2 6 955205
3 2</w> 954709
ou ld 954632
S pr 954130
succ ess 954043
f eet</w> 953807
H op 953275
: sun 952939
fig ure</w> 951726
B en 951370
P S</w> 951347
2 - 951317
ho es</w> 951268
C ali 951175
G U 950966
as y</w> 950856
4 0 950743
z on</w> 950697
_point ing_ 950610
index _pointing_ 950610
ec ting</w> 950542
allow ed</w> 950117
posit ive</w> 949946
D el 949404
I ON</w> 949365
N Y</w> 948659
l and 948387
pro mise</w> 948248
K o 948187
om in 948030
K or 947481
ig er 947122
off er</w> 946839
sever al</w> 946486
am p 946465
ge l</w> 946253
po wer 946203
th a</w> 946109
for ce</w> 946082
ca ught</w> 945552
FUC K</w> 945343
wit ch</w> 944620
:sleep ing_face:</w> 943995
_ with_ 943388
Sh it</w> 943316
lan gu 942032
co s</w> 941552
Wi th 940791
M UCH</w> 940184
: 5 940060
A si 939956
sho wer</w> 938443
tra de</w> 938085
kno wing</w> 937887
: kis 937683
Joh n 937484
ta il</w> 937133
P R 935506
Be ing</w> 935505
D Y</w> 934872
S to 934603
de b 934588
lik ely</w> 934388
f ar 934158
y o 933711
2 9 933404
y u</w> 933308
: m 933253
app ear 932735
ac hi 932621
om f</w> 932534
p ment</w> 931894
Tea m</w> 931134
ir ty</w> 930422
bra in</w> 930403
ill er</w> 930265
com e 930078
Con t 928921
des ign</w> 928851
_ face_with_ 927894
c e 927812
li ghts</w> 927738
ut om 927648
stric t</w> 927122
D E</w> 926602
anc y</w> 926460
no on</w> 926316
s low</w> 926176
inter ested</w> 925858
re ly</w> 925665
fi x</w> 925557
ho e</w> 925080
pea ce</w> 924392
em ents</w> 924347
sho pping</w> 924339
sig ned</w> 924168
pro vid 923738
w a</w> 923250
tur ed</w> 922735
A ir</w> 922730
s m</w> 922724
d at</w> 922655
for nia</w> 922453
i i</w> 922005
con fu 921982
al a 921749
e h</w> 921536
pu ter</w> 921220
situ ation</w> 920872
pl es</w> 920575
Ch ic 920500
expressi on 919665
stre et</w> 919351
g er 919006
S M 918421
m es</w> 918351
F ind</w> 918079
g ry</w> 917956
am ount</w> 917375
t een</w> 917110
ca ke</w> 917093
ine se</w> 917030
sh it 916995
on ic</w> 916507
Heal th</w> 916505
T or 916394
buil d</w> 916222
pp y</w> 916202
lar ge</w> 915617
eng th</w> 915591
awk ward</w> 915068
G ive</w> 914635
les s_ 914473
w ont</w> 914459
B lo 914442
tra vel</w> 914091
ge ous</w> 913920
: expression 913626
less_ face:</w> 913626
:expression less_face:</w> 913626
no logy</w> 913403
N A 913292
bloc k</w> 912151
cor ding</w> 912104
kil ling</w> 912075
F re 911784
fi st:</w> 911731
sk y</w> 911134
b t 911060
st e 910782
H un 910754
H al 910328
est iv 910315
curr ent</w> 910289
Fr ench</w> 910127
re ss</w> 910072
:rais ed 909867
ra p</w> 909774
Wat ching</w> 909362
WA S</w> 909035
t al</w> 909003
un less</w> 908858
B at 908479
sp ital</w> 908314
form er</w> 908167
at ul 907979
h us 907652
20 0</w> 907546
cer tain</w> 907462
de tails</w> 907432
Soc ial</w> 907421
happ iness</w> 906522
lo sing</w> 906387
L S</w> 906045
in k 905471
ur ed</w> 905360
ol der</w> 905149
k ick</w> 904922
u tr 904433
sp orts</w> 904198
C R 904150
ali ve</w> 903855
der ing</w> 903803
up date</w> 903332
ran dom</w> 903289
Da ily</w> 903268
sa d 903195
sha ll</w> 902412
it a</w> 902236
ar a</w> 901625
a in</w> 901617
D E 901178
ro te</w> 901122
b y 900792
up s</w> 900755
opp o 900055
Id k</w> 899646
m ir 899198
sho ot</w> 899092
scre en</w> 898763
C lick</w> 898632
j a</w> 898005
Ge tting</w> 897970
V ir 897408
par k</w> 897113
na p</w> 897050
gre en</w> 896797
go tten</w> 896639
Wed nesday</w> 895966
U T 895498
perform ance</w> 895452
Sum mer</w> 895429
ta x</w> 894855
D r</w> 894689
d :</w> 894599
r ich</w> 894414
B R 894317
ne igh 894182
B S</w> 894120
F la 894084
W ish</w> 893737
S ol 893390
Gre en</w> 892866
CA N</w> 892653
clo set</w> 892647
fi ghting</w> 892216
ell a</w> 892038
m enti 891775
co lor</w> 890780
B la 890773
B or 890579
r en 890503
mul ti 889628
ssi ve</w> 889128
sm art</w> 889015
Wh ich</w> 888454
: grow 888319
:grow ing_heart:</w> 888319
m ess</w> 888287
W S</w> 887073
n n 886995
sho wing</w> 886840
all :</w> 886770
mu m</w> 886414
C ro 885658
t ition</w> 885657
da ily</w> 884801
a a</w> 884753
ta g</w> 884470
cont act</w> 884326
ro le</w> 884294
8 . 884014
lo ss</w> 884010
con fir 883530
th ird</w> 883053
4 th</w> 882604
You Tube</w> 882454
sur vi 882359
K en 882248
# w 881560
pu ll</w> 881546
k o 880856
HO W</w> 880816
Le g 880486
T ech 880048
an im 879241
hur ts</w> 878951
de stro 878429
F il 878267
10 0 877952
exc ept</w> 877332
mp ion 877202
D ear</w> 877194
B as 877099
Stre et</w> 877007
ver age</w> 876222
des ig 876068
an i</w> 875551
bloo d</w> 874611
pla ys</w> 873629
A m</w> 873349
att emp 873067
inter net</w> 872819
graph y</w> 872584
T on 872042
x D</w> 871624
h ang 871621
ist an</w> 871577
IN G 871179
d ying</w> 871152
ph ones</w> 871031
sho o 870715
flo or</w> 870260
il er</w> 870223
Up dates</w> 870194
girl friend</w> 869891
S et</w> 869869
en ever</w> 869462
h il 869137
b ility</w> 868949
mer c 868557
haha haha</w> 868545
si ght</w> 868488
ho pe 868338
A v 868165
N E</w> 867847
4 8</w> 867245
m ental</w> 866763
ph ys 866524
B el 866066
hand le</w> 865971
N ice</w> 865807
V ic 865485
re por 865450
G B</w> 865312
ex plain</w> 865140
li t</w> 864554
m on</w> 864427
L ittle</w> 864408
bo o</w> 864207
Inst agram</w> 863887
av o 863769
sp ort</w> 863672
at ors</w> 862683
KKKK KKKK 862440
sec onds</w> 862375
x ing</w> 862345
S C 862054
er o</w> 861817
go als</w> 861817
z a 861720
L oc 861541
v in</w> 861491
lo ving</w> 861076
t en 860520
lob al</w> 860293
Fam ily</w> 860146
w rote</w> 859952
H e 859563
smo ke</w> 859468
Tim es</w> 859191
offic ial</w> 858672
ir s</w> 858422
ur es</w> 858220
o my</w> 858194
p izza</w> 857851
Me dia</w> 857666
it iz 857642
d on</w> 857042
ac tiv 856989
be y 856987
# s 856910
C y 856891
G ood 856871
side - 856848
hand _ 856810
I G</w> 856442
an ish</w> 856090
ag a</w> 856006
ri c</w> 855731
x es</w> 855714
ag s</w> 855186
tit le</w> 854241
: 0 854178
Any one</w> 854157
ho st</w> 853259
A ri 852855
O S</w> 851762
: up 851060
H E</w> 850954
la p 850802
crea ted</w> 850659
eal ous</w> 850417
r or 850384
H y 849948
min i 849275
I sl 848882
crea te</w> 848615
G old</w> 848171
reli gi 847833
Ra in</w> 847741
ur s</w> 847692
P hi 847423
clo sed</w> 847273
comm on</w> 847011
m en 846854
c a</w> 846805
Bro wn</w> 846578
Rem ember</w> 846281
f ear</w> 846236
: p</w> 845691
Cali fornia</w> 845599
pr inc 845533
respon si 844981
7 5</w> 844837
mm m</w> 844279
bea ch</w> 844045
af raid</w> 843834
A s 843758
bor ing</w> 843743
hon est</w> 843200
ca st 843081
in s 843050
ta stic</w> 842925
co ach</w> 841617
prof ile</w> 841603
re fer 841281
H as</w> 840386
wr it 840340
Tex as</w> 840225
il ing</w> 840099
al y 839909
ou tta</w> 839631
com b 839518
sec urity</w> 839262
re n</w> 838806
K S</w> 838151
inter view</w> 838110
to wards</w> 837138
ma ke 836760
ben ef 836621
A D 836585
sch ed 836504
pro per 836340
ous in</w> 836025
pre ssed</w> 835902
ch icken</w> 835887
C loud</w> 835370
Mo vi 835329
it ted</w> 834590
buil t</w> 834486
E ast</w> 834117
m it</w> 833578
i als</w> 833339
y y</w> 832748
b on 832623
re ma 832479
heal thy</w> 832384
R ic 831754
u gh</w> 831228
EL L</w> 831126
home work</w> 831074
ss ure</w> 830885
c ream</w> 830788
bl ess</w> 830498
th in</w> 830480
E D 829960
O H</w> 829904
a p</w> 829347
f ish</w> 829344
par ed</w> 829242
real ity</w> 829134
plac es</w> 828894
st a</w> 828773
In v 828566
F eb 828417
tur ning</w> 828093
v ely</w> 827898
bull shit</w> 827409
le x</w> 826867
dec ision</w> 826463
T aylor</w> 826117
sc ore</w> 825973
H igh 825969
Hel p</w> 825968
ke ts</w> 825660
jud ge</w> 825484
3 9</w> 824474
3 6</w> 824434
LI VE</w> 823833
g oo 823637
0 7 823596
hun gry</w> 823261
in ting</w> 823188
tick et</w> 823168
wr itten</w> 823111
WH Y</w> 822800
b es</w> 822686
Wee k</w> 822584
op ening</w> 822561
C rea 822195
ess ing</w> 822075
itu de</w> 821782
t ea</w> 821632
do gs</w> 821273
i est</w> 821203
h es</w> 821051
cour t</w> 820975
li g 820322
i p</w> 820139
favour ite</w> 820116
Ar t</w> 819857
acc ep 819853
W ay</w> 819845
for e 819713
# c 819448
L L</w> 819098
pop ular</w> 818853
e z</w> 818765
ph on 818758
#No w 818643
qu ote</w> 818449
dr inking</w> 818351
: ti 817875
holi day</w> 817485
hor n 817410
di ffic 815870
al a</w> 815652
recei ved</w> 815597
ssi c</w> 815071
sh rugg 814619
E U</w> 814611
Clu b</w> 814561
side- down 814532
:up side-down 814470
:upside-down _face:</w> 814470
m ea 814270
coun ts</w> 814207
ev ening</w> 813926
be er</w> 813909
re gre 813881
t ory</w> 813788
dou bt</w> 813787
wa ste</w> 813722
T F</w> 813704
c king</w> 813571
3 - 813540
s now</w> 813233
G HT</w> 813058
sc ene</w> 812889
convers ation</w> 812500
OO D</w> 812296
Feb ru 811597
in ation</w> 811570
spea k 811177
O ld</w> 811118
I F 811067
Wa sh 810787
st ream</w> 810286
ca m</w> 810243
Chic ago</w> 809925
Is ra 809865
ge tt 809651
Austr alia</w> 809315
si ons</w> 809292
su sp 809171
: an 808790
p ack</w> 808779
pis sed</w> 808013
ho le</w> 807570
On line</w> 806884
Febru ary</w> 806852
lea der</w> 806644
al right</w> 806518
inter est</w> 806494
disappo int 806484
em bar 806476
ti pp 806124
bo t 806080
p ants</w> 805887
n ames</w> 805066
c up</w> 805062
st rea 805031
some where</w> 804788
al low</w> 804742
S ince</w> 804667
ad vice</w> 804538
C r 804452
St ay</w> 804077
C OM 804069
m p</w> 804002
st ly</w> 803989
k ing 803796
tw ice</w> 803403
Every thing</w> 803300
s old</w> 803202
fam ous</w> 803174
non - 803160
bla me</w> 803054
ent ary</w> 802985
str ation</w> 802567
essi onal</w> 802546
g ar</w> 801924
w ins</w> 801698
P an 801644
bl ack 801462
s at 801322
su it</w> 800905
Fin ally</w> 800750
stud ent</w> 800523
4 4</w> 800363
g old</w> 800362
L ar 799908
n ic 799248
P ra 799239
er c 799131
sto pped</w> 799041
li c</w> 798466
l mfao</w> 798370
bur n</w> 798367
AT E</w> 798319
Th ings</w> 798079
pr ay</w> 797595
re gar 797135
Geor ge</w> 796578
inc redi 795687
V O 795030
m ention</w> 794596
igg er</w> 794097
M OR 793767
P E 793730
in o 793597
k ept</w> 793537
3 6 793486
f t 793160
rac ist</w> 792962
cred it</w> 792702
E v 792606
ea st</w> 792518
up set</w> 792433
a ster</w> 792304
A P</w> 792174
Col lege</w> 792006
ex per 791940
:person_ tipp 791869
:person_tipp ing_hand:</w> 791869
ep s</w> 791794
Th r 791665
horn s:</w> 791627
a bu 791149
ep h 791135
bi a</w> 790986
ec t 790971
Wh ile</w> 790281
:person_ shrugg 790217
:person_shrugg ing:</w> 790217
H EA 790078
n one</w> 789831
tel ls</w> 789820
: back 789345
hand_ index_pointing_ 789345
:back hand_index_pointing_ 789345
act ual</w> 789110
le dge</w> 788862
dou ble</w> 788757
res earch</w> 788579
fa ult</w> 788452
m i</w> 788428
T L</w> 787943
op en 787879
H ill 787385
di g 787351
com for 787168
foc us</w> 787121
so o</w> 787023
pres ent 786767
reali zed</w> 786484
- ></w> 786323
do ws</w> 786277
estiv al</w> 785874
proc ess</w> 785471
pa ir</w> 785470
grea test</w> 785451
# p 785420
An dro 785396
B B 785334
GO D</w> 785327
N iger 785168
lear ned</w> 785021
ag re 784677
# b 783994
vo ted</w> 783778
c ousin</w> 783742
respon se</w> 783678
ch annel</w> 783632
3 4</w> 783156
VID EO</w> 782298
thr u</w> 782033
pas sed</w> 781830
hol ding</w> 781634
tt est</w> 781626
abo ve</w> 781538
mp h</w> 781301
Mor ning</w> 781103
tr o</w> 780833
bo ss</w> 780768
Sec re 780305
j ealous</w> 780053
9 5</w> 779838
progra m</w> 779700
wed ding</w> 779363
re spec 779313
break fast</w> 778764
Cor onavirus</w> 778431
ar r 778420
ill a</w> 778220
# Th 778194
Wor k</w> 777957
cam paign</w> 777845
ar ious</w> 777818
mil es</w> 777809
_ __</w> 777519
el ine</w> 776736
uc c 776430
co st</w> 776191
F al 776059
Re gi 776004
Su per 775959
M em 775807
dra ma</w> 775758
s low 775489
priv ate</w> 775155
Do wn</w> 775105
La dy</w> 774361
cho colate</w> 774154
5 5</w> 774152
ear th</w> 773968
bu ying</w> 773829
mo del</w> 773576
k ar 773357
C lo 773063
af f</w> 772744
Jo bs</w> 772636
S ay</w> 772468
ess es</w> 772180
cla m 771887
arti st</w> 771415
Tho se</w> 771303
Po st</w> 771060
b un 770819
i ther</w> 770745
y al</w> 770702
Ch inese</w> 770641
d ry</w> 770518
D C</w> 770378
umb ers</w> 770299
conf used</w> 770216
l ay</w> 770176
Mis s</w> 769829
soc i 769525
V ER 769518
f ear 769022
d ear</w> 768989
resul ts</w> 768879
or a</w> 768807
ni ghts</w> 768782
Ha haha</w> 768510
ne utr 768393
W on 768186
b il 768067
n atural</w> 767982
id ing</w> 767949
chang es</w> 767759
red _face:</w> 767302
:ti red_face:</w> 767302
HA R 766685
iz ation</w> 766136
in ks</w> 765915
C ent 765813
er ous</w> 765770
ri ghts</w> 765446
d ee 765238
el ly</w> 765238
i onal</w> 764761
cla im</w> 764681
0 9 764463
# o 764460
haha h</w> 764374
bas ically</w> 764141
4 2</w> 763989
v ac 763583
so s</w> 763479
Americ ans</w> 763452
b ank</w> 763281
R oc 763193
la b 763072
Y ES</w> 763021
Russi a</w> 762264
fu l 762038
Pro duc 761911
la zy</w> 761704
tear s</w> 761396
in no 761154
whe ther</w> 761077
a k</w> 760859
W AT 760466
d m</w> 760410
hus band</w> 760307
j er 759776
y - 759536
struc tion</w> 759150
I A</w> 759086
P C</w> 758920
cra p</w> 758860
la ge</w> 758743
se ball</w> 758700
Flor ida</w> 758515
Op en</w> 758267
o x 757232
com ment</w> 756571
atul ations</w> 756554
j us</w> 756531
Sc i 755411
k ing_face_with_tongue:</w> 755400
:win king_face_with_tongue:</w> 755400
Wa it</w> 755333
ea si 755236
ta ste</w> 755166
L ong</w> 755156
langu age</w> 755141
W ILL</w> 754726
am p</w> 754536
IG HT</w> 753283
sid es</w> 753012
Inter national</w> 752933
t at 752587
lear ning</w> 752383
IN E</w> 752328
m outh 752215
cha se</w> 751848
IT S</w> 751396
ri a</w> 751347
#C O 751095
ser ved</w> 750945
tr act</w> 750440
C oo 750352
EN D 749771
C L 749609
ser vices</w> 749478
Mon ey</w> 749422
ch ester</w> 749394
El ec 749332
invest ig 749304
ar ms</w> 748792
surpri sed</w> 748787
ho ping</w> 748657
ma ge</w> 748373
bl essed</w> 748354
ing_ in_ 748098
re st 747969
re view</w> 747846
ex ist 747772
in i</w> 747406
la un 747401
nec ess 747393
hh hh</w> 747165
Loo ks</w> 746576
kno w 745977
im m 745869
C enter</w> 745134
qu ick 745006
u d</w> 744758
hel lo</w> 744632
ee d 744627
la w 744520
bea uty</w> 744369
# Y 743690
go in</w> 743607
: speak 743496
Po lice</w> 743337
cla sses</w> 742645
S ar 742344
har d 741932
invol ved</w> 741380
Wash ington</w> 741316
beg inning</w> 741148
y oun 740939
gen eral</w> 740510
i us</w> 740042
im ma</w> 739840
hope fully</w> 739702
ha h</w> 739675
m ic 739080
re comm 739070
A S</w> 738919
acc ept</w> 738428
si mil 738006
4 - 737866
j ects</w> 737698
sci ence</w> 737534
# St 737279
A g 737109
0 6 736712
b unch</w> 736707
P ER 736547
M E 736401
educ ation</w> 736322
#Now Playing</w> 736213
Pho to 736013
pl at 735880
id eas</w> 735532
200 8</w> 735499
exp ected</w> 735405
ex clam 735249
bro k 735247
D ig 735072
fal ling</w> 734858
:grinn ing_face_with_smiling_eyes:</w> 734667
Go tta</w> 734586
um ent</w> 734508
no te</w> 734466
S ch 734291
chec k 733140
OU LD</w> 732784
war m</w> 732726
ne g 732588
3 8</w> 732191
Par t</w> 731957
Po wer</w> 731770
is ing</w> 731621
I R</w> 731604
B it 731541
In dian</w> 731170
fre sh</w> 730996
am e 730904
Jap an</w> 730843
cont ent</w> 729717
In di 728925
chall enge</w> 728789
shar ing</w> 728334
kee ping</w> 727960
H D</w> 727394
Bo y</w> 726845
gi e</w> 726754
r on</w> 726712
Y ING</w> 726528
:' )</w> 726378
P ort 726188
S ize</w> 726031
Ho wever</w> 726008
di um</w> 725949
Be tter</w> 725485
exam ple</w> 725192
v y</w> 725051
FUC KING</w> 725010
IC E</w> 724886
S U 724875
clear ly</w> 724608
up on</w> 724518
p ite</w> 724477
li m</w> 724423
mem ories</w> 724275
_ eyes:</w> 724258
The ir</w> 723948
S A</w> 723728
bu t 723702
fa v</w> 723572
ac tive</w> 723368
dra w</w> 723281
fur ther</w> 723204
3 7</w> 722961
re tweet</w> 722714
bas ketball</w> 722672
K NOW</w> 722512
id ent 722472
r ics</w> 722112
ev ents</w> 722050
u le</w> 721950
th ous 721918
ra ge</w> 721403
on a 721320
char ge</w> 721257
g in 721136
k n 721031
D ont</w> 720957
do es 720713
ev ent 720699
M ur 720679
ter rible</w> 720263
bi e</w> 719897
int ro 719793
el low</w> 719692
po sed</w> 718500
row ing</w> 718465
Pl ay</w> 718449
b igger</w> 718248
be l</w> 718139
Y oung</w> 718100
br and</w> 717844
T A</w> 717833
J en 717591
Congr ats</w> 717193
exclam ation 717087
O ri 716890
nu de</w> 716855
le gs</w> 716792
P ak 716759
re - 716661
int on</w> 716629
com pla 716516
mo tiv 716478
lo ve 716242
tra ffic</w> 716050
o ts</w> 715843
tal ks</w> 715817
hel ping</w> 715403
T un 715162
se qu 715084
D en 715076
n ation</w> 714614
cri min 713827
F F 713253
HAPP Y</w> 713209
wh it 713184
neutr al 712824
fa il</w> 712796
Fr ance</w> 712720
ane se</w> 712641
per ature</w> 712301
hear ing</w> 712150
ter y</w> 712036
p chat</w> 711888
Ama zon</w> 711864
ha i</w> 711831
Afr ica</w> 711470
st ats</w> 711291
dec ide</w> 711133
t el</w> 710754
bey ond</w> 710127
ar s</w> 709987
st al 709829
s en</w> 709801
e Bay</w> 709294
a h 709209
tr ouble</w> 709073
B ill</w> 708988
s ession</w> 708951
opport unity</w> 708811
m ach 708300
J O 708255
sel ling</w> 708201
n ers</w> 708189
st aff</w> 707811
Jo e</w> 707714
0 5 707655
s i</w> 707411
Mar k</w> 707225
wea k</w> 706969
5 sos</w> 706943
p ers</w> 706713
TW EE 706546
si x</w> 706282
ma r</w> 706166
B ad</w> 705782
Euro pe</w> 705635
On ce</w> 705503
H ist 705146
P or 704953
g est 704807
W N</w> 704772
el a</w> 704368
ti ps</w> 704363
secre t</w> 704315
rea sons</w> 704264
T ry</w> 704191
car s</w> 704078
fol ks</w> 703893
Ac c 703845
: confu 703599
:confu sed_face:</w> 703599
bi o</w> 703360
a w</w> 703015
Ser ies</w> 702735
B itch</w> 702592
d ating</w> 702517
N T</w> 702352
ey s</w> 702271
po st 702174
li ber 702169
s eat</w> 701782
H ou 701532
r ick</w> 701111
L ab 701043
E ver</w> 700869
foo d:</w> 700626
a verage</w> 700618
: neutral 699859
:neutral _face:</w> 699859
at trac 699607
r on 699573
US E</w> 699439
obvi ously</w> 699103
m ent 699029
Andro id</w> 698833
I VE</w> 698814
M any</w> 698513
face pal 698442
fe ed</w> 698311
is ed</w> 697979
ar t 697808
Bu il 697731
ri dic 697601
d addy</w> 697598
grow ing</w> 697253
4 7</w> 697046
c us</w> 697015
r ate</w> 696610
Bra z 696345
vi l</w> 696337
Ro ad</w> 696175
he he</w> 696065
der n</w> 695971
sp read</w> 695635
To m</w> 694931
l ma 694902
e fully</w> 694898
oooo o</w> 694706
l ex 694681
publi shed</w> 694673
si r</w> 694410
ester n</w> 694371
com puter</w> 694296
id es</w> 694186
sav or 693624
dis gu 693324
simp ly</w> 693246
ic ked</w> 693195
brea king</w> 692822
Pr ice</w> 692772
ser ve</w> 692580
embar ra 692447
k ie</w> 692240
e li 691903
no se:</w> 691741
Be fore</w> 691490
j ack 691476
v a 691312
f u</w> 690648
R ock</w> 690254
out u 689969
AL LY</w> 689768
t ch</w> 689622
ord an</w> 689524
ing_ food:</w> 689243
:face_ savor 689243
:face_savor ing_food:</w> 689243
O ly 688708
Ex p 688619
w w</w> 688498
d s 688182
K e 688082
bl es</w> 688053
4 9</w> 687741
for tun 687656
W r 687634
P RE 687522
1 , 687419
P E</w> 687203
z ine</w> 687153
ST O 687139
val ue</w> 687125
ef fort</w> 687122
popul ation</w> 686646
fa m</w> 686382
ea s 686319
itch en</w> 685943
le tting</w> 685777
after noon</w> 685396
run s</w> 685364
ent y</w> 685317
sur v 685215
n g</w> 685029
R ol 685020
sho ts</w> 685002
R oo 684969
Lear n</w> 684830
200 9</w> 684828
sha me</w> 684255
k no</w> 683845
in divid 683757
wil d</w> 683725
4 1</w> 683620
no min 683173
b o</w> 682809
4 3</w> 682796
t ab 682710
t s 682581
B ey 682568
stre ss</w> 682559
if ic</w> 682245
Ser iously</w> 682156
direc tion</w> 682071
e tte</w> 682024
any body</w> 681474
pre gn 681393
f lu 681366
Ar ti 680669
b ing</w> 680604
3 5 680479
success ful</w> 680372
H ate</w> 680020
tur ing</w> 680003
a wake</w> 679470
sen al</w> 679376
c up 678577
z es</w> 678353
Lu ke</w> 678300
W O 677974
H am 677773
ang ry</w> 677712
or able</w> 677590
ri f 677074
Down load</w> 677073
d ated</w> 676913
ma in 676721
Mi ke</w> 676589
T Y</w> 676310
fli x</w> 676261
mil itary</w> 676230
ridic ul 675915
F ar 675872
re la 675488
j um 675435
Ha ving</w> 675367
G ol 675251
ay ed</w> 675131
sc ary</w> 675123
ex ist</w> 675019
y r</w> 674641
re fu 674499
foo t</w> 674445
comp an 674380
s ort</w> 674354
s in</w> 673884
U se</w> 673875
: brok 673627
:brok en_heart:</w> 673627
ho p</w> 673519
Ma de</w> 672909
spea king</w> 672904
rel ated</w> 672861
app arently</w> 672718
ign ore</w> 672689
t oo 672398
S ou 672377
P ur 672228
a part</w> 672177
cam era</w> 672144
b day</w> 672099
r ay</w> 671887
# th 671876
w ine</w> 671791
Pre tty</w> 671682
li p</w> 671527
inf lu 671471
Mo m</w> 671311
scho ols</w> 671247
Gu ess</w> 670793
ri bu 670634
am ong</w> 670204
Offic ial</w> 670117
C are</w> 670050
# U 669854
O ver 669844
win dow</w> 669833
ee e</w> 669777
gor geous</w> 669769
a utom 669706
wor ried</w> 669587
Pl us</w> 669326
rec ently</w> 669114
4 6</w> 669014
G R 668879
comm ents</w> 668862
li shed</w> 668826
rul es</w> 668695
fac ts</w> 668496
li ps</w> 668295
p sy 668251
v ement</w> 668166
ev il</w> 668079
p aying</w> 667950
f ts</w> 667806
resul t</w> 667712
S wee 667394
l ess 667307
facepal m 667292
Y o</w> 667257
K ind 667205
ol a</w> 667203
act ers</w> 667029
am er 666970
:person_ facepalm 666924
:person_facepalm ing:</w> 666924
f light</w> 666816
M ac 666527
:heart_ with_ 666219
t ough</w> 665879
Mar keting</w> 665823
TH AN 665504
fro m_ 665486
Lou is</w> 665398
p oo 665221
ba se</w> 665056
d am 664850
cas es</w> 664661
i lies</w> 664611
200 7</w> 664587
stea m_ 664257
:face_with_ steam_ 664120
from_ nose:</w> 664120
:face_with_steam_ from_nose:</w> 664120
P A</w> 663967
w ind</w> 663946
ni ght 663781
n umbers</w> 663575
P ad</w> 663522
D ate</w> 663280
:m ale_sign:</w> 663092
dro pped</w> 662899
Sm h</w> 662579
diffic ult</w> 662242
X D</w> 661913
LO OK</w> 661904
mar t</w> 661194
an ity</w> 660825
su dd 660773
coun tries</w> 660194
Is la 659935
Star s</w> 659906
: disappoint 659882
:disappoint ed_face:</w> 659882
u h</w> 659778
Gr oup</w> 659396
lat ely</w> 659365
mon ey 659295
inclu de</w> 659223
plac ed</w> 659121
intro duc 659110
su gg 658899
blo ss 658857
it self</w> 658687
ma ma</w> 658409
d irty</w> 658330
loc ated</w> 658272
Hill ary</w> 657906
e es</w> 657825
U G 657728
ou ts</w> 657545
f low 657227
con gr 657090
D ay 656944
w en</w> 656883
win ter</w> 656863
gg ed</w> 656831
b ill</w> 656808
Ch el 656792
hea t</w> 656730
TI ME</w> 656595
E p 656528
c row 656457
Wee k 656448
Tal k</w> 656184
rea t 656116
an _ 656082
F uc 656050
n early</w> 655924
ot es</w> 655801
un ning</w> 655629
D ol 655510
gr ou 655369
Christ ian</w> 655369
ee ds</w> 655151
I mag 655126
G onna</w> 654932
act or</w> 654893
L MA 654891
S M</w> 654825
#T ea 654643
vo ting</w> 654602
F er 654439
Hum idity</w> 654160
B ACK</w> 654124
pro mis 653947
apo logi 653836
not iced</w> 653658
tea ch</w> 653293
B EA 653126
GO P</w> 652535
indu stry</w> 652466
correc t</w> 652427
ter min 652394
st one</w> 652277
le tter</w> 652247
att ers</w> 652067
u sh 652022
S l 651952
il a</w> 651857
wonder ing</w> 651062
V ID</w> 650939
tal ked</w> 650809
sp ring</w> 650764
br a</w> 650518
c lim 650368
B attle</w> 649861
easi er</w> 649599
int age</w> 649439
ag ed</w> 649187
C ri 649061
c lick</w> 649032
car es</w> 648980
li p 648844
simil ar</w> 648796
E Y</w> 648622
N FL</w> 648619
pre sen 648239
comfor table</w> 648057
H en 647956
Tru e</w> 647926
ur ant</w> 647843
ar g 647602
P H 647385
m al 647118
c on</w> 647090
ho wever</w> 647016
tra sh</w> 646870
I L</w> 646531
polit ics</w> 646528
a :</w> 646516
pre c 646351
g ri 646135
U T</w> 645821
Foo tball</w> 645814
S ame</w> 645640
S wi 645279
ck et</w> 644949
s and 644916
g in</w> 644661
Ar my</w> 644602
Sil ver</w> 644121
make up</w> 643949
acc ess</w> 643945
form ed</w> 643795
li d</w> 643535
M el 643063
S an 643039
m el 642870
s ooo</w> 642827
5 - 642285
F ire</w> 641704
ho spital</w> 641632
P en 641621
dit ional</w> 641555
S po 641497
TH ER</w> 641081
ad dic 640983
19 5 640921
su me</w> 640857
il ly</w> 640797
idi ot</w> 640380
hor rible</w> 640188
G E 640146
S I 640011
pp ers</w> 639789
Col l 639609
la dies</w> 639495
fa ith</w> 639286
Twee t</w> 639245
ac tions</w> 638990
down load</w> 638970
anc ial</w> 638750
em ber 638568
L ight</w> 638393
ac he</w> 638348
Direc tion</w> 638278
F E</w> 638202
R ed 638130
p ush</w> 638125
Fr anc 638086
Cl inton</w> 638065
t our 637480
S qu 637444
chee se</w> 637280
e en 637237
NE VER</w> 637084
x y</w> 636986
I ma</w> 636282
THE Y</w> 636103
Ser vice</w> 635953
mpion ship</w> 635755
Sco t 635311
W o 635239
sh ort 635125
r o</w> 635121
ri se</w> 634989
Pla y 634960
b attle</w> 634856
F av 634824
for ms</w> 634787
does nt</w> 634771
high er</w> 634596
est ab 634247
Th er 634122
eas ily</w> 633937
Su b 633933
bo w 633675
DON T</w> 633632
jour n 633437
Dea ls</w> 633407
L au 633322
En joy</w> 633076
Con gress</w> 632786
j ump</w> 632646
wan ting</w> 632641
lea ding</w> 632406
B BC</w> 632371
b re 632273
p ack 631936
S and 631901
screa m 631835
n i</w> 631806
hel ps</w> 631649
bu tt</w> 631627
D A</w> 631626
AAAA AAAA 631623
spee ch</w> 631006
ati ves</w> 630796
re f 630708
om :</w> 630697
can di 630665
Ca se</w> 630545
ly wood</w> 630393
br ary</w> 630325
se tt 630187
cam er 630020
s earch</w> 629553
is on</w> 629011
w ay 628856
ri age</w> 628765
prot ect</w> 628745
ic ep 628593
J ack</w> 628335
D EA 628167
ak a</w> 628148
illi ant</w> 628060
vic ti 628021
entr e</w> 627781
r at 627705
slow ly</w> 627460
c ore</w> 627402
c ut 627399
no se</w> 627392
0 4 627310
en ess</w> 627231
W ho 627120
hel ped</w> 627034
Ton ight</w> 626994
sm ell</w> 626746
merc ial</w> 626272
Lo ve 625922
Y 'all</w> 625707
h its</w> 625704
0 2</w> 625629
every where</w> 625151
#S ound 625034
h ic 624846
be low</w> 624796
A wards</w> 624638
enc ed</w> 624596
char acters</w> 624526
mm ing</w> 624481
bo w</w> 624376
ri sk</w> 624324
p us</w> 624047
0 3 623325
s_ mark:</w> 623207
EV ER</w> 622997
ed _b 622940
A P 622849
:f lex 622732
icep s:</w> 622730
ed_b iceps:</w> 622730
:flex ed_biceps:</w> 622730
co in</w> 622698
na sty</w> 622442
s ay 622371
scream ing_in_ 622183
:face_ screaming_in_ 622181
fear :</w> 622181
:face_screaming_in_ fear:</w> 622181
C as 622089
l ack</w> 622018
t ee 621648
Pro f 621585
ish es</w> 621537
ir es</w> 621536
fuc k 621123
ff s</w> 621031
P rem 620477
# Go 620466
as sho 620396
l ands</w> 620281
consi der</w> 620215
exc use</w> 620192
s outh</w> 620093
or ed</w> 620079
D oc 619962
pro of</w> 619464
bot tom</w> 619222
vol v 619181
pre vi 619144
U l 619055
um s</w> 619047
str on 619046
F IN 618960
w is 618915
L LY</w> 618735
st ock</w> 618504
beg an</w> 618132
prov ide</w> 617999
A sh 617875
ver pool</w> 617828
C ru 617593
A pp</w> 617466
b ee 617320
plan ning</w> 617011
lar s</w> 616779
D J</w> 616740
Be li 616735
o es</w> 616713
bal ls</w> 616702
br inging</w> 616684
the tic</w> 616327
An n 616152
wal ked</w> 615966
# g 615834
Bi eber</w> 615819
hu g</w> 615349
# no 615235
S W 615109
t ually</w> 614690
wh enever</w> 614470
chang ing</w> 614396
:re volv 614268
ing_heart s:</w> 614268
:revolv ing_hearts:</w> 614268
Ger many</w> 614255
ch rist 613945
a sh 613860
shoo ting</w> 613602
ac ts</w> 613076
it or</w> 612975
e ful</w> 612563
um bl 612538
ell ent</w> 612521
F eel</w> 611717
si on 611484
illi ons</w> 611370
s am 611161
Un der 610947
down :</w> 610850
EA R 610646
we ed</w> 610586
loc ked</w> 610559
ar ch 610217
Ger man</w> 610116
hil arious</w> 609954
6 5</w> 609952
sp on 609605
Rea l 609488
# Li 609238
er t</w> 609047
al o 609032
g ent 608976
Pr o</w> 608970
c ash</w> 608874
Russi an</w> 608832
in it 608561
w inner</w> 608546
J ordan</w> 608405
Wel come</w> 608402
neigh b 608251
mo on</w> 608110
manag er</w> 608071
exp lo 608038
c itiz 607988
# h 607707
Bea utiful</w> 607692
sex ual</w> 607631
t ree</w> 607362
al ty</w> 607354
A W 607329
der ship</w> 607180
sur ance</w> 607157
Cour t</w> 606758
ri ous</w> 606356
s ar 606209
mar keting</w> 605685
ha ir 605480
her o</w> 605417
M om 605323
stor m</w> 605234
se ts</w> 605019
S ports</w> 604938
hu h</w> 604726
ab t</w> 604699
par ts</w> 604234
W hat 604169
c il</w> 604139
200 6</w> 603938
Sm ith</w> 603798
d is</w> 603791
bloss om:</w> 603682
d - 603008
o il</w> 602687
b low</w> 602134
C ou 602102
s ent 601987
C N 601703
D D 601578
C D</w> 601152
st aying</w> 601076
i ew</w> 601064
N BA</w> 601007
any where</w> 600932
tr e</w> 600903
N I 600836
cent ury</w> 600784
surpri se</w> 600736
danc ing</w> 600684
tra vel 600630
qu it</w> 600560
celebr ate</w> 600149
G ames</w> 599956
r i</w> 599720
SE E</w> 599298
suppo se</w> 599185
B EST</w> 598980
v t</w> 598940
an o 598927
R Y</w> 598914
Qu een</w> 598908
usu al</w> 598887
li sh 598745
p et</w> 598336
i ent</w> 598309
econ om 598234
GO T</w> 598128
S of 597953
Y o 597952
op ened</w> 597911
1 : 597896
le g</w> 597661
B id</w> 597498
Tr ying</w> 597094
ca pe</w> 596698
H and 596448
bo t</w> 596182
cla ss 596159
vir on 595984
mar y</w> 595906
C K</w> 595795
g ni 595664
bru h</w> 595279
z i</w> 595266
f r</w> 594978
ter ror 594947
yel low 594737
ru de</w> 594655
0. 0</w> 594532
wor kers</w> 594399
lim ited</w> 594352
T ER 594254
el ing</w> 594215
Ad v 594142
fam ilies</w> 594038
H S</w> 594027
D ro 593733
and er</w> 593610
pp in</w> 593580
sp ending</w> 593493
sa ved</w> 593419
bab ies</w> 593254
#Tea m 593234
develo pment</w> 593033
in - 592901
Y Y 592843
t i</w> 592643
T ar 592074
3 00</w> 592036
Mex ico</w> 591935
i g</w> 591742
butt on</w> 591552
n eck</w> 591512
bt w</w> 591458
ex am</w> 591389
f ool</w> 591256
or ial</w> 591216
Tom orrow</w> 591200
G l 591051
cr ush</w> 590844
deser ves</w> 590753
D uring</w> 590497
car ds</w> 590399
A ra 590369
MA N</w> 590303
MOR E</w> 590217
Ama zing</w> 590060
hea ds</w> 589998
D ead</w> 589753
#CO VID 589583
n n</w> 589478
Can a 589376
regu lar</w> 589317
produc ts</w> 589054
sen ding</w> 588991
J ust 588643
0 5</w> 588622
M S</w> 588527
I' M</w> 588506
ni fic 588361
al ot</w> 588350
M IN 588171
FO R 588080
ul ts</w> 587814
bro ad 587742
Sea son</w> 587661
R yan</w> 587623
e th 587558
sun g</w> 587547
H ur 587513
G OOD</w> 587395
mo bile</w> 587375
Movi e</w> 587288
bu cks</w> 587266
gro wn</w> 587125
sp eed</w> 587075
fan tastic</w> 586920
k ies</w> 586748
rec ent</w> 586546
0 3</w> 586144
ta ins</w> 585879
EN D</w> 585635
regre t</w> 585419
offic ially</w> 585260
o logy</w> 585246
g ur 585211
US D</w> 584924
uti ons</w> 584867
prof essional</w> 584729
K ids</w> 584652
# d 584461
ta pe</w> 584457
bloc ked</w> 584220
K im</w> 583917
bo ttle</w> 583865
T - 583804
fin ding</w> 583713
A i</w> 583518
b lic 583376
ay a</w> 583309
gu il 583237
pl ane</w> 583232
b ound</w> 583230
ba th 582893
fa iled</w> 582459
fa shion</w> 582441
load ed</w> 582414
mat h</w> 582389
t une</w> 582369
Ang el 582310
W ANT</w> 582291
9 9 582154
D U 582063
ad ult</w> 581905
P ic 581606
ate ful</w> 581474
int en 581444
mat er 581357
Inter net</w> 581349
6 - 580876
st ates</w> 580773
No body</w> 580690
er _ 580661
2 / 580543
An d 580354
Ch urch</w> 580340
d ama 580269
ext rem 580265
ac es</w> 580242
sho w 580239
5 th</w> 580155
re sted</w> 579947
ES S</w> 579798
W in</w> 579771
F an 579369
ot a</w> 579368
ell er</w> 579332
D V 579229
ou te</w> 579122
can cer</w> 579122
sal es</w> 578991
St or 578826
K u 578706
im medi 578650
# job</w> 578339
un ities</w> 578270
Dis ney</w> 578257
:sun :</w> 578053
Sp anish</w> 577909
SH IT</w> 577771
Bl ack 577652
Rep ort</w> 577565
ay n</w> 577550
y ear 577290
L ev 577248
ad dress</w> 577235
M ul 577227
sho wed</w> 577060
heav y_ 577036
em er 576947
b in</w> 576729
G G 576491
Gla d</w> 576304
oun tain</w> 576264
0 8</w> 576198
: money 576022
mista ke</w> 575711
C AN 575668
gu it 575651
ec es</w> 575540
w as 575351
20 00</w> 575323
Fri ends</w> 575316
Isl and</w> 575276
bri dge</w> 575186
St e 574806
tal ent</w> 574714
Pu bli 574684
#Sound Cloud</w> 574434
Congr atulations</w> 573912
Vis it</w> 573639
cor ru 573616
s - 573134
xx xx 573057
p ean</w> 572910
M P 572691
ti fic 572652
ru le</w> 572615
: cher 572521
F ood</w> 572314
ear ned</w> 572053
se par 571953
air s</w> 571929
lo ws</w> 571751
0 4</w> 571616
M ess 571611
k ne 571459
S K 571135
n or</w> 571011
H im</w> 570954
beg in</w> 570837
partic ip 570795
T our</w> 570689
Hear t</w> 570566
compe tition</w> 570362
cul ture</w> 570297
Th ank 570255
Bo ston</w> 570060
ang ers</w> 569881
su s</w> 569721
an ia</w> 569656
lea ders</w> 569414
C ar</w> 569368
clo ser</w> 569332
a do 569128
Y a</w> 569022
ridicul ous</w> 568893
: yellow 568158
M ON 568129
:yellow _heart:</w> 568098
sc en 568032
TI ON</w> 567856
Mar ket</w> 567816
depend ent</w> 567724
be coming</w> 567517
phi c</w> 567198
F T</w> 566986
gla ss</w> 566949
de ed</w> 566685
su m</w> 566542
Every body</w> 566505
com ing_ 566205
Li l</w> 566172
ha ps</w> 566047
quick ly</w> 566015
D er 565885
: on 565869
st it 565832
consi dered</w> 565676
net work</w> 565597
chec ked</w> 565566
Gu ys</w> 565516
pressi on</w> 565479
bal lo 565371
St ory</w> 565069
A h</w> 565066
P RO 564954
CO VID</w> 564886
J ud 564700
IT E</w> 564689
ed eral</w> 564672
f c</w> 564568
aw ful</w> 564564
3 3 564443
D ani 564384
Nigg as</w> 564199
frea king</w> 564075
sun shine</w> 564073
P ea 563982
hel la</w> 563965
ri sh</w> 563858
m ale</w> 563847
x it</w> 563505
exclamation _mark:</w> 563384
S ong</w> 563326
li ved</w> 563222
ar ies</w> 562911
d d</w> 562825
a - 562811
Gen eral</w> 562731
pic al</w> 562602
ick et</w> 562372
outu be</w> 562286
cat _face_with_ 562231
:on coming_ 562087
y m 561820
i k 561614
Spec ial</w> 561493
F RO 561471
U s</w> 560702
fil led</w> 560509
soc iety</w> 560401
O ther</w> 560245
log ical</w> 560235
st y 560055
ry _ 559978
Comp any</w> 559928
gla sses</w> 559838
Ri ver</w> 559795
can s</w> 559788
re si 559785
Chel sea</w> 559775
B T 559543
it al 559475
:grinn ing_ 559415
m l</w> 559373
Rev iew</w> 559076
Some thing</w> 559057
EE N</w> 558840
u k</w> 558554
compan ies</w> 558350
Isra el</w> 558333
ther wise</w> 558306
ver ti 558204
h an 558129
H ard</w> 557997
pre dic 557996
ing ly</w> 557800
fac es</w> 557789
pic ked</w> 557749
S L 557598
b is 557497
R R 557453
:heart_with_ arrow:</w> 557395
hou se 556973
et ro 556895
pre ssure</w> 556858
Fo x</w> 556719
ri e</w> 556636
uc ks</w> 556206
bro thers</w> 556198
vers ary</w> 556196
:sleep y_face:</w> 556056
V ol 556045
tt ed</w> 555997
Su n</w> 555962
ess or</w> 555158
St eve</w> 555057
ant asy</w> 554467
s op 553645
h ide</w> 553478
Mic ro 553368
Per f 553175
val u 552956
uu uu 552563
I t 552497
Up date</w> 552429
produc t</w> 552383
strugg le</w> 552301
Aw esome</w> 552255
S am</w> 552191
stat ement</w> 552065
chil d 552019
th ea 551996
IN K</w> 551801
U gh</w> 551793
kid ding</w> 551714
r ent</w> 551699
ir ts</w> 551435
T ED</w> 551294
on e 551206
Ar senal</w> 551125
t ech</w> 550799
Par is</w> 550774
NE ED</w> 550708
sched ule</w> 550687
cre ep 550681
mi e</w> 550532
Hop efully</w> 550520
follo ws</w> 550024
pl z</w> 549736
Vo te</w> 549717
t ac 549629
p ink</w> 549420
K ing 549321
har der</w> 549233
car ry</w> 549206
st ance</w> 549191
W all</w> 549122
N av 548999
f ill</w> 548907
B each</w> 548867
Rea dy</w> 548719
r ying</w> 548717
s at</w> 548250
: c 548247
can cel 547744
ev idence</w> 547370
all er</w> 547364
ex pla 547238
st ood</w> 547171
cu dd 547088
p on</w> 547045
dre w</w> 546545
Bea uty</w> 546478
n y 546359
PL E</w> 546257
u als</w> 546250
ali an</w> 546164
ja il</w> 546135
L ED</w> 545978
announ ced</w> 545953
a c</w> 545775
Dig ital</w> 545740
Ital y</w> 545682
4 8 545390
u k 544921
yy y</w> 544918
s ity</w> 544900
avo id</w> 544893
it ation</w> 544700
Pre ss</w> 544596
deb ate</w> 544416
WH O</w> 544297
St ud 544273
hot el</w> 544234
Al lah</w> 543972
A gain</w> 543955
nor th</w> 543946
T UR 543855
S ex 543634
0 6</w> 543549
tri c</w> 543392
un followers</w> 543304
mi x</w> 543147
H ER</w> 543116
br ings</w> 543073
soc cer</w> 542884
si a</w> 542815
w hats</w> 542697
t ag 542659
rel ev 542614
j un 542573
AS S</w> 542452
sh ire</w> 542434
w at</w> 542403
an gel</w> 542390
Al ex 542348
J ones</w> 542344
cri me</w> 542129
Li verpool</w> 542046
A re 541837
incredi ble</w> 541818
8 :</w> 541759
p on 541741
0 7</w> 541602
: cro 541073
OU R</w> 540581
Dev elo 540513
ha vi 540499
jo kes</w> 540492
wil ling</w> 540455
ev in</w> 540391
k e:</w> 540167
HA HA</w> 539950
qui et</w> 539902
4 5 539667
stat us</w> 539652
E L</w> 539530
E mp 539317
x im 539316
mo d 539301
:cher ry_ 538936
:cherry_ blossom:</w> 538936
Ho ly</w> 538815
fem ales</w> 538359
ON LY</w> 538255
C i 538094
ic ians</w> 537803
mouth :</w> 537701
recei ve</w> 537626
gr an 537560
it ness</w> 537465
el ls</w> 537363
# a 537325
N ic 537225
app ly</w> 537146
emo tional</w> 536968
M ust</w> 536720
Euro pean</w> 536662
7 - 536454
in ary</w> 536372
cro ss</w> 536031
Li ber 535975
suppor ting</w> 535707
pur pose</w> 535685
y rs</w> 535574
mo stly</w> 535509
Jap anese</w> 535210
W eb 535082
tee th</w> 534848
0 9</w> 534846
cal m</w> 534769
Au th 534705
B ul 534547
polic y</w> 534462
stom ach</w> 534338
thank ful</w> 534136
gu ar 534064
B roo 534011
cop y</w> 533989
sol ution</w> 533898
E r 533896
b i</w> 533606
st ands</w> 533596
self - 533366
Nigg a</w> 533288
as ks</w> 533253
H a</w> 533073
W W 533006
th u 532944
achi ev 532692
Net flix</w> 532619
U U 532610
t wi 532606
y a 532275
ba e</w> 532090
ww w</w> 532070
cor ner</w> 531860
F B</w> 531778
tw are</w> 531716
lea ves</w> 531566
6 4</w> 531487
A lex</w> 531461
:smiling_face_with_ horns:</w> 531338
op tion</w> 531202
d ang 530838
heav y</w> 530302
gh ty</w> 530283
er o 530238
# k 530215
in er</w> 530137
li fe 529726
allow een</w> 529709
z er</w> 529591
sour ce</w> 529582
:kis s_mark:</w> 529478
sen ior</w> 529438
te en 529373
ur a</w> 529334
comple ted</w> 529287
Man chester</w> 529214
M uch</w> 529197
me aning</w> 529182
ba seball</w> 529055
OU N 529013
for ced</w> 528837
st eps</w> 528710
att itude</w> 528695
n on</w> 528443
c ook</w> 528377
e go</w> 528201
re sta 527385
ent ure</w> 527259
necess ary</w> 527225
Ve gas</w> 527173
st ems</w> 527045
L ee</w> 527001
c enter</w> 526844
w oo 526607
dri ver</w> 526408
el ling</w> 526185
oc i 526119
c ats</w> 525801
FRO M</w> 525633
do l</w> 525621
aw ard</w> 525563
ree k</w> 525531
# In 525327
N ick 525312
ly rics</w> 525046
you re</w> 525006
aw are</w> 524757
sk ills</w> 524595
L uc 524474
al though</w> 524406
phon e:</w> 524316
L M 524265
tex ting</w> 523723
B ru 523691
M ind</w> 523500
ie f</w> 523454
bi an</w> 523288
doc tor</w> 523168
C er 523143
Pak istan</w> 522922
ut ers</w> 522910
tr ump</w> 522841
L aw 522823
ab ly</w> 522791
G ri 522546
M ight</w> 522525
sh u 522513
K no 522469
F R 522071
pu ts</w> 521849
k em 521847
ni versary</w> 521809
reco gni 521800
inter national</w> 521763
adm it</w> 521726
B IT 521599
ic ian</w> 521510
an x 521497
5 5 521266
g ency</w> 521237
REA LLY</w> 520876
:raised _hand:</w> 520871
:oncoming_ fist:</w> 520746
ic king</w> 520647
ber ry</w> 520553
WAT CH</w> 520483
dele te</w> 520421
cam p</w> 520249
:' (</w> 519882
F ut 519562
v an</w> 519532
Ro bert</w> 519381
anc ed</w> 518972
str ate 518733
ing er</w> 518687
tim ate</w> 518662
S ir</w> 518429
H all</w> 518365
B ank</w> 518304
r ings</w> 517845
le st</w> 517804
ch ick</w> 517690
H ead</w> 517647
i um</w> 517539
w an</w> 517209
10 00</w> 517196
ti ght</w> 517063
re vea 516783
# st 516718
j am 516273
Wom an</w> 516179
coll ection</w> 516100
bar ely</w> 516015
A war 515994
St ra 515857
ch a</w> 515724
anti - 515720
Pro t 515565
p ee 515133
H U 515131
shit ty</w> 514992
grou ps</w> 514948
jo ined</w> 514767
3 8 514319
s le 514298
ta ught</w> 514175
LI FE</w> 514144
mess ages</w> 514081
Sec ond</w> 514049
:f ro 513927
D un 513858
z one</w> 513853
Ho ttest</w> 513844
produc tion</w> 513649
inspir ation</w> 513579
mo ves</w> 513460
Ma j 512867
mil k</w> 512752
sit ion</w> 512509
dec is 512509
M I 512430
li a</w> 512338
Ac tually</w> 512295
sa fe 512164
app ear</w> 512058
al co 511974
g ree</w> 511951
An ti 511820
D av 511793
John son</w> 511572
def ense</w> 511560
inclu ded</w> 511348
Hon estly</w> 511166
m atters</w> 510976
just ice</w> 510828
Ti ps</w> 510801
oun ding</w> 510770
Sp ea 510725
re land</w> 510644
enjoy ed</w> 510607
any ways</w> 510518
4 9 510465
g en</w> 510417
know ledge</w> 510387
RE D</w> 510353
wor ld 510126
hi stor 510090
tain ment</w> 510022
:speak -no-evil_monkey:</w> 509879
EVER Y 509772
c ing</w> 509639
el ected</w> 509600
Bo th</w> 509521
Ass oci 509334
rais ed</w> 509271
gett in</w> 509088
c t</w> 509062
0 2 509028
Mi ami</w> 508986
Le ts</w> 508983
1/ 2</w> 508921
Val ent 508689
fi e</w> 508662
S N 508594
T ro 508524
ho l</w> 508423
H ill</w> 508409
T ER</w> 508232
be d 507720
n al</w> 507138
pe op 506975
as on</w> 506950
L a</w> 506853
H ell</w> 506737
10 . 506698
e k</w> 506576
X X 506455
t an</w> 506404
f eat</w> 506354
d un 506319
d less</w> 506210
in sul 505656
P ut</w> 505647
ra ise</w> 505502
C elebr 505459
na ils</w> 505361
qu een</w> 505345
C U 505310
r es</w> 505204
mur der</w> 505155
C ool</w> 504984
Ch rist</w> 504982
W TF</w> 504963
Jack son</w> 504874
w are</w> 504764
il led</w> 504699
bur g</w> 504634
M T</w> 504602
gi a</w> 504585
AS T</w> 504423
sh oul 504163
nam ent</w> 503795
WH EN</w> 503641
# now 503589
Wh it 503567
ma ssive</w> 503478
Cent ral</w> 503382
ber g</w> 503209
ven ue</w> 503155
y ard</w> 503111
H ERE</w> 502837
Mat t</w> 502833
dru gs</w> 502770
her self</w> 502756
Th ree</w> 502501
ag ing</w> 502399
gr ateful</w> 502252
H EL 502088
Pe ter</w> 501886
pis s</w> 501832
str ength</w> 501787
bro wn</w> 501667
direc t</w> 501640
ra in 501547
u u</w> 501423
S uch</w> 501293
N ah</w> 501006
m ers</w> 500880
uti ve</w> 500725
do s</w> 500463
ob s 500313
cra ft</w> 500228
Sco tt</w> 500153
bir d</w> 500118
T it 500028
ea ls</w> 499955
Sh are</w> 499949
B AB 499800
i mage</w> 499799
H alloween</w> 499789
enjoy ing</w> 499637
e tt 499576
ist ry</w> 499576
D ad</w> 499519
c in 499514
tea chers</w> 499443
as soci 499411
qu ali 499305
# y 499245
dit ions</w> 499121
Tem p</w> 498986
po sting</w> 498806
Ear th</w> 498792
y :</w> 498723
0 - 498676
pregn ant</w> 498492
M ir 498445
d ings</w> 498328
Wor ld 498324
doc um 498298
is es</w> 498284
c s</w> 498214
work out</w> 498143
Afr ican</w> 498100
em ic</w> 497817
on - 497347
Ni all</w> 497273
fin als</w> 497142
B en</w> 497125
pot ential</w> 496786
D ays</w> 496767
LMA O</w> 496702
B IR 496564
est im 496345
L EA 496291
vil lage</w> 495948
ster n</w> 495945
C over</w> 495853
wa king</w> 495561
l ord</w> 495307
er - 495294
H i 495236
um my</w> 495194
sna p</w> 495121
st airs</w> 495054
Car ol 495024
STO P</w> 494916
el and</w> 494857
t ics</w> 494724
hol ds</w> 494648
off ers</w> 494553
neg ative</w> 494549
i Pad</w> 494365
ep tion</w> 494311
pre mi 494247
imm igr 494126
gra m</w> 494062
gen u 494009
sit es</w> 493887
face book</w> 493597
com mercial</w> 493554
ma ss 493490
# vo 493488
th t</w> 493463
ree ts</w> 493392
im possible</w> 493344
and ing</w> 493336
Bo y 493297
relev ant</w> 493292
ed ge</w> 492979
i ble</w> 492973
k itchen</w> 492784
M other</w> 492747
# the 492587
bo ther</w> 492587
sna pchat</w> 492481
fre sh 492095
event ually</w> 492028
power ful</w> 492007
Pl an 491980
loo d</w> 491939
Kor ea</w> 491879
possi bly</w> 491774
200 5</w> 491725
rem ember 491707
bath room</w> 491431
dec ent</w> 491295
mom ents</w> 491164
k l 491154
custom er</w> 491021
H an 490586
ter ms</w> 490467
pro per</w> 490270
fri day</w> 490200
who se</w> 489843
3 7 489569
ic e 489545
ST A 489488
po sts</w> 489303
sec tion</w> 489182
de dic 489098
Manag er</w> 489077
pre fer</w> 488935
# news</w> 488923
: squint 488911
:squint ing_face_with_tongue:</w> 488911
Mar tin</w> 488817
b ac 488725
St art</w> 488664
bud dy</w> 488593
f o</w> 488485
Ni ke</w> 488426
squint ing_face:</w> 488165
:grinning_ squinting_face:</w> 488165
B on 488109
lo ads</w> 488095
Braz il</w> 487876
bir th</w> 487607
r ange</w> 487606
S ays</w> 487527
ed ly</w> 487434
T hats</w> 487304
d omin 487176
C at 486915
War s</w> 486526
M M 486521
exc iting</w> 486508
T ech</w> 486423
W anna</w> 486404
Qu est 486104
aw ar 486077
dru g</w> 486076
Tem perature</w> 485943
DO C 485933
ig an</w> 485865
Y ears</w> 485784
ho ly</w> 485734
extrem ely</w> 485645
ap er</w> 485362
ar my</w> 485225
cont ribu 485150
il legal</w> 484858
de y</w> 484774
Ma king</w> 484667
B ud 484523
cha mp 484513
ay ne</w> 484397
Sal es</w> 484267
a i</w> 483685
big _eyes:</w> 483611
:grinning_face_with_ big_eyes:</w> 483611
all as</w> 483421
scor ed</w> 483268
# jobs</w> 483152
: gre 483004
St ation</w> 482693
appear ed</w> 482612
fi f 482581
ough out</w> 482568
ac cording</w> 482501
sub scri 482489
leg it</w> 482483
part ner</w> 482352
o le</w> 482068
maj ority</w> 481867
con ference</w> 481737
i th 481634
NY C</w> 481632
RI GHT</w> 481615
2 2 481484
ex ec 481432
H oo 481390
E ST 481367
DON 'T</w> 481133
U N</w> 481105
Tho mas</w> 480770
anim als</w> 480763
M P</w> 480669
fing ers</w> 480487
L im 480278
d cast</w> 480223
Off ice</w> 480205
Imag ine</w> 480197
rea ched</w> 479898
hi p</w> 479859
ul a</w> 479623
ac counts</w> 479401
ac qu 479367
g ol 479218
mem ory</w> 479063
ys is</w> 479001
bi ke</w> 478831
B I</w> 478639
Gr and</w> 478590
econ omy</w> 478580
ol :</w> 478505
gg s</w> 478320
b f</w> 478301
fa il 478077
th ir 478022
20 20</w> 477940
ac comp 477925
aw w</w> 477788
app lic 477733
E li 477706
AB OUT</w> 477433
SH E</w> 477332
or dered</w> 477242
Fun ny</w> 477215
disgu sting</w> 477208
y l 476990
chea p</w> 476969
K at 476895
uni or</w> 476684
re y</w> 476579
In c</w> 476554
N ation</w> 476531
ala xy</w> 476515
Fin al</w> 476458
S U</w> 476448
I P</w> 476274
Go vernment</w> 476025
dre ssed</w> 476009
Pro bably</w> 475827
B ack 475802
C C</w> 475787
w et</w> 475726
OM E 475662
M AN 475570
g ate</w> 475554
or ing</w> 475455
ma sk 475326
j k</w> 475270
exp ensive</w> 475256
gun na</w> 475170
cer tain 475120
V intage</w> 475089
gest ur 475064
sh i</w> 475016
b right</w> 474974
D eb 474933
be havi 474793
Pho tos</w> 474719
:person_ gestur 474593
:person_gestur ing_ 474593
su ffer 474567
Li am</w> 474556
Des ign</w> 474032
vo tes</w> 474006
m eal</w> 473920
H om 473877
n ation 473798
f i</w> 473605
T ING</w> 473586
Sa ve</w> 473521
gam e 473257
T ou 473223
TWEE T</w> 473084
#n p</w> 472865
Supp ort</w> 472819
med ical</w> 472811
bom b</w> 472523
tr uck</w> 472514
ed _ 472416
Lo s</w> 472360
ON G</w> 472334
ic ide</w> 472291
ist ol:</w> 472279
:p istol:</w> 472279
int el 472191
i ed</w> 471987
Y our 471912
s oooo</w> 471802
responsi ble</w> 471695
de st 471617
off s</w> 471573
par ties</w> 471503
D eal</w> 471475
inn ers</w> 471395
M ary</w> 471334
sy m 471313
ta ining</w> 471257
# coronavirus</w> 471217
S HO 471186
Democr ats</w> 470897
Mo bile</w> 470854
I I 470758
y n</w> 470677
w ich</w> 470659
N C</w> 470588
sha ke</w> 470192
; - 470140
Hist ory</w> 470096
med ical_ 470055
L iter 469970
La w</w> 469960
:grinn ing_face:</w> 469854
com plain</w> 469827
fortun ately</w> 469781
loc ation</w> 469725
Pr inc 469675
R on 469609
P AR 469445
w ash</w> 469413
J our 469373
boo k 469286
al ysis</w> 469126
umbl r</w> 469018
mach ine</w> 468977
v ous</w> 468834
S on 468765
Re tweet</w> 468710
J am 468679
con tract</w> 468572
Ch ange</w> 468557
ach es</w> 468395
Follo w 468366
tt on</w> 468333
brea d</w> 468099
wn s</w> 468092
it y 468079
F ra 468027
th rowing</w> 467862
brea th</w> 467841
in come</w> 467827
exc lu 467792
z en</w> 467757
ick y</w> 467625
mom s</w> 467518
TO DAY</w> 467512
inn y</w> 467502
Mon t 467407
as k 467406
ch em 467346
: hu 467165
D ou 467146
br illiant</w> 466937
kil ls</w> 466882
p o</w> 466791
cha in</w> 466705
:gre en_heart:</w> 466684
ii ii 466679
Bo ys</w> 466649
ad mini 466642
Sl ee 466496
l ers</w> 466256
en ly</w> 465904
en der</w> 465880
enter ed</w> 465877
comm unic 465810
gi vea 465794
hea ven</w> 465785
wa ve</w> 465635
MA KE</w> 465634
har ry</w> 465484
plan ned</w> 465338
mask :</w> 465324
:face_with_ medical_ 465315
:face_with_medical_ mask:</w> 465315
B Y</w> 465199
wa v 465153
co ck</w> 465115
st - 464978
ri mac 464944
shi ft</w> 464921
enc ou 464852
surv eys</w> 464832
:g rimac 464810
:grimac ing_face:</w> 464810
tex ts</w> 464763
spec ially</w> 464757
mat es</w> 464736
eff ect</w> 464555
se es</w> 464506
EA R</w> 464382
imp act</w> 464375
i k</w> 464324
to p 464292
right :</w> 464214
Du de</w> 464120
B REA 463921
t ol 463839
au di 463768
sig nific 463736
ro m 463563
hang ing</w> 463538
ff er</w> 463503
M ee 463440
D an 463161
. com</w> 462859
ma d 462776
Tr ans 462532
pr o</w> 462529
des pite</w> 462525
plan et</w> 462449
jour ney</w> 462320
en viron 462195
: down 462065
Tr an 461978
un ion</w> 461908
Cana dian</w> 461850
tt ers</w> 461782
id er</w> 461736
mista kes</w> 461724
sn ea 461720
S ON</w> 461702
pul led</w> 461523
Se x</w> 461258
w ell 461209
bo wl</w> 461077
G IR 460940
grow th</w> 460920
crit ic 460719
ma ster</w> 460636
m ic</w> 460569
J im 460460
OF F</w> 460185
ath le 460076
stu dio</w> 460069
mo dern</w> 460053
h u</w> 459967
K evin</w> 459401
Happ y 459347
free dom</w> 459317
pi eces</w> 459203
clo ck</w> 458818
multi ple</w> 458750
A MA 458739
co z</w> 458637
To wn</w> 458632
Bo x</w> 458622
rem ind</w> 458433
Cha ll 458385
U r 458383
cre w</w> 458284
f g</w> 458188
W oo 458138
tea m 458134
p al</w> 458114
Fav or 458070
m ut 457723
tal kin</w> 457464
F estival</w> 457386
Blo g</w> 457226
s ma 457224
light ly</w> 457208
E duc 457170
be comes</w> 457110
lea f 457001
mar riage</w> 456700
sh a</w> 456658
brea ks</w> 456612
T am 456585
viol ence</w> 456518
8 8 456447
th rew</w> 456434
intel lig 456119
bea ts</w> 456083
p ha 456054
elec tr 456036
th ing 456009
tat too</w> 455963
le e</w> 455941
o therwise</w> 455706
Hea d 455701
#MTV Hottest</w> 455683
tech nology</w> 455509
Al though</w> 455388
is s 455201
dol lars</w> 455186
C el 455166
CO ME</w> 455132
attemp t</w> 455074
gener ation</w> 454928
S ale</w> 454735
Perf ect</w> 454663
YO NE</w> 454531
wom an_ 454526
5 2</w> 454305
we b</w> 454117
disappo inted</w> 454045
up dates</w> 453979
Cho ice</w> 453951
Ed ition</w> 453729
writ er</w> 453726
La ke</w> 453723
med ic 453612
ani mal</w> 453590
X box</w> 453553
a di 453453
continu es</w> 453436
po s 453416
I reland</w> 453403
absol ute</w> 453311
w ings</w> 453227
oo th</w> 453161
f our 453099
Lo ts</w> 452999
tel ev 452790
#now playing</w> 452774
whit e_ 452766
P a</w> 452707
emp ty</w> 452672
F RI 452654
repor ted</w> 452619
TT ER</w> 452582
1 D</w> 452529
R ac 452489
TO O</w> 452469
const antly</w> 452466
Pro ject</w> 452421
REA L</w> 452206
: white_ 452182
inst agram</w> 452179
W AY</w> 451913
wn ing_face:</w> 451644
h rs</w> 451616
la ws</w> 451592
sp ar 451553
air port</w> 451464
T e 451400
P R</w> 451090
an ch 450696
B ig 450598
safe ty</w> 450518
DOC UM 450468
de gree</w> 450399
Willi ams</w> 450391
squ ad</w> 450210
C lar 450109
co - 450087
tur al</w> 450087
di v 450034
fing er</w> 450030
attrac tive</w> 449765
Un ion</w> 449647
Dar k</w> 449429
adv ant 449386
immedi ately</w> 449324
u fac 449147
_ mouth:</w> 449089
di strict</w> 449023
G am 448989
h itting</w> 448743
heal th 448564
k u 448369
F em 448358
se tting</w> 448300
ri ver</w> 448231
- up</w> 448129
Niger ia</w> 447954
assho le</w> 447837
A Y 447823
3 9 447813
ma gic</w> 447621
sk i</w> 447513
hi o</w> 447509
A sk</w> 447472
om ing</w> 447465
ve hic 447419
OO L</w> 447391
arti sts</w> 447318
decis ions</w> 447114
Pr ince</w> 447066
C ard</w> 447012
sh out</w> 446844
st ant</w> 446669
re fl 446588
p it 446439
w ha 446436
re main</w> 446422
Bo dy</w> 446327
r um 445745
R un</w> 445536
e ma 445520
b ear</w> 445451
Vic tor 445399
po t</w> 445392
6 9</w> 445228
on de</w> 445224
ar eas</w> 445113
increa se</w> 445071
sin s</w> 445061
S anta</w> 445037
ta ined</w> 444972
S B 444746
se um</w> 444695
fa ir 444455
enn is</w> 444342
smo king</w> 444312
re v 444267
am ond</w> 444179
do in</w> 443998
to - 443746
Ep isode</w> 443205
e ers</w> 443105
ay e</w> 442980
DOCUM ENT</w> 442972
a ke</w> 442830
tal ented</w> 442788
F F</w> 442780
inv ite</w> 442776
HAHA HAHA 442707
custom ers</w> 442637
:an gr 442613
;- )</w> 442503
B OO 442458
ad es</w> 442457
wh er 442366
si sters</w> 442358
r ated</w> 442178
K E 442123
trea t 442113
friend ly</w> 441806
spir it</w> 441774
OF . 441651
END . 441631
d or 441616
The m</w> 441493
to il 441454
RI P</w> 441448
p il 441422
END. OF. 441337
es h</w> 441328
END.OF. DOCUMENT</w> 441325
fl ying</w> 441201
6 6</w> 441183
Ma kes</w> 441048
sig ns</w> 440985
iso des</w> 440882
ound ation</w> 440569
Wat er</w> 440271
F IR 440107
as p 440072
iz ing</w> 440060
De f 440050
Eng ine 439975
ad orable</w> 439886
su e</w> 439581
essi ons</w> 439342
Cla ss</w> 439327
gg er</w> 439270
Tr ust</w> 439228
IC K</w> 439148
manag ement</w> 439092
il ities</w> 438941
Ma c</w> 438830
St ri 438819
lea ds</w> 438810
W est 438614
S na 438387
remin ds</w> 438338
y e 438327
MA R 438313
A D</w> 438287
mar ry</w> 438261
tre e:</w> 438086
en s 437965
ey e 437828
Per son 437808
cla ssic</w> 437806
Willi am</w> 437764
thr oughout</w> 437728
cri ed</w> 437605
V P</w> 437470
n ature</w> 437437
dea ls</w> 437408
menti oned</w> 437391
At l 437176
is land</w> 437162
ar i</w> 437086
stud ying</w> 437080
Dra ke</w> 437078
b illion</w> 437031
lap top</w> 436951
haha haha 436853
un te 436806
ON S</w> 436599
3 / 436588
k ni 436528
v ation</w> 436465
do ors</w> 436454
smil ing</w> 436389
re sid 436380
ter ed</w> 436314
la me</w> 436212
cri sis</w> 436068
ther e 436041
#B B 435994
ar rested</w> 435868
ar gu 435734
F ree 435549
g i</w> 435081
P ac 434915
#C or 434910
mo vement</w> 434767
youn ger</w> 434680
6 th</w> 434679
li am 434560
do pe</w> 434545
S OME 434541
l or 434441
back ground</w> 434382
pr ices</w> 434315
gra b</w> 434152
B ar</w> 434109
St eph 433876
n ite</w> 433760
S ign</w> 433697
fea tures</w> 433648
S cho 433573
D ID</w> 433549
gi es</w> 433512
crow d</w> 433505
desig ned</w> 433470
arg ument</w> 433343
8 - 433130
lea dership</w> 433112
5 1</w> 432919
G aga</w> 432708
chall eng 432448
l ec 432438
K ee 432318
pri son</w> 432200
Ro se</w> 432109
bur y</w> 432104
g as 432061
rea ction</w> 431940
O O</w> 431931
Fa shion</w> 431823
de but</w> 431752
hor se</w> 431469
star :</w> 431346
Sam sung</w> 431174
D M 431066
t up</w> 430929
# sho 430874
dang erous</w> 430729
la unch</w> 430719
on t 430562
back up</w> 430465
st eal</w> 430420
BIR TH 430378
Pol it 430223
re ti 430181
t iny</w> 429909
p in 429596
dr inks</w> 429316
B TS</w> 429303
THAN K</w> 429228
. S 429192
Min ister</w> 429141
F AC 429134
lon ely</w> 428868
L ine</w> 428796
Con f 428791
R am 428753
pret end</w> 428708
Ac cording</w> 428659
n ar 428430
H IM</w> 428344
Do g</w> 428328
every time</w> 428303
at i</w> 428041
V A</w> 427993
b ear 427964
li pp 427814
b ay</w> 427687
dou ble 427669
pr ene 427529
K y 427471
A F 427442
pr int</w> 427386
5 SO 427283
g lobal</w> 427123
orig in 427109
is nt</w> 427089
a do</w> 426887
pu blic 426885
some how</w> 426780
NE WS</w> 426768
o m</w> 426761
cha ir</w> 426702
grand ma</w> 426561
t an 426431
Ac t</w> 426211
Spr ing</w> 426186
var ious</w> 426059
sol o</w> 426022
hear ts</w> 426018
11 : 425866
lic ious</w> 425852
gun s</w> 425664
not es</w> 425661
E a 425515
p ure</w> 425463
Th ought</w> 425386
al ism</w> 425380
= )</w> 425308
En ter 425263
claim s</w> 425237
AN D 425223
el le</w> 425016
EE EE 424917
Hou ston</w> 424875
E d</w> 424861
religi on</w> 424784
lo g</w> 424763
s witch</w> 424585
fun d</w> 424563
Bo wl</w> 424534
Mic h 424403
rol ling</w> 424330
our ces</w> 424275
Mus lim</w> 423894
Ital ian</w> 423881
arri ved</w> 423781
g ery</w> 423736
Ro yal</w> 423645
f its</w> 423589
C ry 423532
li brary</w> 423420
h ill</w> 423241
Net work</w> 423207
: heavy_ 423079
I rish</w> 423047
ho ld 422819
per sever 422793
k er 422607
requ est</w> 422578
G lobal</w> 422567
A ustin</w> 422495
fore ign</w> 422400
resp ond</w> 422284
cam pus</w> 422260
ins ane</w> 422066
Fut ure</w> 421982
ould nt</w> 421953
s wa 421850
cra sh</w> 421833
8 5</w> 421831
bo tt 421649
is s</w> 421632
S EL 421416
oun ce</w> 421340
c ement</w> 421270
S ucc 421237
U E</w> 421076
_ mo 421058
abu se</w> 421042
Coun try</w> 420837
200 4</w> 420814
rac y</w> 420692
Fu n</w> 420653
st reets</w> 420382
4 7 420314
ther es</w> 420166
S at 420134
hon ey</w> 420072
Com ing</w> 420045
De fin 419836
Dri ve</w> 419817
re ports</w> 419752
sh irts</w> 419614
lim it</w> 419316
b ble</w> 419314
screa ming</w> 419156
loo kin</w> 419143
S pain</w> 419053
and om 419041
ach ed</w> 419017
per form</w> 419007
y l</w> 418981
in sight</w> 418924
n ings</w> 418668
fea ture</w> 418478
ho o</w> 418364
sp ell</w> 418357
go s</w> 418176
Ho li 418085
mat ure</w> 418010
if y</w> 417992
201 0</w> 417822
th read</w> 417699
H IS</w> 417464
s . 417264
ru in</w> 417190
ud i</w> 417091
t d</w> 416995
af ford</w> 416611
ust ed</w> 416590
inspir ed</w> 416318
ar i 416282
wea l 416125
k u</w> 416061
us ers</w> 416032
fin na</w> 416020
s giving</w> 416015
u se 415994
ti p</w> 415905
dig ital</w> 415702
pre - 415668
W tf</w> 415608
uni que</w> 415553
THE M</w> 415539
bor der</w> 415515
K i 415427
I ran</w> 415272
vac ation</w> 415247
4 00</w> 415230
M eet</w> 415177
at ory</w> 415137
P ack</w> 414900
ep isodes</w> 414863
des per 414849
n ur 414614
Sm all</w> 414428
for ces</w> 414378
in si 414352
cont est</w> 414327
con sum 414297
# Vo 414233
Austr alian</w> 414225
Wa iting</w> 414131
ner vous</w> 414021
us s</w> 413975
Cha mp 413909
me an 413893
consi dering</w> 413805
ch ief</w> 413776
previ ous</w> 413653
p ag 413591
A ca 413520
S la 413452
or ities</w> 413425
Angel es</w> 413260
p unch</w> 413231
de t 413228
P ls</w> 413139
fl at</w> 412981
S HA 412970
pat h</w> 412777
pas s 412764
Sec urity</w> 412703
pa thetic</w> 412657
mon d</w> 412647
fa ster</w> 412584
Sen ate</w> 412583
A C</w> 412425
u l</w> 412284
hon or</w> 412132
Inv est 412095
P as 412020
sh y</w> 411816
s ac 411704
ch y</w> 411549
ch in</w> 411507
S ounds</w> 411197
the me</w> 411157
com par 411036
r oute</w> 411031
ex erc 410944
relation ships</w> 410832
m all</w> 410794
Cra zy</w> 410766
Mi x</w> 410698
fun ni 410420
fil ms</w> 410343
sil ly</w> 410341
N N 410324
t ing_heart:</w> 410322
:bea ting_heart:</w> 410322
a id</w> 410240
sy n 410171
own ed</w> 410126
ma ga 409610
B IG</w> 409519
S C</w> 409502
obs essed</w> 409336
ach ing</w> 409334
ster ed</w> 409202
R an 409201
# 8 409134
en _ 408861
hat es</w> 408822
as sum 408804
de m</w> 408766
M L 408375
Sk y 408359
tar get</w> 408352
# 1 408342
:kis s 408205
BIRTH DAY</w> 408150
Publi c</w> 408030
P ink</w> 407962
CN N</w> 407901
light ly_ 407771
:s lightly_ 407751
C ant</w> 407730
dea d 407612
sat is 407556
su gar</w> 407533
st al</w> 407422
end a</w> 407411
ac ted</w> 407229
b and 407131
A ward</w> 407015
ba i</w> 406934
im prove</w> 406905
AT ION</w> 406781
obvi ous</w> 406626
bb ing</w> 406598
Y a 406476
Ad am</w> 406444
ba sic</w> 406168
loc k 406076
givea way</w> 405927
S av 405872
gu ide</w> 405799
Br ing</w> 405789
p ter</w> 405785
I V</w> 405582
le y 405574
ha sh 405548
dra wing</w> 405379
# j 405337
lon g 405225
fi el 405110
c um 404960
bat h</w> 404915
im pro 404891
ch est</w> 404825
person ally</w> 404811
J im</w> 404746
Dea th</w> 404647
as sa 404476
bl ind</w> 404328
Ab sol 404312
Hol lywood</w> 404180
is co</w> 404172
b ands</w> 404078
a j</w> 404012
f b</w> 403994
B ang 403949
tran sl 403875
K ED</w> 403855
answ ers</w> 403722
e er 403699
manag ed</w> 403564
D am 403419
Or der</w> 403414
les son</w> 403247
mo de</w> 403051
pre pared</w> 403004
ee ding</w> 402993
Sh er 402970
happ iest</w> 402884
D ep 402816
pl ant</w> 402483
de my</w> 402388
Lat est</w> 402376
b our 402348
la bor 402215
hi bit 401997
st on 401935
j o</w> 401902
F all</w> 401883
fal ls</w> 401742
sci enti 401609
spec ies</w> 401583
C EO</w> 401563
Y ea</w> 401562
trea ted</w> 401302
rep eat</w> 401287
al tern 401260
E P 401230
T RA 401169
id enti 401165
app le</w> 401144
# Happy 400964
gre es</w> 400937
For ce</w> 400815
7 2</w> 400788
Val ley</w> 400747
5 6</w> 400683
s ers</w> 400667
year - 400665
ca kes</w> 400367
ev a</w> 400339
un a</w> 400257
re mo 400242
guil ty</w> 400196
acc ident</w> 399763
Tun es</w> 399731
fin ancial</w> 399433
est yle</w> 399337
Fa ther</w> 399233
tim eline</w> 399131
No t 399015
Secre t</w> 398967
# New 398925
check _mark:</w> 398909
D ata</w> 398773
P op 398757
F L 398634
ort ers</w> 398621
produc ed</w> 398589
O hio</w> 398588
ho c 398569
7 th</w> 398539
Char les</w> 398454
cr ack</w> 398422
lev els</w> 398373
st ayed</w> 398154
anc ing</w> 398061
christ mas</w> 397988
under standing</w> 397917
sudd enly</w> 397834
b ang 397791
Gen er 397751
ta x 397500
pl ate</w> 397463
ca used</w> 397443
m c 397367
d are</w> 397297
tiv ity</w> 397290
YO U 397187
Coun cil</w> 397144
el e</w> 397096
tea ching</w> 397096
T ony</w> 397086
W AN 396658
good night</w> 396501
L an 396493
K elly</w> 396492
b ell</w> 396479
d am</w> 396445
perf ec 396394
ty pes</w> 396387
e o</w> 396368
col li 396282
mir ror</w> 396227
K er 396150
sa ving</w> 396117
vern or</w> 396111
th es 395949
D allas</w> 395749
t l</w> 395676
oc racy</w> 395580
R T 395538
F M</w> 395481
LM FA 395271
in surance</w> 395270
lar gest</w> 395239
dol lar</w> 395233
ph y</w> 395151
( ;</w> 395104
o - 395088
Sy stem</w> 395051
s now 395022
high ly</w> 394984
Po wer 394916
con serv 394859
# go 394847
Cam era</w> 394828
sle pt</w> 394814
gu ard</w> 394808
S outh 394736
exc ellent</w> 394731
Fr ank 394710
confir med</w> 394606
c andy</w> 394491
: persever 394451
:persever ing_face:</w> 394451
A z 394441
ght ers</w> 394433
5 3</w> 394286
p ons</w> 394206
Con tro 394201
G ro 394187
R est 394147
bo at</w> 394116
best friend</w> 393681
Chi ef</w> 393594
th day 393545
av i</w> 393510
Asi an</w> 393474
sh orts</w> 393200
S ig 392847
un follow</w> 392722
ident ally</w> 392701
v es 392680
D rea 392628
5 4</w> 392593
LO V 392558
ous es</w> 392478
regi on</w> 392364
sem ester</w> 392249
Gu y</w> 392169
so lid</w> 392155
Bo b</w> 392115
W OULD</w> 392051
continu ed</w> 392037
h anna</w> 392020
W E 392019
acc ur 391899
ee ee</w> 391896
O per 391801
f low</w> 391788
recomm end</w> 391695
m illions</w> 391513
ho mie</w> 391451
or ders</w> 391431
IT Y</w> 391367
9 8</w> 391343
is a</w> 391171
S ter 390815
I ll</w> 390783
C I 390750
k y 390675
sig ning</w> 390583
f ellow</w> 390473
Sho p</w> 390458
Wor k 390417
ex pl 390191
pl enty</w> 390034
B an 389957
pres ents</w> 389697
deli ver 389649
spec ific</w> 389642
WA YS</w> 389622
n ea 389536
j i 389372
pas sing</w> 389223
gr ace</w> 389121
:raised _ 388996
itt ee</w> 388968
do g 388945
Chil dren</w> 388915
Ha ir</w> 388680
PE O 388531
Sci ence</w> 388527
With out</w> 388460
sh el 388447
G un 388417
se l</w> 388415
#S u 388376
Ma x</w> 388319
D ER</w> 388262
plat form</w> 388238
stand ard</w> 388107
own er</w> 388040
C D 388023
pro gress</w> 387928
EE P</w> 387877
La dies</w> 387801
m ps</w> 387771
gra phic</w> 387761
si an</w> 387738
T im</w> 387692
ha w 387661
kno ck</w> 387524
St ea 387503
E specially</w> 387499
Arti st</w> 387321
no pe</w> 387233
Swee t</w> 387104
Wor king</w> 386803
de f</w> 386612
BIT CH</w> 386424
boo bs</w> 386381
do e</w> 386371
coun ting</w> 385857
ST ILL</w> 385752
ust om 385609
F A</w> 385595
Im ma</w> 385573
Republi can</w> 385549
_ _ 385536
lo s</w> 385435
Al most</w> 385397
smil es</w> 385354
P N</w> 385336
squ are</w> 385318
#COVID 19</w> 385208
ic ing</w> 385192
dra ft</w> 385084
alco hol</w> 385042
ha ll</w> 385015
fir ed</w> 384960
I r 384917
For d</w> 384845
id den</w> 384820
direc tly</w> 384819
la y 384761
B y 384759
GA IN</w> 384723
wal ks</w> 384649
N ame</w> 384537
8 8</w> 384386
hy po 384297
Micro soft</w> 384276
m ings</w> 384262
ne ither</w> 384258
thro at</w> 384174
app ears</w> 384056
pre me</w> 383989
par king</w> 383912
em a</w> 383815
6 2</w> 383812
certain ly</w> 383809
gg ing_face:</w> 383669
:hu gging_face:</w> 383669
recor ded</w> 383625
t ary</w> 383609
WOR LD</w> 383601
d le 383575
ch eer</w> 383562
Th inking</w> 383492
Tor onto</w> 383381
tr ending</w> 383286
fav or</w> 383281
or ange</w> 383268
dist ance</w> 383177
S ad</w> 383095
7 7</w> 383014
loo se</w> 382914
ac o 382895
c ab 382872
Fe eling</w> 382841
:s now 382815
T E 382761
FOLLO W 382747
sit ive</w> 382724
soc ial 382545
as sume</w> 382530
vic tory</w> 382483
y outube</w> 382457
phys ical</w> 382372
ea ts</w> 382271
c loud</w> 382121
sleep y</w> 382101
le d 382085
r are</w> 382066
T S 382024
D ance</w> 382020
ra pe</w> 381920
aa a 381886
b bed</w> 381831
Sp ace</w> 381725
pi ps</w> 381696
5 7</w> 381642
Swi ft</w> 381493
C ome 381399
pre ssing</w> 381391
:raised_ fist:</w> 381367
Favor ite</w> 381351
N ick</w> 381314
treat ment</w> 381281
an ge 381173
high est</w> 381088
cle an 381085
V ia</w> 381069
DV D</w> 380968
ha vent</w> 380868
i - 380773
Bre xit</w> 380763
sing er</w> 380732
ing ham</w> 380648
sha pe</w> 380626
fi xed</w> 380592
m r</w> 380555
di et</w> 380518
beg ins</w> 380442
c c</w> 380400
C o</w> 380355
a ha</w> 380265
in deed</w> 380257
ver t</w> 380159
c les</w> 380120
Ori g 380039
li ms</w> 379886
good bye</w> 379615
b b</w> 379558
Un der</w> 379467
coo king</w> 379448
s even</w> 379444
ser ving</w> 379368
y ea 379324
Gr an 378994
Some body</w> 378809
pa int</w> 378664
struc ture</w> 378422
h n</w> 378263
Y ep</w> 378170
plea sure</w> 378136
ra ft</w> 378117
out fit</w> 377938
int e 377824
any e</w> 377820
L O</w> 377763
Z ING</w> 377475
descri be</w> 377431
Awar ds 377202
fin ds</w> 376908
T C</w> 376876
appro pri 376712
ge t 376585
ca p</w> 376576
# Ma 376413
C am</w> 376375
pre sid 376311
pur chase</w> 376287
:fro wning_face:</w> 376141
: di 376140
y outh</w> 376105
e o 376087
hur ry</w> 376052
str ange</w> 376011
Fuc king</w> 376011
qu otes</w> 375981
Gu ide</w> 375969
b ags</w> 375942
who ever</w> 375931
L ow</w> 375834
8 th</w> 375808
Lo st</w> 375715
gre w</w> 375673
#o omf</w> 375601
um ber</w> 375554
individ ual</w> 375488
ex act</w> 375460
at h</w> 375455
IT 'S</w> 375330
k es 375244
No v</w> 375227
ick ets</w> 375133
danc ing:</w> 375128
econom ic</w> 375094
# l 375046
de termin 374823
att acks</w> 374729
hal f 374714
b ang</w> 374709
M I</w> 374691
guit ar</w> 374685
com pared</w> 374662
person ality</w> 374644
#W e 374513
crea tive</w> 374300
m eat</w> 374236
H it</w> 374173
mi x 374171
j ustin</w> 374170
sub ject</w> 374013
re vol 373990
pp le</w> 373848
requ ired</w> 373817
# Re 373641
Gi ft</w> 373628
J an</w> 373621
B and</w> 373587
ri s 373530
f are</w> 373417
M et 373402
/ 7</w> 373204
A K 373085
B ol 373033
ar gue</w> 372993
Tr ump 372892
B eat</w> 372739
B un 372651
hea ded</w> 372619
st an</w> 372612
camer a:</w> 372472
Ho tel</w> 372375
F ace</w> 372342
stron ger</w> 372253
1 50</w> 372249
T est</w> 372194
ly n</w> 372165
N G</w> 372137
and ora</w> 372132
6 3</w> 372065
butt on:</w> 372048
sur r 371957
compla ining</w> 371803
re ment</w> 371766
5 00 371761
ill in</w> 371758
f a</w> 371548
D J 371472
6 7</w> 371437
3 D</w> 371409
sp r 371178
cho se</w> 371151
ing e</w> 371138
di str 371088
PEO PLE</w> 371008
Comm unity</w> 371002
d in</w> 370934
d ney</w> 370690
gg y</w> 370624
char ged</w> 370601
E ag 370597
S hoo 370560
fuc ks</w> 370558
and ro 370492
dr ed</w> 370465
sto m</w> 370299
advant age</w> 370271
sm ent</w> 370222
dem and</w> 370156
9 - 370016
Col um 369953
s ear 369902
ch or 369865
OOOO OOOO 369796
Liter ally</w> 369759
k icked</w> 369721
sel fie</w> 369631
C HA 369619
ch ances</w> 369542
friend ship</w> 369438
f ic</w> 369381
pro jects</w> 369380
tra iler</w> 369289
ballo on:</w> 369260
resta urant</w> 369225
p in</w> 369167
Won der</w> 369163
sol di 369052
v l</w> 368937
n ick 368857
proper ty</w> 368845
b last</w> 368792
ti me 368740
was nt</w> 368719
t ual</w> 368698
fail ure</w> 368646
and ed</w> 368500
A ss</w> 368283
p ts</w> 368280
pre par 368129
List ening</w> 368129
con duc 368032
w ishes</w> 368001
conc ept</w> 367999
consi st 367982
Mich igan</w> 367857
u me</w> 367775
Brit ain</w> 367707
s ev 367664
hum ans</w> 367613
hy pe</w> 367592
A la 367578
yel low</w> 367466
ab or 367449
ec tor</w> 367343
T AL 367212
inv ited</w> 367201
ea ted</w> 367152
t all</w> 367056
presen ted</w> 367048
Ser vices</w> 366904
de grees</w> 366850
O k 366789
me tho 366687
re turned</w> 366680
us er</w> 366619
pati ent</w> 366439
m pics</w> 366407
fal se</w> 366381
p are</w> 366366
cent ral</w> 366359
bu ms</w> 366259
Ric hard</w> 366258
re moved</w> 366187
la ying</w> 366184
10 : 366173
fa ve</w> 365959
e ight</w> 365922
F our</w> 365901
t wit 365770
_face_with_ sweat:</w> 365663
cast _face_with_sweat:</w> 365663
:down cast_face_with_sweat:</w> 365663
le :</w> 365584
2 , 365564
boo ty</w> 365510
discus s</w> 365486
eng ine 365463
sea ts</w> 365421
wh is 365390
App arently</w> 365354
5 9</w> 365182
St at 365141
inno cent</w> 365126
M as 365025
benef its</w> 364891
thous and</w> 364854
C AR 364802
pan ic</w> 364704
ri ding</w> 364666
S W</w> 364637
ome ter</w> 364600
op tions</w> 364567
St ore</w> 364473
ea way</w> 364455
ther ap 364310
#Vo te 364183
9 2</w> 364156
we ir 364138
aa a</w> 364113
ans as</w> 364103
P D 364026
G alaxy</w> 364009
pa in 363974
mar t 363930
D ress</w> 363912
Po int</w> 363900
r ough</w> 363892
J ay</w> 363888
cle aning</w> 363729
uni verse</w> 363676
strea ming</w> 363559
C T</w> 363529
wat er 363432
dama ge</w> 363411
v oc 363335
h m</w> 363269
ha ting</w> 363250
ther ed</w> 363225
h ire</w> 363152
U L 363114
shar ed</w> 363084
Jer sey</w> 363012
ma ss</w> 363006
key s</w> 362935
vi li 362927
m f</w> 362867
# my 362799
cut est</w> 362687
T op 362603
laugh ed</w> 362581
hoc key</w> 362499
0. 00</w> 362468
9 6</w> 362418
g f</w> 362401
anc er</w> 362371
b its</w> 362302
B I 362300
ad verti 362200
ed er 362168
por ary</w> 362162
Di strict</w> 362098
i ght 361999
telev ision</w> 361993
h r</w> 361933
:angr y_face:</w> 361891
B ER</w> 361889
Hen ry</w> 361823
Fil m</w> 361799
En ter</w> 361752
plac ement</w> 361728
5 8</w> 361702
m s 361684
pri de</w> 361546
201 1</w> 361513
list ened</w> 361474
conf idence</w> 361424
Sing le</w> 361396
sho wn</w> 361333
red uc 361143
si gh</w> 361012
ag e:</w> 360937
it t</w> 360928
F ound</w> 360744
di o 360738
#A sk 360734
toil et</w> 360676
wel ry</w> 360553
b all:</w> 360538
h mm</w> 360526
ex ha 360520
cu ts</w> 360507
refu se</w> 360477
J ason</w> 360466
ti sh</w> 360343
AN S</w> 360220
i OS</w> 360191
leg end</w> 360176
#sho p 360071
# Mo 360048
Cla ssic</w> 359978
P ay 359884
G I 359629
du des</w> 359609
cor por 359589
L am 359568
ani me</w> 359441
F ive</w> 359390
gar den</w> 359349
sur es</w> 359165
ignor ant</w> 359159
9 7</w> 359139
min i</w> 359136
Scot land</w> 359107
: :</w> 359043
b acks</w> 359019
S ure</w> 359019
S UP 358913
oun ded 358875
g ang</w> 358808
y ay</w> 358777
gen der</w> 358711
Lea ve</w> 358709
p ted</w> 358562
fla g</w> 358458
ys m</w> 358363
inclu des</w> 358275
H E 358225
la ke</w> 358164
conn ect</w> 358151
la b</w> 358074
ju ice</w> 357979
reali se</w> 357945
Air port</w> 357901
coun t 357840
' RE</w> 357768
U r</w> 357752
S em 357695
oc ca 357482
re sc 357443
bur gh</w> 357434
citiz ens</w> 357306
fru str 357302
Gu ar 357286
ad dition</w> 357253
9 / 357237
Vir gin 357226
12 : 357122
remember ed</w> 357099
#M y 357072
enti ons</w> 356929
quest ion 356902
M TV</w> 356845
ar ly</w> 356801
z u 356725
prof it</w> 356692
je ans</w> 356692
ac c</w> 356664
T T</w> 356623
sel y</w> 356588
o k 356554
W estern</w> 356462
st ery</w> 356391
Nick i</w> 356344
z ero</w> 356113
E P</w> 355999
sh mark</w> 355950
direc tor</w> 355928
ing s 355893
br on</w> 355611
tr end</w> 355521
say in</w> 355431
g olf</w> 355247
the ory</w> 355084
gra ph</w> 355073
tri al</w> 355026
hea ding</w> 355009
E asy</w> 354939
ha lo 354851
200 3</w> 354736
ft :</w> 354642
_ arrow:</w> 354552
att oo 354548
Dani el</w> 354543
W N 354536
C ANT</w> 354514
in ch</w> 354380
li ft</w> 354261
W ayne</w> 354227
E con 354166
ath on</w> 354164
v o</w> 354154
EV EN</w> 354097
T U 354094
M US 354048
fun ding</w> 353994
#P ush 353945
G al 353928
conf ounded 353863
Republi cans</w> 353828
em an</w> 353811
: confounded 353806
:confounded _face:</w> 353806
ou ght 353787
Carol ina</w> 353602
Oly mp 353461
7 6</w> 353409
Tra vel</w> 353344
b age</w> 353282
ir a</w> 353219
M IS 353159
en ting</w> 353153
bud get</w> 353092
congr ats</w> 353075
on er</w> 353072
W ent</w> 353046
Win ter</w> 352824
c ities</w> 352810
t esting</w> 352795
.S .</w> 352566
N u 352557
In du 352485
candi date</w> 352455
mid night</w> 352447
Po shmark</w> 352436
i dol</w> 352387
dele ted</w> 352372
_b all:</w> 352366
Br and</w> 352283
A ssi 352282
Le ft</w> 352279
sol ve</w> 352252
th reat</w> 352190
concer ned</w> 352077
destro y</w> 352048
conn ection</w> 351971
man age</w> 351964
: ro 351936
AL WAYS</w> 351860
cor n</w> 351836
o p</w> 351650
l ane</w> 351631
IL Y</w> 351615
for give</w> 351515
s lightly</w> 351458
ma p</w> 351239
: woman_ 351229
:woman_ dancing:</w> 351229
W is 351184
Rem ix</w> 351143
I l 351026
hu n</w> 350972
survi ve</w> 350923
bloo dy</w> 350743
F G</w> 350704
year- old</w> 350697
Sen ior</w> 350664
EC T</w> 350579
m u</w> 350529
out out</w> 350492
co vers</w> 350407
foo t 350384
cy cle</w> 350218
oppo site</w> 350168
ac le</w> 350120
Mad rid</w> 350100
G REA 349964
k ins</w> 349906
aw ards</w> 349863
dis covered</w> 349804
motiv ation</w> 349725
z zy</w> 349654
develo ped</w> 349628
J un 349486
D e</w> 349460
w ra 349442
th - 349396
Just ice</w> 349374
kem on</w> 349313
ll a</w> 349295
ant i</w> 349104
eng lish</w> 349051
# in 348962
St yle</w> 348942
6 1</w> 348939
quar ter</w> 348903
B LO 348881
estab lished</w> 348857
A th 348795
m atic</w> 348735
har dest</w> 348618
w rest 348520
em mings</w> 348424
p rom</w> 348252
D one</w> 348198
fea tured</w> 348108
deli very</w> 348102
l un 348071
u re 348047
emo tions</w> 347969
con struction</w> 347960
Atl anta</w> 347889
G S</w> 347756
C ustom 347700
sec ure</w> 347582
Christ ma 347466
bl onde</w> 347464
I ce</w> 347389
x i 347366
L mfao</w> 347340
Chall enge</w> 347303
Li st</w> 347239
cancel led</w> 347235
ick er</w> 347126
W AR 347033
el ev 346912
re place</w> 346843
a partment</w> 346748
ro om 346747
partic ular</w> 346602
AN Y 346595
tr acks</w> 346574
b in 346541
car eful</w> 346538
v s 346475
conv inc 346461
p lo 346433
with out 346308
Y et</w> 346307
S ER 346250
Sp ir 346180
6 8</w> 346131
F I 346108
Res earch</w> 346043
crea ting</w> 345975
4 / 345811
u g</w> 345763
T X</w> 345763
shoul der</w> 345570
t le</w> 345562
hh hh 345493
appo int 345409
S ab 345313
Direc tor</w> 345294
Win dows</w> 345189
Ta king</w> 345115
rec ru 345050
B all</w> 345033
ear n</w> 345011
R un 344938
un cle</w> 344898
dit ion 344789
O P 344763
:thumbs_ down:</w> 344696
Orig inal</w> 344579
K it</w> 344536
B T</w> 344484
Fr ank</w> 344481
Br o</w> 344475
mater ial</w> 344451
b at</w> 344409
tr ick</w> 344384
T han</w> 344354
bea ting</w> 344315
att end</w> 344197
EA N</w> 344039
b ite</w> 344006
dec or 343905
anno yed</w> 343894
off ered</w> 343862
lu v</w> 343701
mom ma</w> 343670
go vt</w> 343633
our selves</w> 343569
inj ury</w> 343492
3 60</w> 343434
to pic</w> 343272
D an</w> 343191
sea sons</w> 343079
GO ING</w> 343036
O ' 342864
m ile</w> 342848
qu e 342813
chec king</w> 342804
v ey</w> 342802
T ig 342762
Hal f</w> 342726
P ut 342724
WO W</w> 342682
R D</w> 342670
who m</w> 342650
j ack</w> 342601
k it</w> 342567
Manag ement</w> 342554
stri ke</w> 342281
il y 342252
aw a</w> 342229
en sion</w> 342056
D or 342050
j am</w> 342018
E mer 341930
gu est</w> 341840
cast le</w> 341832
mi xed</w> 341779
M aga 341755
ru ined</w> 341679
r r</w> 341626
A G 341532
li king</w> 341516
nu ts</w> 341488
HO T</w> 341423
S end</w> 341234
it ty</w> 341153
CA USE</w> 341115
7 8</w> 341080
up coming</w> 340961
Educ ation</w> 340946
Ha w 340891
coo kies</w> 340843
for d 340772
pra yers</w> 340768
oooo oo</w> 340759
AT S</w> 340667
L ink</w> 340622
up dated</w> 340605
9 1</w> 340573
vol unte 340478
my closet</w> 340414
sy stems</w> 340408
ene my</w> 340371
US T 340347
See ms</w> 340334
#shop mycloset</w> 340234
ch o</w> 340021
st oc 340010
double _ 339927
0 1 339879
O s 339813
some time</w> 339802
KKKKKKKK KKKKKKKK 339772
: double_ 339744
anx iety</w> 339679
can c 339668
S wed 339652
loy al</w> 339646
FU L</w> 339536
auth or</w> 339469
pe e</w> 339370
bad ly</w> 339249
Or gan 339036
ec ast</w> 339035
Ca tho 339023
tech n 339010
m ans</w> 339007
ul es</w> 338935
guar ant 338857
st ics</w> 338855
o z</w> 338816
cap ital</w> 338615
Co de</w> 338612
sk y 338567
de licious</w> 338504
:double_ exclamation_mark:</w> 338422
#vo te 338413
ud es</w> 338383
thous ands</w> 338367
R ay</w> 338314
E aster</w> 338189
it ems</w> 338070
E gy 337909
creep y</w> 337858
11 . 337850
Bo ard</w> 337798
sur gery</w> 337752
ar m 337669
clu e</w> 337642
Mar i 337636
N ur 337594
d as</w> 337568
12 . 337474
B out</w> 337342
cover ing</w> 337333
ef s</w> 337327
_ button:</w> 337306
el led</w> 337300
v irus</w> 337296
it ment</w> 337266
:smiling_face_with_ halo 337143
:smiling_face_with_halo :</w> 337143
con clu 337104
King dom</w> 337079
Roo m</w> 337002
Com ple 336980
f all 336965
N AS 336876
# Co 336750
GU YS</w> 336736
C C 336644
el i</w> 336632
religi ous</w> 336587
S mo 336454
G or 336446
rec k 336377
s or</w> 336203
Ex actly</w> 336104
gi ant</w> 336058
Fa ir</w> 335949
si e</w> 335895
S H</w> 335799
pi e</w> 335794
ton gue</w> 335788
col ors</w> 335788
c lou 335737
Cha mpionship</w> 335597
benef it</w> 335554
Sy ria</w> 335538
cou ch</w> 335510
proper ly</w> 335484
L or 335432
P lat 335309
p itch</w> 335281
AMA ZING</w> 335214
th reat 335202
tour nament</w> 335160
w is</w> 335158
Phi lipp 335074
Tur n</w> 335063
De partment</w> 335035
Rec or 334994
Geor gia</w> 334984
c ell</w> 334925
G H 334902
il ysm</w> 334884
flow ers</w> 334835
S af 334822
HA TE</w> 334768
f as 334748
N ING</w> 334696
l ls</w> 334623
:backhand_index_pointing_ right:</w> 334559
ID E</w> 334463
y ah</w> 334439
5SO S</w> 334392
bu ll</w> 334363
A k 334353
lo ver</w> 334331
#Push Awards 334319
z i 334277
lo lol</w> 334200
ta xes</w> 334166
no vel</w> 334147
m un 334106
G H</w> 334076
exp ecting</w> 334057
: wav 334055
I ra 334011
mar ks</w> 333932
agre ed</w> 333930
D est 333787
8 9</w> 333772
R ound</w> 333716
f ted</w> 333695
fru it</w> 333560
po dcast</w> 333526
w estern</w> 333506
A F</w> 333345
d om 333329
# game 333198
10 1</w> 333176
d in 333138
n it 332956
gre ssive</w> 332849
I II</w> 332718
EVER YONE</w> 332683
ic on</w> 332678
supp orters</w> 332560
D ream</w> 332552
t ful</w> 332527
c y</w> 332501
present ation</w> 332440
UR E</w> 332424
7 1</w> 332400
M ach 332333
:slightly_ smiling_face:</w> 332248
Con ference</w> 332146
es ia</w> 332084
S leep</w> 331994
mic ro 331911
ff le</w> 331909
W ere</w> 331825
appro ach</w> 331769
#F ollo 331717
m b</w> 331663
in dependent</w> 331661
Ch ee 331643
end ers</w> 331631
rr rr 331585
Li ving</w> 331454
Mag ic</w> 331437
menti ons</w> 331393
Virgin ia</w> 331275
bo ar 331244
b on</w> 331179
Gol den</w> 331131
scre en 331049
U .S.</w> 331044
OU S</w> 331041
cu m</w> 330899
al o</w> 330743
k k</w> 330483
per haps</w> 330364
LO T</w> 330356
C ul 330331
pic king</w> 330307
princ ess</w> 330126
K ha 330067
C ab 330050
Ar ch 330046
9 3</w> 330002
AN G 329994
O re 329894
F ea 329887
A l</w> 329820
Lea ther</w> 329815
Sar ah</w> 329790
scen es</w> 329712
su g 329630
ed ition</w> 329591
9 4</w> 329465
elec tions</w> 329359
crimin al</w> 329322
cu rious</w> 329318
any time</w> 329311
sk i 329298
brea the</w> 329280
p ages</w> 329275
Pea ce</w> 329262
app s</w> 329255
ti fy</w> 329252
For ever</w> 329186
m me</w> 329185
c entre</w> 329177
Con n 329144
ol d 329117
in ely</w> 329071
si x 329021
ag :</w> 328840
um in 328742
psy cho 328502
bi o 328495
hun dred</w> 328453
im pl 328363
In to</w> 328359
influ ence</w> 328333
BO DY</w> 328281
f at 328247
6 0 328213
Al bum</w> 328165
O li 328163
z y 328071
no where</w> 328045
perfec tly</w> 327939
O pp 327916
ev ol 327898
appear ance</w> 327830
200 1</w> 327771
Fe b</w> 327748
il ers</w> 327688
F BI</w> 327670
An drew</w> 327651
sc ream</w> 327560
Ch ang 327433
un i</w> 327358
7 3</w> 327312
bir ds</w> 327266
Wat er 327261
min ds</w> 327200
sc ale</w> 327057
d aw 327055
e se</w> 326968
Re uters</w> 326940
v ag 326921
A li 326847
fac tor</w> 326751
ll ll 326751
TH ERE</w> 326738
p s 326674
ech an 326625
sa ke</w> 326599
Col or 326582
M illion</w> 326553
S mart</w> 326528
ma x</w> 326495
maga zine</w> 326489
R id 326469
F ro 326442
liam ent</w> 326321
sm an</w> 326314
on ing</w> 326246
ed :</w> 326091
go sh</w> 326081
qu est</w> 326030
gu es</w> 326020
:wav ing_hand:</w> 326020
man ufac 325938
ra p 325930
:di zz 325830
mm mm</w> 325814
at ically</w> 325788
Bit ches</w> 325767
Sa w</w> 325700
Un til</w> 325592
al arm</w> 325315
ep ic</w> 325312
list ed</w> 325157
Gr and 325133
perform ing</w> 325123
ic h 325115
Pl an</w> 325095
C ir 324917
t ation</w> 324810
s no 324757
Do ing</w> 324726
M C</w> 324640
Rea ding</w> 324601
g oogle</w> 324587
recor ding</w> 324452
Fa st</w> 324421
foo tb 324324
ou l</w> 324252
Sc re 324250
Nav y</w> 324208
Ear ly</w> 324114
U M</w> 324097
m id</w> 324052
D y 324041
PL S</w> 324016
signific ant</w> 324003
ur o</w> 323961
W o</w> 323928
r out 323776
t umblr</w> 323760
m essed</w> 323755
NO :</w> 323693
:person_gesturing_ NO:</w> 323693
cro ss 323562
gradu ate</w> 323551
Ber nie</w> 323504
ti s 323493
pas sion</w> 323373
sad _ 323358
acc identally</w> 323313
Victor ia</w> 323309
8 0 323307
sli de</w> 323297
les bian</w> 323287
7 9</w> 323074
trans fer</w> 323044
l ear</w> 322939
but _ 322864
# News</w> 322821
o w 322745
ex ams</w> 322603
sad_ but_ 322596
: sad_but_ 322589
reli eved_face:</w> 322589
:sad_but_ relieved_face:</w> 322589
sh er</w> 322533
our ce</w> 322528
S ED</w> 322441
or n</w> 322395
al i</w> 322365
#MTV Stars</w> 322359
J P</w> 322289
dro ps</w> 322098
hur ting</w> 322017
Asi a</w> 321977
produc tive</w> 321916
a z</w> 321900
po ss 321865
200 2</w> 321796
l ang</w> 321759
sil ver</w> 321749
Med ical</w> 321696
le f 321617
O L</w> 321594
R emo 321579
c unt</w> 321572
Ca st 321537
H il 321530
D AM 321488
ha h 321465
a ud 321342
Ho t 321260
gi fts</w> 321243
dis ease</w> 321225
L vl</w> 321183
f ed</w> 321106
- time</w> 321105
re move</w> 321068
bo x 320974
t emp 320973
Th ea 320965
follow er</w> 320846
C re 320773
F an</w> 320638
HAHA HA</w> 320629
Nor th 320540
v or</w> 320328
con t</w> 320313
eye bro 320178
inj ured</w> 320060
v is</w> 320001
R ap 319985
ff y</w> 319959
f antasy</w> 319957
il st</w> 319935
co sts</w> 319932
A A</w> 319922
Hum an</w> 319899
P et 319797
Absol utely</w> 319765
_b ag:</w> 319741
for ts</w> 319736
L ING</w> 319701
id c</w> 319570
ri er</w> 319544
Wed ding</w> 319528
cu tting</w> 319478
bul ous</w> 319435
ho pes</w> 319431
l ds</w> 319362
an niversary</w> 319335
S w 319252
Defin itely</w> 319217
D on</w> 319199
g on 319159
W an 319112
it ors</w> 318908
:money _bag:</w> 318786
E l</w> 318771
pri se</w> 318730
inte gr 318619
AS AP</w> 318576
embarra ssing</w> 318467
h ouses</w> 318424
T D</w> 318310
l i</w> 318304
N ope</w> 318231
accep ted</w> 318214
sp ort 318213
What ever</w> 318174
ee m</w> 318114
AL E</w> 318054
ac ity</w> 317986
in der</w> 317921
dro pping</w> 317762
victi ms</w> 317694
A ga 317679
pri mary</w> 317643
Oc t</w> 317620
U FC</w> 317532
De c</w> 317507
d j 317481
H L</w> 317475
F EE 317450
sk inny</w> 317261
S imp 317253
co ck 317177
R en 317154
H ay 317092
P HO 317058
conn ected</w> 317023
C S</w> 317018
sof tware</w> 316978
o omf</w> 316940
organ ization</w> 316899
For mer</w> 316827
pro bs</w> 316808
an aly 316738
bal ance</w> 316736
ING S</w> 316709
H I</w> 316672
Z ayn</w> 316662
Tra ining</w> 316586
Dem i</w> 316484
Ri hanna</w> 316373
ir y</w> 316355
au to 316283
u x</w> 316235
ad vis 316233
compe tit 316189
rea c 316147
Mid dle</w> 316102
D ems</w> 316076
sto le</w> 316076
Jo sh</w> 316022
cover age</w> 316005
audi ence</w> 315983
l it 315969
O il</w> 315899
# AL 315856
tiv ely</w> 315844
i fied</w> 315803
f estival</w> 315770
Mex ican</w> 315769
holi days</w> 315749
L in 315663
co p</w> 315549
C red 315461
f w</w> 315371
comp lic 315296
Oly mpics</w> 315296
Vi ew</w> 315277
B B</w> 315267
promo te</w> 315191
L U 315183
uc lear</w> 315165
sent ence</w> 315120
po cket</w> 315114
opin ions</w> 315109
ann ual</w> 315101
jo ining</w> 315091
Star ting</w> 315081
v ention</w> 315068
A R</w> 315048
rela x</w> 314970
es say</w> 314914
S car 314838
yy yy</w> 314764
Cur r 314754
clim ate</w> 314718
L ma 314678
:- (</w> 314643
con ven 314601
per cent</w> 314581
st ab 314462
offic ials</w> 314437
fun c 314359
Or ange</w> 314229
G ON 314222
G rea 314123
E E</w> 313927
mus ical</w> 313909
Po p</w> 313901
funni est</w> 313880
Maga zine</w> 313715
discus sion</w> 313689
dep ends</w> 313671
7 4</w> 313638
Bar ometer</w> 313566
k en 313548
spec tive</w> 313479
Cam er 313459
b ag 313404
rema ins</w> 313382
8 4</w> 313367
as ha 313360
cre di 313246
8 6</w> 313182
stor es</w> 313083
Exc ited</w> 313074
En ergy</w> 313071
S ean</w> 313012
wor e</w> 312983
ha ted</w> 312967
crit ical</w> 312897
D R 312888
Ad d</w> 312700
8 7</w> 312683
Da ve</w> 312648
ch et</w> 312579
z e 312565
Valent ine</w> 312523
E M</w> 312510
spo ke</w> 312467
a b</w> 312420
H eat</w> 312392
Y ay</w> 312333
SH I 312290
apologi ze</w> 312260
5 / 312226
t ally</w> 312223
hat ers</w> 312187
th ony</w> 312134
Lab our</w> 312112
# 9 312048
t its</w> 312032
ec raft</w> 312027
p en</w> 311853
lo be 311837
s wit 311836
S ony</w> 311793
# r 311742
RO W</w> 311545
T ON 311539
ri an</w> 311526
sla p</w> 311521
Franc isco</w> 311262
ro oms</w> 311145
oc cup 311096
frea k</w> 311086
V en 311082
# Sh 311070
Ma ster</w> 311062
ex press</w> 310986
Sex y</w> 310941
# v 310913
ro se</w> 310883
- F 310849
t ests</w> 310789
I ll 310681
Star bucks</w> 310502
ec tions</w> 310477
Beli eve</w> 310461
um ents</w> 310452
ri p</w> 310417
al ists</w> 310238
boo ts</w> 310107
enc ies</w> 310105
ri ots</w> 310058
t end</w> 310053
# re 310040
K anye</w> 309908
r ush</w> 309870
en ger</w> 309787
en try</w> 309744
A GAIN</w> 309680
an - 309656
emer gency</w> 309634
iv eaway</w> 309627
# Job</w> 309560
Lo t</w> 309549
be e</w> 309544
promis ed</w> 309533
a o</w> 309464
P L</w> 309447
co ast</w> 309391
Bri an</w> 309348
L D 309330
C OR 309278
So on</w> 309217
Co ach</w> 309216
wor ker</w> 309201
kl ace</w> 309135
k ings</w> 309015
d ale</w> 308922
St and 308905
dri vers</w> 308875
Ju li 308829
wor thy</w> 308809
Con cer 308807
un ts</w> 308704
cop s</w> 308649
J r</w> 308642
R ing</w> 308612
om fg</w> 308607
D ru 308579
kk kk 308570
t ear</w> 308418
S hel 308344
i z</w> 308155
b id</w> 308106
come dy</w> 308080
pas ses</w> 308059
prec ious</w> 308014
ter n</w> 308012
g ross</w> 308010
op ens</w> 307989
M Y 307973
r ice</w> 307955
car ing</w> 307936
bab y 307927
recor ds</w> 307882
ss a</w> 307820
offic er</w> 307673
vo ters</w> 307554
b ts</w> 307499
S ky</w> 307476
ti er</w> 307470
rea ds</w> 307365
Maj or</w> 307347
L ind 307296
er s 307277
appreci ated</w> 307268
rac ism</w> 307249
# Mar 307240
def end</w> 307229
m are</w> 307081
Sh ort</w> 307056
vil e 307049
cudd le</w> 307024
Ari ana</w> 306999
A U 306978
dem ocr 306973
:face_with_ tongue:</w> 306912
fli p</w> 306904
Brea king</w> 306890
Wor d</w> 306780
regar ding</w> 306565
V il 306554
Pri me</w> 306516
pe tition</w> 306495
no ise</w> 306458
mon y</w> 306389
s om 306382
me tal</w> 306327
g all 306214
n ut</w> 306194
stre ssed</w> 306144
ri ors</w> 306136
Y all</w> 306090
W all 306017
Ba g</w> 306017
E s 305852
li qu 305783
mat ches</w> 305764
be sides</w> 305763
e gg</w> 305735
Fri end</w> 305732
REA M</w> 305710
#G et 305675
su b</w> 305647
M en 305615
m ally</w> 305583
8 2</w> 305556
VO TE</w> 305531
T US</w> 305508
C at</w> 305497
T ab 305455
victi m</w> 305339
a i 305305
E ric</w> 305284
ann er</w> 305276
shar es</w> 305217
T ha 305101
stri bu 305027
sug gest</w> 304959
l ation</w> 304923
fun ction</w> 304890
H old</w> 304873
t ool</w> 304820
tra ding</w> 304802
su icide</w> 304716
a hh</w> 304609
pur cha 304554
M s</w> 304519
s u</w> 304516
Br on 304516
K ey</w> 304499
# 5 304484
kne e</w> 304412
Heal th 304338
th ick</w> 304290
B ak 304288
b al</w> 304176
bat tery</w> 304102
S at</w> 304079
B ay 303903
D IS 303861
Tru th</w> 303848
ack er</w> 303811
re placed</w> 303793
na il</w> 303738
#B est 303643
fre qu 303577
investig ation</w> 303448
Sa id</w> 303325
s ss</w> 303310
N atural</w> 303283
8 1</w> 303203
T IC 303136
y ep</w> 303032
HH HH 303016
# ma 303008
8 3</w> 303005
St y 302994
Par t 302975
employ ees</w> 302913
W ays</w> 302902
Loc al</w> 302895
fig ured</w> 302814
K end 302767
Jo se 302572
P I 302527
gra des</w> 302501
ate g 302490
s ound 302401
gr and</w> 302395
soc ks</w> 302298
M C 302138
strate gy</w> 302113
We b</w> 302107
rea son 302067
F ol 302056
Republi c</w> 302056
v ity</w> 302021
Tech nology</w> 302001
r us</w> 301966
pra ying</w> 301953
su rely</w> 301934
sil ence</w> 301897
a while</w> 301884
Inst ead</w> 301864
h iding</w> 301693
activ ity</w> 301494
claim ed</w> 301381
play offs</w> 301374
# Ch 301273
con ditions</w> 301223
jack et</w> 301139
mod els</w> 301111
H ind 301106
eff ective</w> 301079
dev il</w> 301044
hom es</w> 300980
Aca demy</w> 300856
activ ities</w> 300825
col our</w> 300676
a se</w> 300650
Photo set</w> 300647
busin esses</w> 300599
pu shing</w> 300597
R unning</w> 300580
the y 300446
E ach</w> 300445
ch eat</w> 300424
M rs</w> 300406
st ops</w> 300309
An i 300285
K han</w> 300237
Res p 300170
B ell</w> 300152
H mm</w> 300111
Tal king</w> 300088
remin der</w> 300033
W IN</w> 300006
gre ssi 299984
star ing</w> 299980
C offee</w> 299955
li ar</w> 299873
coun ty</w> 299839
foc used</w> 299787
rea ching</w> 299758
ang le</w> 299736
bl essing</w> 299715
pres ence</w> 299663
appropri ate</w> 299653
a e</w> 299618
T une</w> 299616
la id</w> 299608
M S 299604
C le 299479
b ills</w> 299477
cho ices</w> 299475
F IF 299465
No te</w> 299186
um a</w> 299158
Av ailable</w> 299136
B is 299114
es cape</w> 299090
C li 299066
come back</w> 299021
Wal king</w> 299009
J on 298943
p ly</w> 298700
GREA T</w> 298660
See ing</w> 298571
ma ker</w> 298548
be th</w> 298475
VER Y</w> 298422
mo ther 298400
and on</w> 298322
Co ast</w> 298320
K ir 298315
W ood 298306
An dy</w> 298289
sun day</w> 298237
exp ect 298184
xx xx</w> 298131
b att 298072
act ors</w> 298044
fan dom</w> 298010
b u</w> 297947
bee f</w> 297779
U sing</w> 297733
v et</w> 297683
24 /7</w> 297668
fir m</w> 297654
li on</w> 297601
Sea ttle</w> 297589
etro it</w> 297570
see k</w> 297507
i Tunes</w> 297485
so le</w> 297204
B ut 297189
deser ved</w> 297134
sk a</w> 297029
sh ee 297009
ti ed</w> 296765
Chil d</w> 296722
# co 296711
Wh e 296659
IT ED</w> 296628
Doc tor</w> 296525
e ggs</w> 296513
tt t</w> 296494
dec lar 296484
L em 296404
u :</w> 296373
:regional_indicator_symbol_letter_ u:</w> 296373
ph ra 296339
I ve</w> 296314
l ing 296303
h y</w> 296294
St ories</w> 296284
f ederal</w> 296263
w ei 296018
destro yed</w> 295951
St one</w> 295857
Tur key</w> 295828
to x 295733
provid ed</w> 295638
shi pping</w> 295588
Brea k 295568
con nec 295558
idi ots</w> 295550
dis play</w> 295529
F ur 295370
UP D 295361
t u</w> 295332
bur ger</w> 295289
t one</w> 295259
pati ents</w> 295155
grea ter</w> 295112
S ea</w> 295080
em br 295029
oun der</w> 294993
DO WN</w> 294866
cat _face:</w> 294819
en g</w> 294797
ri bb 294758
s j 294756
oo ps</w> 294710
F if 294537
B est 294528
tre es</w> 294500
Mo del</w> 294340
Cor por 294230
m oun 294218
f ounded</w> 294153
ra ining</w> 294102
W ol 294044
Th ough</w> 293925
An aly 293813
announ ce</w> 293806
cha mpionship</w> 293791
Co lor</w> 293688
t ack 293644
U sed</w> 293580
lo sop 293578
Follo wers</w> 293565
Je ff</w> 293512
ir rit 293409
Ac tion</w> 293396
uni versity</w> 293330
E vent</w> 293144
l bs</w> 293108
Gre y</w> 293038
b one</w> 292960
Week end</w> 292958
Su preme</w> 292904
et :</w> 292879
Char lie</w> 292750
OF F 292663
A y 292646
an al</w> 292626
h Pa</w> 292625
Wil d</w> 292570
il ling</w> 292495
t attoo 292477
# 7 292434
Aw w</w> 292373
dedic ated</w> 292373
T ak 292334
hand some</w> 292334
c ope</w> 292293
wa sted</w> 292275
W I 292242
s ore</w> 292087
BL ACK</w> 292084
ar on</w> 292083
Ro ss</w> 292054
over all</w> 292034
Brea k</w> 291930
pu ppy</w> 291889
un it</w> 291877
th us</w> 291812
s lo 291804
L es 291746
b ou 291700
er r 291672
um b</w> 291604
and al</w> 291560
Thr ough</w> 291506
encou ra 291502
GON NA</w> 291492
environ ment</w> 291423
l mfa 291332
lin ks</w> 291268
N IG 291267
it ute</w> 291180
hu gs</w> 291100
qu o 291012
bur ning</w> 291012
St and</w> 290995
k iller</w> 290912
Bi ble</w> 290911
P ay</w> 290901
du ty</w> 290899
d an</w> 290865
W R 290849
ha r</w> 290774
Steph en</w> 290712
re turns</w> 290529
um ps</w> 290423
ad ding</w> 290411
sh or 290376
il lu 290341
chi ps</w> 290311
wor ries</w> 290225
B ad 290205
HEL P</w> 290152
separ ate</w> 290145
g al</w> 290037
od d</w> 289975
Mic hel 289910
b ic</w> 289890
accep table</w> 289871
b ling</w> 289820
2 1st</w> 289736
Mus lims</w> 289666
ba st 289584
Mor gan</w> 289534
bar s</w> 289523
F ight</w> 289503
ro c 289489
s_ tree:</w> 289451
Min i</w> 289412
less ons</w> 289394
re ference</w> 289365
de bt</w> 289352
bo dies</w> 289349
t ons</w> 289197
OO O</w> 289197
wn :</w> 289184
Y A</w> 289179
:regional_indicator_symbol_letter_ s:</w> 289151
EVERY THING</w> 289129
F ans</w> 289052
C ut</w> 289033
e k 288982
WH ERE</w> 288961
de pressed</w> 288893
A ge</w> 288888
rais ing</w> 288853
admini stration</w> 288808
liber al</w> 288690
h iring</w> 288648
sp lit</w> 288646
gener ally</w> 288548
re less</w> 288542
S ide</w> 288499
u es</w> 288491
regar dless</w> 288460
scho ol 288390
D D</w> 288360
al bums</w> 288352
:cro wn:</w> 288321
HA S</w> 288273
r ates</w> 288212
D ouble</w> 288036
cat ching</w> 288032
fol k</w> 288008
ea land</w> 288000
p t 287990
R ick</w> 287983
Des ig 287940
conv o</w> 287931
T oo 287885
al - 287857
g ee 287745
exerc ise</w> 287716
F t</w> 287700
WA IT</w> 287685
Soc iety</w> 287665
# for 287660
essi on 287629
coun ter</w> 287587
di stribu 287549
dro plet 287453
y land</w> 287437
f ancy</w> 287432
L ate</w> 287388
fea turing</w> 287377
id en</w> 287363
fun ds</w> 287263
Ph il 287225
S on</w> 287213
Pe op 287132
AC K 286833
mu g 286741
scor es</w> 286737
A H</w> 286725
pack age</w> 286680
M ine</w> 286645
m ol 286629
Di amond</w> 286624
ss ss</w> 286543
br an 286408
spea ks</w> 286400
end ant</w> 286321
Ex peri 286241
in :</w> 286239
da shi 286230
m r 286226
2 50</w> 286215
# MA 286173
wh ilst</w> 286163
Ann oun 286038
B om 286034
produc e</w> 286031
sa uce</w> 286029
M r 286018
der son</w> 285974
pre pare</w> 285971
adv ance</w> 285970
Vo ice</w> 285955
achi eve</w> 285870
Po or</w> 285805
prof essor</w> 285801
t ank</w> 285771
M ad</w> 285743
T rea 285709
S J 285708
po int 285679
T re 285629
pro b</w> 285570
hel p 285556
il ey</w> 285469
lin e 285437
X x</w> 285416
vers al</w> 285386
go ti 285316
W EE 285251
imag es</w> 285245
leaf _ 285222
Jim my</w> 285141
N D 285116
S earch</w> 285068
lu ke</w> 284973
Pr oud</w> 284969
accur ate</w> 284956
oc ean</w> 284893
h s</w> 284879
se c</w> 284862
9 th</w> 284840
10 / 284840
sugg est 284741
Isla m</w> 284726
W A</w> 284661
Associ ation</w> 284612
S ad 284578
ES PN</w> 284570
# not 284542
clu bs</w> 284539
c ling</w> 284530
N IGHT</w> 284465
exist ence</w> 284459
I o 284434
lev eland</w> 284399
en ni 284391
Har d 284376
Le wis</w> 284358
P un 284350
M ol 284345
ist ic</w> 284318
colli si 284310
d umb 284210
believ ed</w> 284182
: collisi 284029
C hat</w> 284029
:collisi on:</w> 284029
C O</w> 284022
mm ed</w> 284007
des k</w> 283967
roll er</w> 283936
Holi day</w> 283873
bu tter</w> 283753
il es</w> 283737
pre vent</w> 283733
head ache</w> 283707
origin ally</w> 283686
bas is</w> 283643
rol ls</w> 283569
An thony</w> 283522
C entre</w> 283472
z o</w> 283420
ro ads</w> 283306
H our</w> 283273
20 th</w> 283273
kis ses</w> 283265
c en 283254
P U 283186
S AY</w> 283159
al leg 283077
dun no</w> 283057
Re li 283007
Wor ds</w> 282924
progra ms</w> 282914
four th</w> 282866
D ur 282831
me ga</w> 282721
s is 282708
be g</w> 282678
min im 282676
H H</w> 282660
3 2 282626
X T</w> 282559
on _face:</w> 282551
no tific 282535
Sto ck</w> 282531
Al right</w> 282470
suppor ted</w> 282456
N ar 282371
pro lly</w> 282328
opport unities</w> 282292
sil ent</w> 282201
De li 282200
f lower</w> 282192
N at 282153
bel ong</w> 282149
Rel ease</w> 282148
equ al</w> 282127
re l</w> 282023
dea ling</w> 281988
fu ll 281983
ch eating</w> 281965
Contro l</w> 281931
EVER Y</w> 281865
contro l 281855
w k 281848
Sy dney</w> 281703
lab ama</w> 281594
celebr ating</w> 281552
com fort</w> 281529
Mu eller</w> 281485
B EEN</w> 281482
# team 281452
lo l 281449
ef forts</w> 281443
r ar 281420
b ol 281381
clo sing</w> 281356
pa inting</w> 281305
supp ly</w> 281284
sp am</w> 281274
1 20</w> 281250
Sim ple</w> 281172
f ying</w> 281126
swi mming</w> 280998
K n 280831
sk ip</w> 280810
C AL 280736
sp it 280721
Tra iler</w> 280681
( 8</w> 280589
Sou thern</w> 280577
v ine</w> 280507
char ges</w> 280493
hor ror</w> 280355
autom atically</w> 280307
Con serv 280304
defin ition</w> 280249
war ning</w> 280195
Ex ec 280145
ther ing</w> 280143
p her</w> 280126
P age</w> 280057
Hear t 279991
suffer ing</w> 279970
Mul ti 279902
jer sey</w> 279821
B LE</w> 279816
Di ego</w> 279786
kee per</w> 279741
off ense</w> 279703
G reek</w> 279658
p l</w> 279654
C lear 279593
mon day</w> 279481
ru b</w> 279471
Ty ler</w> 279442
di vision</w> 279425
Mc Donald</w> 279381
Follo wing</w> 279353
M IL 279336
gar bage</w> 279249
M ass 279179
Pl ace</w> 279166
c lic 279161
ac ti 279005
us eless</w> 278996
lu m</w> 278943
char ity</w> 278904
stand ards</w> 278896
Gar den</w> 278887
th ly</w> 278875
polit icians</w> 278737
w ing 278638
Inter esting</w> 278578
Bey once</w> 278525
behavi or</w> 278520
Pre sid 278490
C in 278479
w rec 278393
bl ed</w> 278380
own ers</w> 278378
Put in</w> 278350
pro test</w> 278337
H ome 278233
ri sing</w> 278204
happ ier</w> 278114
C B 278106
ch an 278105
M O</w> 278080
Mon th</w> 278030
ra d 278004
la d</w> 277928
A way</w> 277901
d n 277763
cro ssed</w> 277731
um n</w> 277620
out a</w> 277557
Mat the 277468
A - 277305
Buil ding</w> 277122
c ig 277021
D ES 276929
n na</w> 276919
fem in 276916
bi as</w> 276911
gen ius</w> 276906
ack ers</w> 276872
appo inted</w> 276871
# love 276845
doc tors</w> 276840
Develo pment</w> 276837
for gotten</w> 276769
s ab 276757
bu g</w> 276739
M iller</w> 276685
k :</w> 276574
AB C</w> 276518
blow ing</w> 276506
ul ed</w> 276432
D a</w> 276373
G ets</w> 276039
Di vision</w> 276037
AN Y</w> 276018
:g lobe 275956
cli p</w> 275906
O l 275881
pic ks</w> 275870
: head 275756
:head phone:</w> 275756
ban ned</w> 275712
Prem ier</w> 275709
AT I 275652
ap ore</w> 275647
v an 275607
un ited</w> 275597
child hood</w> 275595
E ither</w> 275570
Pla yer</w> 275568
ag ent</w> 275468
mon ster</w> 275467
ar ent</w> 275439
repor ting</w> 275387
e . 275345
cou ld 275266
R us 275199
off ering</w> 275063
experi enced</w> 275035
In don 274986
dis agree</w> 274945
pri ze</w> 274896
unic ip 274792
BAB Y</w> 274785
C ross</w> 274728
ff ed</w> 274688
x ury</w> 274626
as sign 274607
pri vile 274561
Bro ad 274540
: 15</w> 274535
Mo di</w> 274518
e qui 274461
T hat 274323
IS IS</w> 274315
sm ar 274278
j e</w> 274253
Catho lic</w> 274214
FIR ST</w> 274207
ar ily</w> 274176
D ist 274169
e try</w> 274103
p ick 274086
tex ted</w> 274051
Un less</w> 274005
ee ded</w> 273995
A V 273981
k ra 273936
le tters</w> 273918
pur ple</w> 273734
perform ed</w> 273646
199 9</w> 273642
D etroit</w> 273609
pa pers</w> 273567
K ey 273557
Ro y 273552
pra yer</w> 273526
n es</w> 273524
lo an</w> 273506
H it 273455
Mo on</w> 273439
ne ph 273288
: black 273242
O ne 273169
O VER</w> 273052
Fe els</w> 273051
IN T</w> 273050
ou ting</w> 273000
s ni 272987
good ness</w> 272977
6 00</w> 272957
Qu e 272955
tra ditional</w> 272907
St eel</w> 272842
ic y</w> 272828
ip ment</w> 272819
J unior</w> 272797
G one</w> 272767
a to</w> 272728
pul ling</w> 272700
I O 272525
re quest 272412
load ing</w> 272332
logi c</w> 272316
ag ement</w> 272288
se ttle</w> 272275
] :</w> 272269
B RO 272254
j ected</w> 272216
sol ved</w> 272137
V an</w> 272088
An gel</w> 272083
Gre en 272045
under stood</w> 272020
Char lo 271967
Z E</w> 271927
Mil ey</w> 271885
concer n</w> 271884
REA DY</w> 271827
o on</w> 271749
new sp 271682
Cu z</w> 271628
res ources</w> 271605
eed back</w> 271593
win dows</w> 271580
acc used</w> 271554
IS T</w> 271511
Are a</w> 271496
sm ells</w> 271258
Per ry</w> 271184
l ength</w> 271167
al ized</w> 271146
K id</w> 271111
M un 271058
a im 271008
dis respec 270978
comp are</w> 270889
# just 270801
Ar gent 270774
V ING</w> 270723
Quest ion</w> 270703
r andom 270692
hou sing</w> 270680
mo tion</w> 270598
# ip 270563
di ff</w> 270547
B ush</w> 270459
con dition</w> 270441
Z ealand</w> 270439
SB -</w> 270411
D eep</w> 270364
responsi bility</w> 270341
Ha hahaha</w> 270286
Any thing</w> 270218
genu inely</w> 270172
pea ce 270167
Pr act 270153
bon us</w> 270115
ni all</w> 270114
weal th</w> 270019
# quote</w> 269899
EX C 269868
W IN 269820
GIR L</w> 269806
lo ser</w> 269794
ed it</w> 269772
comple x</w> 269743
de pression</w> 269731
A p 269723
use ful</w> 269668
Coll ection</w> 269639
A I</w> 269615
Sho es</w> 269588
_ of_ 269573
: Christma 269543
:Christma s_tree:</w> 269543
Med ic 269496
V ar 269470
sy l 269464
Tr y 269446
f lies</w> 269404
A labama</w> 269349
Dav is</w> 269299
com mer 269217
: bab 269166
Per form 269158
ul arly</w> 269113
desper ate</w> 269000
o v 268959
N ec 268908
Cont in 268907
medic ine</w> 268825
H I 268810
f est</w> 268791
G ab 268788
lan do</w> 268743
dre ds</w> 268712
ir o</w> 268678
M inn 268591
: hot 268548
eff ects</w> 268519
dem ocracy</w> 268517
cha pter</w> 268472
w ouldnt</w> 268461
T ickets</w> 268431
pu r</w> 268404
ci vil</w> 268382
some day</w> 268359
Y E</w> 268323
2. 0</w> 268256
wa it 268252
ES E</w> 268242
Boo ks</w> 268221
introduc ed</w> 268214
on ey</w> 268194
G M</w> 268084
ema ils</w> 268081
Ho p</w> 267985
ta h</w> 267947
l ack 267924
Au g</w> 267919
sho cked</w> 267875
non sense</w> 267841
uc tion</w> 267795
T B 267724
Sh out</w> 267720
-- ></w> 267699
hh hhh</w> 267684
Gla ss</w> 267668
haha hah</w> 267644
po ses</w> 267545
ut ch</w> 267543
C K 267540
depend ence</w> 267483
Rea ch</w> 267408
col labor 267386
h eck</w> 267368
al lows</w> 267311
ma il 267292
Kor ean</w> 267125
Nor thern</w> 267073
New s 267009
z ar 266901
ex change</w> 266882
Br on</w> 266801
oo m</w> 266650
t es 266645
H us 266639
p ounds</w> 266553
wis dom</w> 266518
T our 266495
to ward</w> 266420
n ine</w> 266397
AN CE</w> 266386
F ederal</w> 266348
ben ch</w> 266326
Cap tain</w> 266292
per man 266275
an alysis</w> 266144
Rom ney</w> 266134
sm aller</w> 266125
nu ll</w> 266015
2. 5</w> 265876
M D</w> 265864
don ate</w> 265857
R ising</w> 265842
z om 265756
fam ili 265743
el et</w> 265724
R A</w> 265711
haha hahaha</w> 265610
x ox 265595
z ona</w> 265559
ser ver</w> 265443
Democr atic</w> 265426
John ny</w> 265318
: 45</w> 265258
zz le</w> 265188
par ent</w> 265168
Ho spital</w> 265082
there fore</w> 265075
# im 265046
_ show 265045
allow ing</w> 264999
t to</w> 264984
m and 264922
3 , 264921
w ood 264899
ann e</w> 264894
_show ing_ 264893
:globe _showing_ 264891
Ma in</w> 264857
p lot</w> 264827
Phi l</w> 264808
D ER 264755
su ffer</w> 264705
comm itted</w> 264683
spec if 264659
r ant</w> 264649
Lev el</w> 264617
Ha wa 264587
#game insight</w> 264577
#Follo w 264564
Ch er 264523
I AL</w> 264478
Fr ont</w> 264383
appoint ment</w> 264372
cap able</w> 264272
w ee</w> 264125
V S</w> 264076
Clo sed</w> 264007
e in</w> 263908
Y up</w> 263895
it ter</w> 263849
up id</w> 263819
S D</w> 263817
list s</w> 263807
c lin 263777
All en</w> 263722
sh its</w> 263708
photo graphy</w> 263702
inc ol 263680
be er_ 263633
O x 263626
Pat rick</w> 263544
n am</w> 263455
ac o</w> 263440
on ym 263422
_mo on_face:</w> 263399
beer_ mug 263336
may or</w> 263288
w ind 263253
Aga inst</w> 263218
car to 263194
Fal ling</w> 263170
w ag 263018
Je wish</w> 263015
stu me</w> 263002
le - 262978
# 2 262916
st an 262883
ca sting</w> 262804
In spir 262744
An ton 262739
convinc ed</w> 262689
th at 262647
th i 262582
T ext</w> 262568
ord in 262542
M UST</w> 262539
lic ense</w> 262530
S now</w> 262407
and _ 262405
Lear ning</w> 262364
t z</w> 262295
:smiling_ cat_face_with_ 262194
:smiling_cat_face_with_ heart-eyes:</w> 262194
consi der 262082
pla stic</w> 262058
t v 262049
high - 262015
adv enture</w> 261990
Cred it</w> 261749
eng ine</w> 261617
sand wich</w> 261567
il way</w> 261550
it ec 261521
St ep</w> 261521
Squ are</w> 261518
laun ched</w> 261481
s p</w> 261469
n es 261467
Fa ke</w> 261448
inc or 261341
vehic le</w> 261332
4 6 261317
Broo k 261210
cou rage</w> 261192
clo sed 261174
al le 261154
def eat</w> 261087
un followed</w> 261075
Sh irt</w> 261043
deli ver</w> 261030
Al ready</w> 260991
7 / 260988
def eated</w> 260986
S om 260972
bu te</w> 260967
issu ed</w> 260917
n in</w> 260857
del ay</w> 260855
St an 260766
um ped</w> 260749
ta r</w> 260693
val ent 260666
re views</w> 260630
strugg ling</w> 260629
hash tag</w> 260571
Y esterday</w> 260535
ur al</w> 260522
Co w 260495
im pressed</w> 260457
IL E</w> 260393
# For 260387
L ET</w> 260341
Br un 260333
LMFA O</w> 260319
bed room</w> 260298
as ses</w> 260280
att acked</w> 260261
corru pt</w> 260228
re me</w> 260114
Vi ol 260093
tu be</w> 260041
o tic</w> 259884
sweat _ 259869
: sweat_ 259834
droplet s:</w> 259834
:sweat_ droplets:</w> 259834
i alist</w> 259749
Tra de</w> 259736
G RE 259673
Lar ge</w> 259650
ol en</w> 259634
ga ined</w> 259623
Thr ones</w> 259594
R ain 259581
Wil son</w> 259525
Recor ds</w> 259498
W WE</w> 259486
na w</w> 259475
har i</w> 259474
conf lic 259467
18 th</w> 259465
AN G</w> 259455
I mp 259417
E - 259384
E W</w> 259313
week ly</w> 259310
Stu dy</w> 259243
Q B</w> 259162
J ay 259112
conf ident</w> 259071
Di ffer 259026
wal ls</w> 258971
w ishing</w> 258929
n app 258915
des ire</w> 258887
see king</w> 258802
an a 258793
st ays</w> 258772
bea n</w> 258766
c ough</w> 258742
comp li 258714
_ fing 258656
jo king</w> 258566
g ear</w> 258548
s aturday</w> 258502
Ni ght 258456
W HO 258446
TH EN</w> 258446
Des pite</w> 258405
MA s</w> 258315
c lar 258301
un known</w> 258251
st ain 258217
plea d 258205
T OM 258107
pol l</w> 258097
Sel ena</w> 258075
ad el 258061
k n</w> 258002
dre sses</w> 258001
pressi ve</w> 257878
enter tainment</w> 257862
Y ear 257816
TO P</w> 257806
cel ona</w> 257741
: plead 257685
:plead ing_face:</w> 257685
A TT 257672
lin k 257659
Rom an</w> 257543
J ar 257502
Ar tic 257480
wi d 257475
: cat_face_with_ 257424
y up</w> 257396
nor mally</w> 257378
inten do</w> 257326
Ar ts</w> 257241
ess ings</w> 257216
ab led</w> 257208
10 th</w> 257201
ea ble</w> 257179
Pal est 257179
sw ea 257161
G iveaway</w> 257136
Bra d 257104
min ister</w> 257089
H P</w> 257066
IL Y 257056
es a</w> 257045
L on 256979
10 - 256979
Mal ay 256959
gra m 256947
G oo 256938
: camera:</w> 256919
Sa udi</w> 256876
lem me</w> 256873
EX O</w> 256868
health care</w> 256854
exper t</w> 256800
b 4</w> 256748
sudd en</w> 256745
w inners</w> 256684
const it 256645
s lu 256586
TH INK</w> 256568
ho ttest</w> 256528
sho e</w> 256417
or i 256416
b ies</w> 256415
P T</w> 256368
ty pical</w> 256317
M L</w> 256313
al u 256297
Bri dge</w> 256034
# Al 255963
E ff 255904
# so 255768
ch i</w> 255747
Wal k</w> 255712
P IC 255644
H and</w> 255629
sl ut</w> 255579
For get</w> 255403
C ute</w> 255395
c he</w> 255363
Wa ke</w> 255099
Pre ssure</w> 255097
C lean</w> 255076
B lood</w> 255016
addic ted</w> 254909
leg is 254899
Ch ec 254864
e_ of_ 254844
pas sen 254781
P D</w> 254736
15 . 254726
ic ro 254638
up load</w> 254621
ST OR 254621
l ement</w> 254616
lon gest</w> 254612
op ho 254608
Th ing</w> 254563
pati ence</w> 254532
dem on 254476
de partment</w> 254449
g ang 254421
applic ation</w> 254418
T ook</w> 254402
Curr ently</w> 254392
J on</w> 254333
Cru z</w> 254300
fa b</w> 254281
CAN 'T</w> 254233
Color ado</w> 254211
neigh bor 254185
cou sins</w> 254161
MUS IC</w> 254114
Princ ess</w> 254064
list ic</w> 254045
stu dies</w> 254031
sou thern</w> 254018
Jud ge</w> 253852
ve - 253839
bour ne</w> 253839
ag e 253830
R C</w> 253761
swi m</w> 253675
th rea 253585
Qu ality</w> 253581
f ought</w> 253561
vie wed</w> 253537
Ko be</w> 253505
F lo 253481
w rap</w> 253468
therap y</w> 253385
cir cle</w> 253383
L as</w> 253363
: na 253320
S CH 253318
p acked</w> 253286
gran ted</w> 253240
Elec tr 253211
C av 253176
in str 253152
argu ing</w> 253124
G RA 253068
ment ally</w> 253042
I on</w> 253022
Lou is 253009
bu tter 252943
hoo k</w> 252930
in n</w> 252926
m oo 252901
provid es</w> 252881
eat en</w> 252871
wh el 252863
dist ur 252848
Po d</w> 252841
est y</w> 252774
u ts</w> 252767
n arr 252652
broad cast</w> 252645
vis ible</w> 252582
P ul 252556
B et</w> 252430
# 3 252380
he els</w> 252326
lma oo</w> 252314
enc ing</w> 252292
v ul 252282
pain ful</w> 252250
Gir l 252218
# 6 252217
Succ ess</w> 252174
gradu ation</w> 252165
pr ic 252162
EN T 252150
adi se</w> 252147
vi c</w> 252113
Wal es</w> 251998
f ile</w> 251981
a unt</w> 251942
direc ted</w> 251896
com ic</w> 251824
pro mo</w> 251801
L and</w> 251745
convers ations</w> 251738
s an 251716
ag enda</w> 251597
br ush</w> 251595
life time</w> 251553
# can 251420
Ex per 251388
Wh enever</w> 251375
min d 251371
hy un</w> 251304
boo st</w> 251299
ad ults</w> 251270
sho ck</w> 251258
# la 251235
ER T</w> 251235
FIF A</w> 251219
bac on</w> 251211
gra ss</w> 251210
REA D</w> 251188
E ll 251176
ucc i</w> 251139
P sy 251132
go ver</w> 251052
Lo ving</w> 251032
dol l</w> 250998
g t</w> 250970
tw in</w> 250940
oo h</w> 250912
# new 250902
artic les</w> 250891
o hh</w> 250789
sp ire</w> 250648
k or 250596
ro of</w> 250579
be y</w> 250375
_ and_ 250363
ST R 250275
wit ter 250237
b all 250036
Olymp ic</w> 249995
イ ケ 249987
ome stic</w> 249954
m ountain</w> 249945
R d</w> 249909
deliver ed</w> 249894
K ur 249873
S pe 249841
fla ke:</w> 249810
:snow flake:</w> 249810
g host</w> 249761
Good night</w> 249678
AB LE</w> 249666
t w</w> 249661
1. 5</w> 249645
# え 249573
E at</w> 249561
N a</w> 249546
fer red</w> 249538
M ill 249403
sh ould 249382
fa st 249362
oooo oooo 249359
Min aj</w> 249329
#え ど 249314
bra ve</w> 249264
ro cks</w> 249257
ul ty</w> 249247
Pac ific</w> 249229
por no</w> 249227
# li 249214
gr ind</w> 249195
#えど が 249194
イケ メ 249180
see med</w> 249169
C leveland</w> 249156
ag ency</w> 249138
y i 249119
M and 249069
lo go</w> 249058
develo p</w> 248977
Jo se</w> 248930
Camer on</w> 248924
ti fied</w> 248909
AS H 248876
Wo ke</w> 248865
invest ment</w> 248862
#えどが わ 248775
fa bulous</w> 248774
g ent</w> 248755
イケメ ン</w> 248745
te ens</w> 248684
ent re 248647
P OR 248642
Pro gram</w> 248609
v in 248600
con struc 248584
v i</w> 248524
am ate 248515
Tra in</w> 248500
jud g 248451
DAM N</w> 248439
ang a</w> 248436
inspir ing</w> 248350
Co le</w> 248155
ad ap 248130
ho sting</w> 248129
se t 248043
d gers</w> 248041
st fu</w> 247893
F O</w> 247855
ack now 247849
mom my</w> 247828
co w 247805
wa ited</w> 247794
dra g</w> 247775
pr on 247725
da ds</w> 247676
intellig ence</w> 247630
qu es</w> 247548
iz on</w> 247477
Ar ound</w> 247396
#えどがわ イケメン</w> 247357
Fi eld</w> 247354
V ide 247322
1 ,000</w> 247272
G IVE</w> 247262
ong side</w> 247247
acc ent</w> 247197
tol er 247166
A h 247148
sc ra 247148
up loaded</w> 247121
z ayn</w> 247104
self ies</w> 247104
c m</w> 247103
An im 247088
har dly</w> 246964
O THER</w> 246961
Mar s</w> 246877
dev ice</w> 246846
too ls</w> 246837
al led</w> 246783
di a 246757
exper im 246692
corru ption</w> 246683
kno cked</w> 246637
ent ures</w> 246600
fac ing</w> 246556
ho sts</w> 246553
individ uals</w> 246518
Fre sh</w> 246468
end ar</w> 246419
laugh ter</w> 246400
war s</w> 246384
assi st</w> 246347
Emp ire</w> 246307
ta st 246294
aff ected</w> 246271
G il 246263
O wn</w> 246207
N umber</w> 246170
Stu dio</w> 246157
F ine</w> 246137
cap tain</w> 246133
n ear 246119
S B</w> 246050
celebr ity</w> 245954
li o</w> 245903
G y 245902
AC E</w> 245867
I ES</w> 245826
:backhand_index_pointing_ down:</w> 245819
# be 245780
o we</w> 245737
en ix</w> 245715
# ask 245655
rel ate</w> 245574
uti on 245519
Thank sgiving</w> 245509
P ear 245436
laugh s</w> 245435
ac elet</w> 245378
Jose ph</w> 245329
h ind 245279
vis iting</w> 245272
ho st 245198
wor n</w> 245116
Ari zona</w> 245062
tw er 245054
:heavy_ check_mark:</w> 245054
m t</w> 245041
sec ond 244994
c and 244988
enti ally</w> 244980
believ es</w> 244878
no v 244871
I an</w> 244860
T EA 244831
13 . 244803
sen sitive</w> 244792
ga f</w> 244780
Mu seum</w> 244772
en gu 244758
off ensive</w> 244687
BREA KING</w> 244652
writ ers</w> 244614
N 'T</w> 244568
ric ane</w> 244478
posit ions</w> 244468
po wers</w> 244420
Al ert</w> 244384
jo int</w> 244308
asha med</w> 244297
f m</w> 244295
d ing 244294
ad ed</w> 244281
ation al 244229
M ountain</w> 244199
# ch 244127
IS H</w> 244027
em ony</w> 244014
thro wn</w> 243995
hom eless</w> 243941
soc cer 243900
# on 243896
inst it 243890
descri bed</w> 243850
it i 243828
F oundation</w> 243809
In side</w> 243792
Pri v 243789
candi dates</w> 243778
sour ces</w> 243742
A aron</w> 243737
Afr ic 243655
S ound</w> 243641
k - 243635
C LO 243605
S port</w> 243581
14 . 243574
sta dium</w> 243520
d il 243519
_ vol 243500
Au to</w> 243454
# Bo 243443
self ish</w> 243359
To gether</w> 243325
AS S 243195
as f</w> 243176
gam ing</w> 243171
D omin 243154
end or 243147
Bro ther</w> 243056
revea led</w> 243033
ribb on:</w> 242919
inn ed</w> 242869
incredi bly</w> 242824
dre ssing</w> 242817
Sand ers</w> 242816
Or lando</w> 242815
w el</w> 242726
et a</w> 242698
hand ed</w> 242473
T ON</w> 242423
sp ree</w> 242409
cr icket</w> 242299
i a 242288
gra pher</w> 242281
SO ME</w> 242236
rac es</w> 242205
exclu sive</w> 242091
19 th</w> 242069
Ma ke 242069
Str ate 242023
stri al</w> 241969
Rev ol 241921
reali sed</w> 241919
ma kers</w> 241898
ev en 241897
ul timate</w> 241889
fra ud</w> 241879
spo ken</w> 241846
x e</w> 241777
ver ty</w> 241664
ff in</w> 241649
B ye</w> 241640
ma s 241636
prot ection</w> 241578
D addy</w> 241563
Mo ve</w> 241557
mar kets</w> 241441
un fortunately</w> 241414
Mar io</w> 241398
D ING</w> 241365
R s</w> 241360
k an</w> 241350
z ard</w> 241327
fac ed</w> 241280
att ached</w> 241279
resid ents</w> 241247
T wi 241201
J aco 241199
F act 241176
Ex clu 241142
K id 241109
down town</w> 241108
Bas ketball</w> 241091
; D</w> 241080
vil la 241078
random ly</w> 241066
# 4 241061
# Q 240998
con sequ 240835
ess ica</w> 240812
ac ad 240757
wh eel</w> 240752
TA KE</w> 240721
fa ils</w> 240711
sor ed</w> 240695
wea pons</w> 240675
ing_face_with_ closed 240647
:kiss ing_face_with_closed 240647
:kissing_face_with_closed _eyes:</w> 240647
Econ om 240641
wi fi</w> 240582
dis like</w> 240495
Sha me</w> 240435
ro man 240390
C ash</w> 240326
init i 240326
ru g 240312
partic ularly</w> 240292
All - 240259
eyebro ws</w> 240255
# it 240247
US B</w> 240228
Dro p</w> 240218
on gs</w> 240148
sm all 240135
Bit coin</w> 240125
mo tor 240100
al ities</w> 240099
clo thing</w> 240088
increa sed</w> 240005
K ate</w> 239900
enti rely</w> 239883
a side</w> 239879
educ ated</w> 239819
SEL F</w> 239797
id ers</w> 239781
var iety</w> 239761
regi ster</w> 239757
answ ered</w> 239699
to ps</w> 239681
M EAN</w> 239664
Po kemon</w> 239600
la bel</w> 239569
Y ellow</w> 239523
wea k 239523
ser t</w> 239472
# Love 239435
K ill</w> 239411
E A</w> 239411
j ay</w> 239378
hun t</w> 239367
fic ation</w> 239335
f eedback</w> 239292
ci vili 239290
h w</w> 239064
pen alty</w> 238899
po ster</w> 238876
sho ps</w> 238859
R al 238817
ord inary</w> 238809
fi ghts</w> 238732
fic tion</w> 238695
W y 238592
sou th 238572
Sh ut</w> 238544
L ana</w> 238502
pu pp 238495
ra pper</w> 238457
daw g</w> 238421
in struc 238405
Lo ved</w> 238391
aaaa aaaa 238290
Go vernor</w> 238255
cli ent</w> 238255
amer ic 238252
UM P</w> 238240
# Z 238233
en em 238215
Kind a</w> 238195
tra p</w> 238151
199 8</w> 238134
tern al</w> 238129
B less</w> 238107
andro id</w> 238080
9. 99</w> 238064
bi eber</w> 238061
V an 237964
pass word</w> 237925
ignor ing</w> 237922
bu st</w> 237896
co at</w> 237866
rac ing</w> 237682
La kers</w> 237668
bl in</w> 237651
CU TE</w> 237611
red uce</w> 237554
Hu ge</w> 237504
is er</w> 237420
gg ers</w> 237386
St ream</w> 237371
R ey</w> 237323
T el 237225
d at 237198
a x</w> 237171
cont em 237140
logi es</w> 237094
i b 237087
fra me</w> 237015
Comple te</w> 237009
h idden</w> 236978
char ger</w> 236902
bea st</w> 236872
F ig 236793
high _vol 236754
T een</w> 236729
tt in</w> 236711
wa sting</w> 236663
t ut 236615
Brit ney</w> 236597
be side</w> 236568
cho sen</w> 236493
t ested</w> 236431
appro xim 236412
Al i</w> 236378
il e_of_ 236359
:p ile_of_ 236358
poo :</w> 236358
:pile_of_ poo:</w> 236358
fa ith 236272
# World 236259
Ex press</w> 236259
Tra ffic</w> 236218
:cro s 236176
k icking</w> 236148
pu shed</w> 236113
emo ji</w> 236026
oo p</w> 236025
G ary</w> 236001
D ID 235997
Lim ited</w> 235936
Ira q</w> 235926
ti more</w> 235906
7 7 235889
ent it 235874
believ able</w> 235868
in et</w> 235807
ul ation</w> 235794
aff ect</w> 235723
ra w</w> 235712
J A 235667
tou ched</w> 235630
rep lied</w> 235578
su its</w> 235530
al do</w> 235500
fil es</w> 235449
Qu ote</w> 235440
Cam p</w> 235435
s ooooo</w> 235324
fri es</w> 235323
ag er</w> 235314
ST AR 235293
c ateg 235291
T an 235217
aw ww</w> 235068
sun ny</w> 235019
Con stit 235009
H EY</w> 234985
des ign 234966
gh ted</w> 234891
PS 4</w> 234858
it z</w> 234835
ju ana</w> 234816
Fin ancial</w> 234769
ent ation</w> 234752
ve ter 234739
kis sing</w> 234656
confir m</w> 234648
CA R</w> 234637
G ay</w> 234602
G ame 234601
B ee 234557
3 _hearts:</w> 234515
:smiling_face_with_ 3_hearts:</w> 234515
gro cer 234497
f arm</w> 234474
yel ling</w> 234470
fil ling</w> 234462
er ror</w> 234431
E ye</w> 234425
Bat tery</w> 234361
D el</w> 234348
F oc 234320
H at 234301
ic ation</w> 234274
main ly</w> 234200
t ings</w> 234119
In ch</w> 234065
entre prene 234028
r ally</w> 233980
Dra gon</w> 233960
ing_ star:</w> 233949
gre y</w> 233817
tun ed</w> 233809
st ated</w> 233797
terror ist</w> 233756
mo der 233699
wh ore</w> 233690
Du ke</w> 233673
Bu ff 233653
on e- 233648
cra z 233572
H B 233550
Str ong</w> 233471
#G ame 233467
ignor ed</w> 233440
sh ut 233432
Gi ants</w> 233429
fuc ker</w> 233425
To tally</w> 233425
LI ST 233403
polic ies</w> 233271
oun ge</w> 233251
e my</w> 233212
Stud ents</w> 233185
th qu 233141
an ie</w> 233122
cli ents</w> 233098
Si x</w> 233083
susp ect</w> 232958
it able</w> 232937
k h 232897
lin ed</w> 232890
T old</w> 232877
- to- 232876
O L 232819
v as</w> 232749
L incol 232722
n an 232685
por tra 232636
g al 232624
Mi x 232621
p unk</w> 232573
di g</w> 232563
ea ses</w> 232487
go d 232447
per spective</w> 232431
UPD ATE</w> 232293
const ant</w> 232179
C P</w> 232152
ffic ient</w> 232127
Au dio</w> 232083
Cont act</w> 232039
th an 232023
soldi ers</w> 232021
Qu ick</w> 231995
5 8 231956
our ed</w> 231941
Th oughts</w> 231938
BA D</w> 231937
Con si 231919
est ate</w> 231915
ster ed:</w> 231914
:regi stered:</w> 231914
presen ting</w> 231903
al ds</w> 231901
di c</w> 231883
offic ers</w> 231860
An sw 231843
2 1 231801
low key</w> 231764
ang el 231748
nee da</w> 231702
R ich</w> 231683
sal ad</w> 231595
TON IGHT</w> 231579
Le bron</w> 231526
hor ny</w> 231515
or es</w> 231498
cry p 231493
Att ack</w> 231364
ank a</w> 231305
phi losop 231273
Sp urs</w> 231264
fr on 231148
t ask</w> 231089
Y O</w> 231084
reco gn 231044
Cry stal</w> 231044
ic ity</w> 231038
# e 231010
m igr 230898
3 4 230866
R av 230823
ish ed_face:</w> 230795
Ta x</w> 230780
C RA 230775
ag u 230656
hard core</w> 230578
bel ly</w> 230356
_ be 230341
#J ust 230338
K ansas</w> 230312
nor th 230311
Stud ent</w> 230293
# En 230275
ic ul 230274
valu es</w> 230240
Mo ore</w> 230231
Bar celona</w> 230193
ach el</w> 230173
no thin</w> 230116
u el</w> 230088
YOU 'RE</w> 230070
# Jobs</w> 230033
phi a</w> 230019
ing_ head 230013
ing_head :</w> 230010
all er 230006
E ve</w> 229837
f ly 229793
A w</w> 229742
C RE 229698
T N</w> 229635
susp ended</w> 229587
Isla mic</w> 229563
R um 229535
bl unt</w> 229493
U g 229444
st or</w> 229419
F ort</w> 229373
#B lack 229349
as ap</w> 229327
mis er 229305
pri me</w> 229300
Sing apore</w> 229288
R ace</w> 229270
peop les</w> 229253
ati vely</w> 229218
y es 229109
BE CAUSE</w> 229044
it i</w> 228996
G olf</w> 228993
Y u 228962
Ster ling</w> 228916
cont ext</w> 228896
N am 228845
fu el</w> 228791
A utom 228768
expla ins</w> 228727
d ang</w> 228660
bo xing</w> 228631
sel ection</w> 228628
cle :</w> 228611
b anks</w> 228577
pra ise</w> 228534
assa ult</w> 228532
mor al</w> 228469
Mach ine</w> 228458
Di e</w> 228434
et t</w> 228406
famili ar</w> 228403
remin ded</w> 228358
B JP</w> 228346
car ried</w> 228328
min es</w> 228286
well - 228269
in ar</w> 228230
re present</w> 228223
bo thered</w> 228214
bla h</w> 228109
ir man</w> 228074
pe st</w> 228072
act ress</w> 228048
OU GH</w> 228045
ap a</w> 228043
al ls</w> 228041
p ace</w> 228009
D :</w> 227961
P P</w> 227928
Dr inking</w> 227888
fl u</w> 227850
b ber</w> 227823
oc cur 227779
pa thy</w> 227737
kne es</w> 227731
al ongside</w> 227718
Ro ber 227620
N D</w> 227602
Bat man</w> 227569
FRI END</w> 227537
lo oo 227529
th or 227520
Inst itute</w> 227502
head phones</w> 227498
la p</w> 227488
s ick 227470
dea ths</w> 227450
ili an</w> 227434
z ation</w> 227324
ar ts</w> 227291
zz z 227291
champ ion</w> 227228
n at 227205
19 . 227182
i ff</w> 227175
K ong</w> 227086
n atur 227008
Ho ward</w> 227005
t _ 226993
C op 226955
St upid</w> 226901
di os</w> 226844
L AST</w> 226837
conc entr 226834
L ess</w> 226822
# Trump 226814
6 / 226809
ext reme</w> 226799
tit les</w> 226774
bri ght 226771
ra pp 226758
J ama 226641
m ir</w> 226603
Sou l</w> 226543
LI E 226541
Cur rent</w> 226513
S mart 226497
o ke</w> 226464
att ended</w> 226450
DA YS</w> 226442
enem ies</w> 226435
dis count</w> 226423
d ish</w> 226368
jum ping</w> 226349
m echan 226321
sol utions</w> 226305
elec tric</w> 226291
un its</w> 226288
to e</w> 226278
st unning</w> 226260
S kin</w> 226219
Movi es</w> 226208
Kar dashi 226206
Philipp ines</w> 226157
VI P</w> 226146
# You 226112
on c 226108
un comfortable</w> 226026
hoo p</w> 225997
r ing 225930
tra de 225901
mass age</w> 225884
We ight</w> 225847
la ho 225846
ca uses</w> 225788
bir thday 225786
D L 225763
HAR D</w> 225757
la ds</w> 225740
AC C 225725
contro ver 225705
j s</w> 225703
G h 225675
me me</w> 225630
v ing 225626
le ans</w> 225620
n uclear</w> 225619
Z Z 225583
T ed</w> 225559
ig s</w> 225472
3 00 225460
p - 225453
O T</w> 225411
Engine er</w> 225343
s oup</w> 225328
Scot tish</w> 225289
sw eat</w> 225287
:ro se:</w> 225217
ww ww</w> 225206
scor ing</w> 225179
:dizz y:</w> 225162
world wide</w> 225124
ous ness</w> 225044
ha ll 225030
i phone</w> 225019
it im 225019
gol den</w> 225004
Sho w 224977
ti ves</w> 224952
c able</w> 224949
to y</w> 224947
pre ss 224941
Bru h</w> 224882
C old</w> 224767
tem perature</w> 224731
OO N</w> 224730
bro w 224727
A ust 224685
sear ching</w> 224634
co t</w> 224585
neph ew</w> 224532
con sul 224527
bu d</w> 224514
il ton</w> 224474
yo ga</w> 224448
D ue</w> 224440
wan a</w> 224397
Buil d</w> 224389
pro ven</w> 224356
ab s</w> 224323
us :</w> 224292
EAR S</w> 224261
Dan ny</w> 224202
F ly 224165
I ron</w> 224147
F C 223973
j es 223964
h tt 223903
P har 223890
ip es</w> 223888
C atch</w> 223869
E state</w> 223847
Lau ren</w> 223838
EC K</w> 223834
boo ked</w> 223816
Mis sing</w> 223770
st icks</w> 223692
clo se 223671
8 00</w> 223635
de x</w> 223635
us er 223633
13 th</w> 223633
: soccer 223631
:soccer _ball:</w> 223631
#I m 223624
wa shed</w> 223617
Niger ian</w> 223588
Mo dern</w> 223554
adv oc 223547
F at</w> 223506
5 6 223476
b :</w> 223451
t fu</w> 223417
Br y 223417
re g 223404
t ical</w> 223359
Li fe 223342
MO ST</w> 223329
C ancer</w> 223221
den y</w> 223174
ank et</w> 223041
agre ement</w> 222985
S ell</w> 222978
AR Y</w> 222926
za beth</w> 222903
eb ers</w> 222898
cop y 222897
hum anity</w> 222825
D ick</w> 222818
P ad 222811
sk et 222796
recogni ze</w> 222794
L ap 222785
b elt</w> 222667
at least</w> 222648
con spir 222641
hea der</w> 222618
ra y 222612
Com puter</w> 222597
n ic</w> 222571
ad ays</w> 222474
y ung</w> 222438
N intendo</w> 222400
Ch eers</w> 222366
Custom er</w> 222309
Po tter</w> 222290
e tic</w> 222242
enti st</w> 222218
mis sions</w> 222158
var i 222125
et to</w> 222041
P ick</w> 222015
m ill</w> 221966
Sur vi 221961
tem porary</w> 221958
exc it 221935
in formed</w> 221901
i to</w> 221871
199 7</w> 221853
con ver 221839
adel phia</w> 221820
t ed 221721
conv ince</w> 221720
ch u</w> 221686
De tails</w> 221662
reco very</w> 221611
Qu ar 221599
P enn 221570
E ss 221568
Gran de</w> 221558
eli min 221534
B and 221497
K ings</w> 221489
cir cum 221445
iz za 221404
fin ishing</w> 221388
e ty</w> 221385
LO OK 221378
stre ss 221347
Charlo tte</w> 221307
re tar 221302
Sho ws</w> 221271
clou ds</w> 221249
min or</w> 221224
ne goti 221175
hold ing_hands:</w> 221139
Be tween</w> 221136
in a 221126
rol led</w> 221097
r at</w> 221092
K ent 221019
R ee 220991
h mmm</w> 220962
B ac 220944
sing ly</w> 220896
stri p</w> 220885
# al 220878
pro pag 220862
Br uce</w> 220842
night mare</w> 220831
Assi stant</w> 220820
E mail</w> 220808
it em</w> 220798
f loo 220788
DEA LS</w> 220723
ick ers</w> 220687
p re</w> 220683
St .</w> 220607
T ired</w> 220523
Ea stern</w> 220501
Fri end 220428
dumb ass</w> 220428
Regi ster</w> 220391
fresh man</w> 220292
B ids</w> 220275
w al</w> 220243
pre h 220219
curr ency</w> 220194
S Y 220081
sp reading</w> 220059
cor d</w> 219988
Tr ack</w> 219966
pha se</w> 219912
Jen ni 219906
spo ts</w> 219882
T at 219875
hum ble</w> 219874
# RT</w> 219872
Ar m 219798
t . 219789
ste in</w> 219705
con tra 219690
Ro b</w> 219667
Won der 219642
g han</w> 219593
M ama</w> 219592
de ter 219571
ir on</w> 219509
K el 219508
7 0 219468
M ount</w> 219427
scri pt</w> 219398
:face_ without 219393
:face_without _mouth:</w> 219393
ou s_ 219336
H ELL</w> 219234
un g 219053
ST ER</w> 219045
awar eness</w> 219028
i Pod</w> 219006
z o 218943
ma sk</w> 218860
di ans</w> 218829
ca using</w> 218755
itt s 218708
st able</w> 218706
oppo sition</w> 218696
3 : 218661
ar med</w> 218629
y ards</w> 218626
sto pping</w> 218594
tech ni 218586
pan el</w> 218584
Wor st</w> 218567
blo wn</w> 218535
Rest a 218480
go vern 218449
um es</w> 218408
stra w 218367
NE T</w> 218366
Wor th</w> 218337
ab les</w> 218312
t ent</w> 218285
Ty pe</w> 218223
Y EA 218198
Mil itary</w> 218152
x o</w> 218083
ex posed</w> 218036
Michel le</w> 217925
st are</w> 217880
loy d</w> 217873
UC K</w> 217843
ul u</w> 217780
cou ples</w> 217765
immigr ation</w> 217722
Per haps</w> 217691
Enter tainment</w> 217676
ro ws</w> 217675
199 6</w> 217599
ag no 217598
PL A 217598
# Un 217587
Mar ia</w> 217580
car rying</w> 217556
E qu 217555
cri mes</w> 217508
mar ch</w> 217490
il le</w> 217472
ol o</w> 217408
sa dly</w> 217359
altern ative</w> 217352
ch est 217314
Pol and</w> 217241
fri ed</w> 217228
Wal mart</w> 217206
ley ball</w> 217192
A gre 217188
as ed</w> 217160
eeee e</w> 217148
chil ling</w> 217138
reli ef</w> 217137
rema ining</w> 217136
ex ists</w> 217123
t in 217112
ta to</w> 217104
sc are</w> 217102
th ear 217049
W ood</w> 217047
S EA 216968
po sing</w> 216859
provid ing</w> 216827
form ula</w> 216815
Har ris</w> 216775
Hist or 216750
R is 216748
u al 216747
per c 216742
A ve</w> 216725
Be hind</w> 216714
Champ ions</w> 216687
tr ou 216674
Spir it</w> 216672
li ance</w> 216669
promis es</w> 216651
s ends</w> 216632
S P</w> 216623
ann on</w> 216568
pro sp 216561
RE C 216517
Kat y</w> 216480
oc k 216457
dis aster</w> 216417
Sa int</w> 216415
str anger</w> 216381
roo t</w> 216322
to es</w> 216312
Ba seball</w> 216254
bi z</w> 216200
Ch icken</w> 216173
M M</w> 216153
lu e</w> 216115
Ex t 216081
experi ences</w> 216073
Th x</w> 216054
con s</w> 216039
z er 216015
onym ous</w> 215965
bit ter</w> 215949
gr ac 215936
tro ops</w> 215833
Ken ne 215813
el son</w> 215794
Mess age</w> 215780
p and 215778
sw ing</w> 215747
da sh 215735
li am</w> 215730
concer ns</w> 215727
char t</w> 215707
T enn 215702
Pre s 215632
a haha</w> 215614
vol ume</w> 215491
N J</w> 215416
po d</w> 215393
tab les</w> 215376
Wr ong</w> 215316
g lo 215233
Del hi</w> 215196
ser ves</w> 215192
tattoo s</w> 215191
Ore gon</w> 215174
lea gues</w> 215141
off ended</w> 215117
thir sty</w> 215113
C lim 215080
roman tic</w> 215050
Exec utive</w> 215049
tw ins</w> 215043
f lat 215021
em entary</w> 215020
int ense</w> 215008
ad ditional</w> 214989
J ane</w> 214968
M ER 214962
en sure</w> 214950
dis ci 214933
Fla sh</w> 214903
ti st</w> 214887
Re tweeted</w> 214857
lar ger</w> 214847
NO THING</w> 214807
Le Bron</w> 214802
D al 214790
#C ho 214785
fig ures</w> 214741
Lat er</w> 214713
SA ME</w> 214693
kn w</w> 214667
week ends</w> 214665
HA D</w> 214619
Ass em 214596
M atch</w> 214590
st olen</w> 214490
Jenni fer</w> 214451
A my</w> 214351
P lea 214344
help ful</w> 214328
Fem ale</w> 214325
Pr int</w> 214317
Den ver</w> 214306
gg le</w> 214291
ma ster 214255
S itting</w> 214245
H emmings</w> 214245
Gr ay</w> 214219
pe tty</w> 214217
:p engu 214214
:pengu in:</w> 214214
N one</w> 214206
gh s</w> 214200
In clu 214192
ino is</w> 214140
g igg 214138
follow back</w> 214111
pri son 214093
# ho 214092
refu ge 214049
K al 214040
St rea 214019
Ver sion</w> 214001
ly - 213990
P ati 213916
as y 213867
D ean</w> 213841
Inter view</w> 213823
pen is</w> 213819
Oc ean</w> 213736
leg ally</w> 213731
P C 213709
ti re</w> 213642
#D eals</w> 213641
supp orts</w> 213612
-- -></w> 213600
enter taining</w> 213599
O B 213567
t am 213556
comm unities</w> 213519
is ation</w> 213505
approxim ately</w> 213497
phra se</w> 213496
in ers</w> 213491
Egy pt</w> 213475
nor thern</w> 213414
H Y 213365
it e 213363
EL Y</w> 213315
ir relevant</w> 213295
Experi ence</w> 213293
lou is</w> 213278
10 00 213272
F igh 213239
Comm ittee</w> 213236
#AL DU 213219
sel ected</w> 213171
revea ls</w> 213159
gg g</w> 213107
ir ates</w> 213106
fla sh</w> 213067
Mar vel</w> 213003
Pro c 212991
ro g 212962
dro ve</w> 212864
To k 212852
S F</w> 212843
Matthe w</w> 212793
ri son</w> 212777
clo wn</w> 212726
A po 212696
4 : 212689
ab ilities</w> 212614
TW O</w> 212612
Rol l</w> 212612
g age</w> 212609
ensi ons</w> 212518
TR Y</w> 212515
a z 212493
S ick</w> 212469
us age</w> 212431
e on</w> 212411
K ES</w> 212390
int ended</w> 212351
Exc ept</w> 212329
link ing_ 212302
:c linking_ 212298
en ses</w> 212270
try in</w> 212227
Twee ts</w> 212211
R est</w> 212209
D utch</w> 212128
Un fortunately</w> 212124
determin ed</w> 212106
f ting</w> 212095
laho ma</w> 211975
OUN D</w> 211967
docum entary</w> 211956
F ab 211928
OM FG</w> 211882
am o</w> 211873
pro ved</w> 211828
Par liament</w> 211817
Go d 211796
To tal</w> 211792
cha sing</w> 211778
v est 211741
in ches</w> 211688
ig e</w> 211625
y t</w> 211511
xi ous_ 211509
law yer</w> 211504
canc el</w> 211498
face_with_ sweat:</w> 211497
:an xious_ 211497
:anxious_ face_with_sweat:</w> 211497
NY T</w> 211464
#C ar 211459
vi bes</w> 211456
B ed</w> 211453
you u</w> 211380
:cat_face_with_ tears_of_joy:</w> 211378
Ad mini 211332
neighbor hood</w> 211315
happ y 211291
it ar 211289
amate ur</w> 211273
organ iz 211121
Ka th 211056
t l 211052
mis sion 211038
Y outh</w> 211005
out break</w> 210987
Lincol n</w> 210980
refer ring</w> 210972
dec ades</w> 210911
Indi ana</w> 210906
un able</w> 210905
or ney</w> 210901
ta p</w> 210878
sp y</w> 210872
Vi et 210847
genu ine</w> 210820
boo t</w> 210789
I E</w> 210788
#h iring</w> 210780
bas ket 210768
re port 210758
Je welry</w> 210719
[...]
