. 483733596
@USER 440261608
the 363011912
, 344722751
I 340413800
to 314340356
HTTPURL 254586319
a 232195461
! 228182419
and 211651636
you 206752607
of 176499626
in 165785698
is 144376601
it 128845577
for 127413598
's 126956615
? 118904888
: 116846153
my 115251669
on 105323226
that 104733153
" 101727687
me 97685789
... 97058312
n't 83402393
with 76046265
be 75846260
do 74895043
this 70632814
- 69804550
at 65059858
have 64745961
i 64611154
was 61811312
so 60656611
'm 59298576
are 58501474
but 55347253
like 54618235
your 54239226
just 53099456
not 52404265
The 49321682
all 45454648
up 42739935
out 40439552
get 40217122
as 39565988
from 39277929
we 37957385
& 37493030
can 36707356
( 36630100
he 36507560
they 36491593
) 36413480
by 35104454
about 34131163
one 34041808
when 33715274
if 33600142
what 33196927
.. 33108926
know 31815767
' 31235157
will 30734973
love 30590368
or 29560310
You 28035824
an 27985022
/ 27281226
It 27239143
now 26863506
time 26334619
u 25437490
no 25312637
're 25182025
go 25148670
people 24830971
how 24186309
#@@ 23930838
would 23693597
who 23688358
:face_with_tears_of_joy: 23511295
more 22936259
has 22824322
his 22723198
her 22561803
day 22013322
good 21905308
see 21627515
want 21128499
she 20856164
“ 20553174
there 20496004
got 20175593
think 20040270
” 19918729
did 19794686
A 19445003
lol 19283766
them 19260382
back 19239104
been 19133124
some 19026652
* 18789236
too 18493821
much 18389343
'll 18179133
need 18145393
make 18091886
really 17980917
going 17315238
had 17232382
2 16967805
've 16940979
only 16764581
My 16516124
our 16434415
him 16017932
If 15886738
This 15777933
new 15722663
today 15682200
can't 15575503
their 15310674
… 15142754
even 15126055
then 15016602
We 14924124
still 14847377
right 14780575
here 14545033
life 14379426
its 14179652
say 14087996
over 14042142
off 13865995
never 13864816
$ 13864634
shit 13859608
why 13840860
were 13837941
us 13786946
than 13751126
:) 13516451
should 13435828
could 13397542
because 13319006
way 13193911
am 13114656
via 12625079
work 12590311
does 12458254
And 12366825
first 11973393
best 11793106
He 11743350
3 11736004
always 11622705
What 11622476
being 11528077
1 11482582
That 11482483
take 11394505
follow 11354740
man 11157317
Do 11124675
In 11043455
feel 10949017
last 10945276
come 10942214
after 10903679
better 10714032
ever 10636784
So 10566243
down 10560464
well 10418357
please 10359269
look 10332487
other 10240124
'' 10168834
into 10148556
someone 10134750
year 10120442
`` 10079990
night 9983100
But 9879895
said 9809181
gonna 9798919
thing 9503918
Just 9379473
let 9366484
these 9341526
im 9326088
great 9216646
something 9133144
video 9127882
How 9072760
4 8900710
When 8897766
again 8827533
any 8761978
; 8726563
where 8684031
New 8651145
5 8578156
game 8576194
before 8555383
made 8549218
girl 8491165
| 8468468
next 8376227
No 8366864
home 8336903
world 8292138
% 8214852
same 8073796
week 8064376
'd 8029040
happy 8000445
most 7992092
bad 7975316
give 7935011
wanna 7921046
school 7893526
-@@ 7887872
fuck 7881206
things 7835221
every 7791719
getting 7764769
They 7754483
also 7716440
tell 7711123
many 7676172
hope 7653583
> 7633384
To 7569326
-LRB- 7550968
-RRB- 7549538
ass 7542130
RT 7462961
:loudly_crying_face: 7425653
which 7403106
very 7389788
Why 7299907
10 7230075
doing 7212672
hate 7184138
years 7169701
two 7149786
s 7059236
wait 7024399
show 6932751
find 6927203
sure 6862238
long 6855353
days 6840822
little 6813937
keep 6795455
watch 6792173
tomorrow 6694900
— 6656718
those 6650927
stop 6649114
done 6640991
mean 6633071
help 6628284
THE 6520621
friends 6493631
play 6473071
put 6458140
YOU 6456479
She 6451112
tonight 6450814
:red_heart: 6443044
Is 6441312
person 6406007
real 6400616
around 6331034
everyone 6282952
talk 6279406
For 6153115
n 6146313
old 6083843
while 6023945
actually 6002020
through 5993094
w 5992405
live 5991810
[ 5988818
guys 5985773
start 5918276
though 5909954
Now 5878839
away 5842370
hard 5833898
U 5830885
dont 5827307
everything 5817374
sleep 5814876
already 5807809
thought 5785713
All 5769345
fucking 5754346
use 5748670
cause 5737256
big 5731638
haha 5679040
x 5674065
ur 5660507
tweet 5644535
] 5644301
lot 5590571
Not 5571026
ya 5549209
makes 5499803
o 5499626
miss 5486309
since 5476885
money 5460538
There 5453477
A@@ 5445500
end 5444813
call 5442193
name 5429042
own 5420744
Me 5408933
try 5381926
trying 5381828
+ 5366195
free 5363653
anything 5338561
Lol 5331009
6 5315615
morning 5304085
’ 5296986
Your 5271605
phone 5234374
having 5214466
Love 5191496
team 5188748
another 5162504
On 5087722
nothing 5084087
until 5065945
God 5056917
friend 5037314
wish 5036313
win 5030698
:( 5023679
care 5020237
looking 5012255
Please 4940633
oh 4939318
myself 4901087
TO 4900195
song 4896428
face 4888880
house 4886382
One 4867629
<3 4854389
such 4820256
K@@ 4811539
won't 4771741
nice 4759831
read 4743674
used 4724264
ME 4721433
girls 4716504
yeah 4705600
believe 4698028
baby 4692449
head 4691509
guy 4687452
7 4655383
S@@ 4648363
making 4641114
family 4629014
without 4575603
Oh 4566752
may 4557357
coming 4543214
Get 4535576
music 4519312
:smiling_face_with_heart-eyes: 4510323
yet 4507229
left 4488649
pretty 4488568
Trump 4487831
fun 4484272
Thank 4480623
bitch 4473943
heart 4473019
birthday 4454799
anyone 4452543
talking 4441588
S 4436999
might 4426983
Thanks 4416446
~ 4407706
watching 4404271
soon 4399051
seen 4382929
k@@ 4382481
mind 4381145
part 4366066
AND 4344424
ain't 4338951
T@@ 4332116
wrong 4330589
amazing 4330203
Good 4329171
P@@ 4319518
thank 4297996
B@@ 4293621
mom 4278330
says 4274346
s@@ 4256149
bed 4229465
both 4227421
times 4223363
Can 4220742
enough 4188749
D@@ 4130736
place 4126579
change 4115728
thanks 4112590
few 4104803
whole 4090430
else 4088888
went 4086609
hair 4072320
20 4071916
un@@ 4069162
8 4066100
told 4032592
G@@ 4017183
Day 3993596
playing 3982885
must 3970811
saying 3965509
Have 3961729
looks 3957124
Who 3949855
N@@ 3936282
12 3922084
twitter 3906564
ask 3900827
Like 3888584
M@@ 3888107
tho 3885334
job 3878011
With 3873826
season 3864077
y@@ 3862994
lmao 3857887
sorry 3857690
nigga 3856106
beautiful 3854033
# 3853694
Happy 3840529
MY 3834971
stay 3834517
y 3820177
ready 3816037
E@@ 3804735
C@@ 3785247
hear 3763807
liked 3762364
b 3757680
Let 3754382
remember 3733503
true 3729714
point 3728255
against 3723340
yes 3715716
gotta 3712184
class 3701890
probably 3698101
high 3698051
leave 3696044
Check 3687287
called 3674954
far 3671673
Of 3646549
:weary_face: 3643855
cute 3643850
hours 3643733
car 3640584
gone 3631212
IS 3604587
r 3600404
O@@ 3595092
C 3594201
damn 3570677
cool 3563731
As 3560592
able 3560059
m 3555137
gets 3545205
Well 3542180
re@@ 3535938
ok 3528595
weekend 3517157
i@@ 3514274
saw 3499184
hit 3491376
F@@ 3490568
funny 3487336
e@@ 3476127
found 3475354
;) 3473237
:smiling_face_with_smiling_eyes: 3468777
SO 3464425
in@@ 3457280
R@@ 3449927
Ca 3444695
top 3438205
_@@ 3437582
L@@ 3421432
together 3421372
a@@ 3413775
food 3406593
boy 3401332
US 3400951
eat 3391315
15 3390711
Are 3384535
– 3384497
run 3374411
k 3370158
yourself 3368549
least 3362219
W@@ 3357830
9 3340654
d@@ 3336654
okay 3333697
t@@ 3329227
H@@ 3303433
I@@ 3301244
At 3296342
full 3294301
party 3288909
buy 3287405
100 3281506
room 3274603
t 3273624
guess 3271916
needs 3271624
came 3270713
once 3268140
sex 3263051
working 3259061
understand 3247530
check 3245501
IT 3241810
Twitter 3232624
< 3229007
support 3222860
women 3216877
movie 3216005
4@@ 3215892
reason 3214200
Im 3208434
stuff 3208433
maybe 3193588
during 3192320
sad 3190381
side 3187186
O 3186996
each 3178298
x@@ 3172765
kids 3165946
post 3155031
between 3150275
p@@ 3139680
early 3139574
black 3124836
feeling 3118911
ago 3117493
hot 3107462
^ 3105961
wanted 3093366
different 3086855
lost 3070694
c 3068340
m@@ 3066656
under 3065815
IN 3063903
thinking 3059865
:unamused_face: 3051505
30 3048130
took 3029799
wants 3029231
book 3028922
hell 3026695
taking 3021297
People 3020429
:D 3019177
bc 3011872
later 3010010
b@@ 3004128
n@@ 2997234
:heart_suit: 2996228
set 2995702
J@@ 2988721
= 2987834
bit 2985845
d 2975221
news 2974697
favorite 2972691
Hey 2966220
white 2962812
News 2961910
11 2959641
crazy 2959242
Hi 2958435
mad 2957012
Y@@ 2940703
half 2939730
Be 2938084
others 2915949
story 2915645
less 2915472
g@@ 2891432
‘ 2868670
comes 2862165
B 2862080
open 2852570
text 2851440
second 2842556
started 2841507
al@@ 2837298
.@@ 2832744
Its 2830155
o@@ 2829851
late 2826769
Today 2826439
number 2815995
country 2810055
18 2787859
D 2784202
past 2780900
cant 2771950
h@@ 2764139
line 2759980
heard 2757284
kind 2751650
5@@ 2746466
Here 2744088
men 2741519
de 2732860
yo 2730666
50 2730529
goes 2727718
6@@ 2726980
V@@ 2726915
:two_hearts: 2723222
THIS 2722793
M 2718940
en@@ 2712163
Great 2708598
die 2699530
literally 2692649
Black 2689591
eyes 2682200
7@@ 2681384
19 2680427
2@@ 2676901
excited 2658692
following 2654875
games 2654349
Go 2653097
perfect 2652693
World 2648739
meet 2639231
z 2636978
almost 2635396
U@@ 2633795
z@@ 2633531
j@@ 2628995
F 2628825
dad 2625628
Did 2625458
album 2625283
break 2618386
hour 2618245
moment 2614454
bring 2614251
anymore 2612034
tweets 2601130
god 2599392
3@@ 2593368
Yes 2584948
13 2584645
er 2583880
move 2583574
es 2580461
matter 2575448
son 2574481
turn 2572502
idea 2569690
May 2568314
means 2565973
AM 2565860
Time 2563976
#S@@ 2558354
u@@ 2557941
g 2555522
c@@ 2551679
body 2547860
v@@ 2546349
16 2546024
fans 2544587
pay 2543144
happen 2538082
:face_blowing_a_kiss: 2535507
2016 2534015
w@@ 2530317
an@@ 2529107
Some 2526318
waiting 2524925
stupid 2520406
After 2515747
T 2509639
words 2507471
p 2507466
fact 2506582
fan 2506521
fall 2505698
bout 2504688
LOVE 2501153
f@@ 2501034
either 2499030
See 2497478
single 2495100
awesome 2493910
close 2483278
omg 2483100
Friday 2481920
boys 2480886
Best 2479298
9@@ 2477260
OF 2477223
woman 2474377
PM 2470457
listen 2469521
2015 2466918
minutes 2465014
word 2454768
forget 2453198
tired 2451793
using 2450361
vote 2448163
ate 2447492
American 2437304
ppl 2434763
business 2428194
Will 2421655
rest 2420727
Only 2417655
Z@@ 2412113
smile 2403986
three 2402734
da 2402399
8@@ 2400308
er@@ 2400180
picture 2399485
summer 2397897
L 2397702
ing 2394773
X 2391398
Man 2388327
dream 2385310
mine 2384657
_ 2381634
14 2373650
es@@ 2366213
ones 2350487
problem 2349213
send 2345911
followers 2341981
ON 2337178
alone 2336021
From 2330470
water 2325376
added 2324651
worth 2315359
K 2313668
month 2311836
R 2306696
More 2303498
h 2302275
Yeah 2301914
ed 2301545
y'all 2298203
chance 2290763
hand 2289656
fight 2288644
ers 2287806
ar@@ 2280548
on@@ 2279861
vs 2273806
v 2272290
deal 2266403
bro 2265574
25 2259809
finally 2254448
seeing 2250576
proud 2247722
ill 2244832
Christmas 2243492
en 2240918
Life 2231362
:OK_hand: 2226438
sick 2221477
N 2220971
brother 2218263
beat 2214035
weeks 2206206
hey 2205923
17 2204280
months 2202999
FOR 2202630
Our 2198583
City 2196816
instead 2195939
walk 2193337
played 2191822
th@@ 2189026
l@@ 2181244
P 2177037
:beaming_face_with_smiling_eyes: 2173413
dead 2172634
won 2166767
account 2164546
till 2161086
age 2161031
Hope 2160021
power 2158702
niggas 2157249
First 2156091
em 2155897
fine 2153916
NOT 2152992
ha 2146077
state 2145651
e 2140465
These 2140075
r@@ 2138426
ing@@ 2137627
Up 2137432
asked 2134102
young 2131660
hi 2124901
case 2124073
city 2121305
knew 2120948
X@@ 2120361
future 2119150
cry 2107028
gave 2106940
course 2104143
dude 2103602
become 2102641
:smiling_face: 2101277
hahaha 2098764
yesterday 2097596
pic 2095299
TV 2094007
giving 2091657
G 2090071
His 2088414
ma@@ 2086606
na 2086085
In@@ 2080921
l 2079535
group 2068032
PLEASE 2065241
America 2061958
idk 2061229
hurt 2060659
24 2059463
E 2057804
wonder 2051247
Come 2050851
Or 2047928
dog 2046159
FOLLOW 2043339
0 2038438
important 2034723
kill 2032542
sister 2031823
online 2030987
list 2030693
wear 2028174
LOL 2027643
glad 2027130
question 2023846
): 2023392
-- 2020833
forever 2018508
:pensive_face: 2017592
xx 2017198
:/ 2016348
happened 2016045
knows 2010700
forward 2008351
learn 2004128
small 1997682
behind 1997030
weird 1995769
Never 1989946
media 1987905
cuz 1983840
Follow 1979987
UK 1971705
lose 1965819
is@@ 1962941
thats 1962461
Video 1960447
United 1951344
Got 1945906
outside 1941368
10@@ 1940438
cut 1933745
lie 1925056
:folded_hands: 1922689
link 1922028
By 1921296
order 1917823
light 1916888
sometimes 1915490
seriously 1912288
£ 1908750
White 1907120
Big 1906146
living 1903913
(: 1898098
parents 1893562
Watch 1892407
rather 1889107
1st 1886801
#B@@ 1886415
Free 1886250
act 1885272
f 1884954
ha@@ 1878254
John 1876834
hold 1873847
takes 1871623
W 1870097
IM 1868237
Where 1867885
wake 1867309
football 1866972
running 1866059
Haha 1864787
21 1864169
worst 1862900
tried 1862744
swear 1857765
kid 1855969
to@@ 1854997
Sunday 1854627
40 1852091
2014 1849638
Maybe 1849454
date 1845038
♡ 1837931
town 1836046
voice 1835843
ah 1835391
pick 1835369
li@@ 1833802
easy 1828950
enjoy 1822727
death 1822560
Weather 1816956
special 1813663
stand 1813617
it@@ 1813456
smh 1811340
front 1809922
cold 1807517
share 1806873
couple 1805819
NO 1801778
children 1800463
#C@@ 1798469
ch@@ 1794087
ALL 1792193
Saturday 1787506
fire 1787252
Facebook 1787072
sh@@ 1780253
luck 1773313
Then 1771693
Fuck 1765109
sweet 1764619
due 1762015
red 1750238
2017 1749390
social 1748507
seems 1745224
type 1739040
Make 1739007
definitely 1736596
‍ 1733129
shows 1731834
House 1730203
Top 1725807
or@@ 1724560
answer 1721766
lil 1717615
public 1716836
:smirking_face: 1715204
college 1714843
known 1713258
Live 1710388
kinda 1709345
service 1702390
plan 1699988
shot 1699796
listening 1698054
ts 1696449
1@@ 1696161
strong 1696111
pictures 1694120
al 1687460
Y 1685520
hands 1681428
Would 1680260
nobody 1679705
Even 1678402
along 1676145
H 1675443
:@@ 1674115
THAT 1673806
drive 1671682
2018 1670211
NEW 1669367
straight 1667369
series 1665395
Was 1664847
2013 1664517
child 1664000
fast 1663728
pls 1663377
:thumbs_up: 1661707
drink 1659261
laugh 1656625
Music 1654394
di@@ 1651463
Out 1650373
st@@ 1649086
sense 1648196
ma 1647006
songs 1646696
at@@ 1646629
ball 1644750
° 1636075
super 1635241
agree 1633568
feels 1632829
Obama 1630088
sound 1628863
President 1628329
State 1626580
join 1626315
million 1623416
Every 1623305
:-) 1623096
trust 1621405
reading 1618327
#T@@ 1618248
player 1613976
starting 1612233
level 1603898
Still 1603763
ation 1603025
short 1602802
:hundred_points: 1602053
Because 1600301
self 1598850
el@@ 1598783
York 1598307
loved 1597189
born 1596817
fake 1594761
works 1593260
Also 1592341
la@@ 1589151
film 1588464
ri@@ 1588174
low 1585702
wit 1584706
yours 1580948
Full 1578180
app 1578166
am@@ 1577190
:flushed_face: 1574770
sounds 1571776
Monday 1571282
ice 1570812
honestly 1570392
Wow 1569919
School 1567132
eating 1566842
OMG 1563520
page 1562693
available 1562463
de@@ 1561888
followed 1557824
watched 1554984
deserve 1553133
videos 1552405
22 1551474
Last 1546646
Take 1546233
2019 1546027
ra@@ 1544270
history 1543695
episode 1540369
missed 1540236
ro@@ 1539187
be@@ 1538403
save 1538202
le@@ 1537542
system 1537353
porn 1534586
met 1531586
:face_with_rolling_eyes: 1528528
club 1527569
telling 1526191
government 1524110
Really 1520350
lo@@ 1519554
sign 1516642
pass 1515054
human 1513272
South 1512494
relationship 1511418
area 1510477
aint 1509809
company 1508926
:raising_hands: 1508840
near 1504944
inside 1504196
weather 1502896
test 1501922
players 1499474
art 1498990
London 1497137
fucked 1496392
Does 1495716
0@@ 1495288
About 1493774
An 1493751
visit 1491374
bet 1491312
sit 1490850
sent 1489243
se@@ 1486732
Look 1486613
playlist 1485278
ly 1482980
truth 1481243
somebody 1480156
la 1478896
needed 1476948
Her 1474007
land 1473893
bitches 1473123
wow 1472533
realize 1471619
pain 1470589
possible 1469392
se 1465976
ka 1464949
as@@ 1464582
speak 1460890
dumb 1458469
photo 1458396
crying 1457458
problems 1456771
worry 1454426
pics 1454259
serious 1450623
happens 1450002
respect 1448818
loves 1446712
July 1446088
spend 1444786
Need 1444173
bought 1443725
ic@@ 1442452
taken 1438862
#P@@ 1436910
control 1434124
th 1433191
everyday 1432267
le 1429303
Re@@ 1427642
gay 1427306
#A@@ 1422082
Keep 1421811
asking 1419992
India 1419647
dis@@ 1418692
exactly 1418544
mother 1416916
NOW 1416657
wife 1416361
whatever 1415915
23 1415607
final 1415318
wearing 1415137
Sometimes 1413393
lead 1409948
ARE 1409867
worse 1409304
2nd 1408482
write 1407145
#M@@ 1406383
ab@@ 1406102
DO 1405598
Sorry 1405496
2012 1404797
king 1404319
Most 1402333
#D@@ 1398840
looked 1396436
office 1394058
ugly 1391790
BE 1390480
movies 1389902
dance 1389203
Back 1388326
joke 1388278
band 1386551
mouth 1384577
sing 1383715
April 1381405
ed@@ 1380571
The@@ 1380036
per 1379969
ti@@ 1378754
em@@ 1378649
seem 1378567
health 1377652
ta@@ 1373740
often 1373235
experience 1372313
:thinking_face: 1371922
To@@ 1370419
Everyone 1370385
war 1370252
catch 1368692
Justin 1367605
West 1366868
Stop 1365419
• 1365288
ated 1364908
changed 1364872
shut 1364026
RE@@ 1363796
DM 1362632
forgot 1361445
boyfriend 1359809
given 1357723
:medium_skin_tone: 1355595
event 1355501
door 1355483
dick 1355004
do@@ 1354068
March 1350908
High 1350717
air 1350602
English 1350584
J 1350033
ho@@ 1347877
road 1347754
tickets 1346188
AT 1345649
round 1344700
Un@@ 1341595
Home 1340687
killed 1339718
Women 1337876
bus 1336506
store 1336002
scared 1333908
lives 1333738
pm 1331548
#F@@ 1331453
broke 1330657
match 1330490
based 1328345
trip 1327979
including 1323381
attention 1320838
field 1320829
safe 1320514
fat 1319933
Another 1319826
the@@ 1318860
law 1316586
FREE 1315262
:light_skin_tone: 1314623
longer 1314220
Ma@@ 1314157
died 1312810
Lmao 1310879
:clapping_hands: 1310397
ft 1309300
:winking_face: 1306782
supposed 1305119
V 1304755
drop 1303307
local 1303076
annoying 1302955
paid 1302276
entire 1302104
re 1300597
June 1300348
tryna 1300061
Red 1298425
everybody 1297431
calling 1296771
te 1296070
USA 1294690
rt 1293039
National 1291374
ad@@ 1290295
North 1289501
points 1288331
students 1286676
piece 1285695
biggest 1285134
Al@@ 1284544
felt 1282473
ar 1282374
card 1281210
led 1281017
quite 1280460
photos 1278857
sexy 1277898
26 1277685
cover 1276557
co@@ 1275840
rain 1275236
yall 1272539
meant 1272200
UP 1272043
anyway 1271676
four 1267904
Someone 1266185
28 1265899
ima 1263444
ride 1260550
Game 1260446
finished 1260083
middle 1258763
il@@ 1257032
ting 1256779
star 1254559
Could 1254255
add 1252733
goal 1252352
:purple_heart: 1251279
#G@@ 1250165
Damn 1248969
27 1248178
Jesus 1247683
iPhone 1247190
:fire: 1246986
si@@ 1246114
bo@@ 1245955
wtf 1244556
Read 1243286
finish 1242910
minute 1242532
lady 1242329
gives 1241518
became 1241151
box 1240673
sitting 1240254
lovely 1240117
Apple 1239857
ac@@ 1237681
site 1237463
huge 1236942
YOUR 1236938
Girl 1236307
ee 1235987
issue 1235536
didnt 1235441
Should 1234988
latest 1234300
Show 1234278
cat 1233389
af 1229441
Party 1228956
Mar@@ 1228637
:grinning_face_with_sweat: 1227992
missing 1226390
Looking 1225367
starts 1224811
police 1223336
message 1223061
across 1222979
GO 1222563
:medium_light_skin_tone: 1222318
record 1221815
WE 1221020
:rolling_on_the_floor_laughing: 1221012
An@@ 1219962
Michael 1219881
JUST 1216985
poor 1216470
posted 1216382
:musical_notes: 1214428
and@@ 1213105
ways 1211790
Mo@@ 1211626
busy 1210634
drunk 1210298
dinner 1205353
eye 1203864
mate 1203736
throw 1203718
ko 1201939
Photo 1201170
ia 1199342
University 1198479
within 1198433
#W@@ 1198379
LIKE 1197968
Nothing 1197459
babe 1196494
James 1193240
asleep 1192690
main 1191689
Going 1190405
China 1190043
form 1189123
website 1188091
feelings 1188080
thinks 1185334
coronavirus 1184967
August 1184586
especially 1183224
questions 1182110
etc 1180765
Year 1180625
mood 1180310
step 1179260
De@@ 1179216
turned 1179115
ine 1178916
himself 1176397
im@@ 1173775
no@@ 1173541
fit 1171231
books 1170323
yea 1169355
Had 1168660
Mr 1168518
totally 1166913
bu@@ 1166467
coffee 1165621
Too 1165172
Real 1164889
Two 1164590
welcome 1164359
study 1159729
pussy 1158749
likes 1158357
blue 1158340
#N@@ 1157967
St 1155808
Right 1154267
expect 1152297
Want 1151803
version 1150944
ang 1150794
interesting 1150613
issues 1146533
email 1146153
mm 1145898
November 1144944
lets 1143773
key 1143719
Lord 1143555
lucky 1142184
60 1140786
space 1139259
om@@ 1138725
ec@@ 1137605
community 1136997
WHAT 1135192
walking 1134779
ba@@ 1134262
paper 1134052
lies 1134039
track 1132083
tv 1132082
17@@ 1131952
themselves 1131942
dreams 1131747
Ar@@ 1131666
absolutely 1131222
style 1130813
29 1128078
el 1127930
#K@@ 1126278
sa@@ 1124329
Birthday 1123338
go@@ 1123145
ating 1123081
WITH 1120788
gift 1120579
rn 1120414
90 1118419
members 1117227
writing 1116097
BUT 1115487
Star 1114721
ted 1114380
Park 1114243
ke 1113782
reply 1113503
Night 1113327
Sh@@ 1112675
leaving 1111993
12@@ 1110217
grow 1108806
action 1108526
attack 1107676
ONE 1107024
dress 1106142
:sparkling_heart: 1105900
released 1105169
sucks 1102581
King 1102296
Ha@@ 1101112
ley 1100058
Q@@ 1099924
usually 1099683
ur@@ 1099001
16@@ 1098999
blog 1098872
code 1098774
meeting 1098289
bored 1095977
truly 1094656
:medium_dark_skin_tone: 1094257
chat 1093715
ag@@ 1093462
dark 1092236
deep 1091803
choice 1091702
Baby 1091535
Car@@ 1091284
gym 1090800
Bo@@ 1090564
info 1090217
extra 1088577
tour 1088301
wonderful 1087694
Harry 1087049
mo@@ 1086988
fuckin 1086667
plans 1085082
woke 1084209
October 1083741
race 1083495
rock 1083297
:female_sign: 1083253
HAVE 1082745
ey 1081741
moving 1080570
States 1080509
for@@ 1079942
Ok 1079599
calls 1079436
David 1078549
completely 1078508
#R@@ 1077617
lots 1074644
Business 1074631
member 1074499
sun 1074002
quick 1073864
imagine 1073644
lunch 1072981
December 1072802
et 1072097
touch 1071767
project 1071275
notice 1070886
pe@@ 1070401
Google 1068609
Co@@ 1067255
building 1066854
tbh 1066720
ta 1066574
chill 1066175
Buy 1065808
shirt 1065734
ant 1065627
father 1065088
Radio 1064734
clean 1064576
appreciate 1064240
For@@ 1063193
tweeting 1062905
putting 1062747
concert 1059805
na@@ 1059435
bag 1059275
size 1059147
ton 1059066
five 1058652
id 1057308
Blue 1056855
wall 1056208
ahead 1054479
3rd 1053801
January 1051850
um 1051462
Thursday 1051376
named 1051257
15@@ 1050483
County 1048995
:P 1048816
character 1048626
Okay 1048342
release 1047618
con@@ 1046442
e-@@ 1042886
train 1042159
report 1042045
laughing 1041910
:skull: 1041777
president 1040780
ds 1040459
` 1040416
Join 1040336
sp@@ 1038524
September 1035581
:sparkles: 1035089
Hello 1034856
Channel 1034417
#The@@ 1034234
worked 1033094
:see-no-evil_monkey: 1032854
45 1032681
spent 1032612
clothes 1032250
stuck 1031713
km 1031076
continue 1030330
Always 1029841
Men 1029162
:victory_hand: 1028815
clear 1027456
ca@@ 1025762
:relieved_face: 1025295
driving 1025150
me@@ 1024972
sleeping 1024827
nah 1024577
article 1023470
Listen 1022905
winning 1022792
complete 1022693
Super 1021319
13@@ 1020228
personal 1019912
Chris 1019069
teacher 1019004
:smiling_face_with_sunglasses: 1018724
major 1017839
currently 1017696
su@@ 1017307
daughter 1016576
view 1016374
min 1016372
:party_popper: 1016217
suck 1015430
choose 1014722
Z 1014692
difference 1014484
31 1013318
id@@ 1012256
market 1012231
#L@@ 1012228
fair 1011203
ana 1011125
decided 1010305
bs 1009628
14@@ 1009206
Call 1009176
shop 1008701
stories 1007608
:crying_face: 1007381
nd 1006592
:eyes: 1005979
skin 1005744
Paul 1003666
Wind 1003532
stage 1001462
brought 998309
ps 998278
energy 998114
career 997303
opinion 997167
England 996232
present 995994
price 995224
British 994877
Know 994183
singing 993702
information 993526
return 993054
earlier 992914
:pouting_face: 992475
fell 992315
Very 992217
wa@@ 992190
soul 992178
18@@ 990652
War 988342
car@@ 988039
simple 987931
Next 987892
End 987688
bar 987584
total 985984
ly@@ 985597
league 985156
Off 984894
Canada 984623
St@@ 983775
political 983390
San 983260
#E@@ 982813
thoughts 981957
kiss 981584
Girls 981451
Ro@@ 981437
:blue_heart: 981399
LA 981398
radio 981230
hang 981208
Omg 980336
sale 980277
os 978994
Tuesday 978522
ad 977964
pa@@ 976215
board 975141
xxx 974705
ina 974472
po@@ 973326
Over 972820
happening 972144
married 971598
Mc@@ 971473
League 971206
teams 971077
Tell 969601
ex@@ 968157
female 967817
original 967747
Cause 967445
ir@@ 966974
80 966856
keeps 966231
my@@ 963403
ex 962423
Any 962036
MA@@ 961789
per@@ 961166
Con@@ 960683
OUT 958391
Been 957996
Think 957978
period 957884
practice 957705
held 957524
ks 957444
35 954654
ID 954110
feet 953807
gon 952932
church 952806
figure 951726
#H@@ 951557
ie 951350
sell 951045
positive 949946
IF 948975
Cup 947619
spot 947174
offer 946839
training 946510
several 946486
Hot 946193
st 946120
q@@ 945990
#I@@ 945683
caught 945552
FUCK 945343
:sleeping_face: 943995
Shit 943316
over@@ 942160
ay 940870
normal 940233
MUCH 940184
et@@ 939684
GET 939126
broken 938839
shower 938443
knowing 937887
station 937763
shoes 935902
Being 935505
ee@@ 935428
success 934776
IN@@ 931706
Q 931665
Team 931134
brain 930403
naked 930252
election 927822
slow 926176
interested 925858
sa 925832
data 925672
fix 925557
ne@@ 923248
Air 922730
dat 922655
trade 922299
position 921996
situation 920872
ive 918940
Find 918079
ates 916149
large 915617
Give 914635
wont 914459
ter 913730
:expressionless_face: 913626
killing 912075
jobs 911559
allowed 911201
ou@@ 911189
hoes 911131
current 910289
French 910127
til 909866
ter@@ 909577
yu 909442
Watching 909362
WAS 909035
unless 908858
details 907432
pop 907314
ol@@ 906549
older 905149
peace 905009
Di@@ 904444
ring 904293
alive 903855
update 903332
Daily 903268
hoe 901455
ends 901407
of@@ 901194
street 900821
Idk 899646
Click 898632
Getting 897970
ship 897758
ran 896550
Wednesday 895966
performance 895452
Summer 895429
amount 895325
1.@@ 895251
j 895243
ak@@ 894860
tax 894855
Dr 894689
former 893814
Wish 893737
Green 892866
shopping 892827
CAN 892653
'@@ 892316
fighting 892216
ent@@ 892126
ES 891271
treat 891089
color 890780
happiness 890354
weight 890170
smart 889015
Which 888454
:growing_heart: 888319
mess 888287
Ch@@ 887569
kick 887425
tf 886953
us@@ 886861
showing 886840
acting 886447
mum 886414
daily 884801
role 884294
hi@@ 884281
ea@@ 883713
third 883053
4th 882604
green 881803
ans 881646
pull 881546
70 880976
block 879797
hurts 878951
ty 877722
except 877332
Dear 877194
Street 877007
random 875370
blood 874611
plus 874147
Po@@ 873884
Am 873349
internet 872819
xD 871624
national 871229
promise 871042
bi@@ 870664
floor 870260
Updates 870194
quality 869936
girlfriend 869891
Set 869869
certain 868050
Health 867693
ations 866565
handle 865971
Nice 865807
Book 865531
qu@@ 865202
explain 865140
Little 864408
gun 863091
awkward 862988
contact 862451
seconds 862375
ay@@ 861963
ish 861569
ies 861311
loving 861076
Family 860146
um@@ 860080
wrote 859952
smoke 859468
Times 859191
20@@ 859176
official 858672
pizza 857851
11@@ 857756
moved 857546
No@@ 856763
YouTube 855599
ve 854389
33 854369
count 854339
title 854241
Anyone 854157
ke@@ 852544
stars 852037
build 851959
ling 851568
lying 851207
HE 850954
created 850659
dying 849588
mins 849174
create 848615
Gold 848171
Rain 847741
rich 847359
losing 846612
Brown 846578
Remember 846281
fear 846236
ys 845772
:p 845691
AL@@ 845666
California 845599
beach 844045
afraid 843834
500 842483
screen 842426
Instagram 841990
coach 841617
profile 841603
Ho@@ 841577
park 840447
Has 840386
01 840255
Texas 840225
Bar@@ 838499
reach 838364
NY 838163
interview 838110
table 837419
towards 837138
goals 836863
design 836162
chicken 835887
ings 834188
East 834117
sports 831097
homework 831074
fly 830797
OH 829904
reality 829134
ion 828752
bullshit 827409
decision 826463
Taylor 826117
score 825973
Help 825968
32 825967
Social 825764
judge 825484
ticket 823168
written 823111
WHY 822800
Week 822584
opening 822561
likely 822064
tea 821632
common 821002
court 820975
favourite 820116
Way 819845
200 819379
sky 819160
sk@@ 818528
drinking 818351
stick 817306
Me@@ 817015
boring 816994
ground 816972
sis 816342
ne 816129
received 815597
Pro@@ 815088
cream 814769
Club 814561
:upside-down_face: 814470
evening 813926
doubt 813787
En@@ 813761
waste 813722
snow 813233
ons 812788
conversation 812500
op@@ 811639
ian 811472
roll 809868
ki 808660
man@@ 808289
ended 807770
hungry 807534
gu@@ 807152
Online 806884
February 806852
alright 806518
dy 805482
cup 805062
somewhere 804788
Since 804667
advice 804538
pre@@ 804173
Stay 804077
twice 803403
Everything 803300
sold 803202
blame 803054
wins 801698
honest 801522
plays 801375
closed 801093
est@@ 800847
term 800787
Finally 800750
student 800523
holiday 799973
ni@@ 799808
loss 799494
stopped 799041
OR 798887
lmfao 798370
Things 798079
shoot 797757
pray 797595
ul@@ 797492
built 797297
George 796578
bye 796197
stream 795966
places 795698
beer 794949
mention 794596
scene 794027
Media 793884
kept 793537
II 793153
racist 792962
ve@@ 792932
force 792871
upset 792433
College 792006
loud 791915
:person_tipping_hand: 791869
boo 790529
While 790281
:person_shrugging: 790217
none 789831
tells 789820
actual 789110
double 788757
bar@@ 788729
research 788579
travel 787573
ba 787289
focus 787121
out@@ 786505
realized 786484
process 785471
greatest 785451
99 785224
ker 785151
learned 785021
ent 784850
bless 784768
pissed 783913
voted 783778
cousin 783742
response 783678
channel 783632
EU 783463
pro@@ 782663
VIDEO 782298
gold 782042
thru 782033
holding 781634
above 781538
boss 780768
ED 780643
der 780449
Australia 780379
program 779700
Ba@@ 778927
breakfast 778764
Coronavirus 778431
Work 777957
campaign 777845
shall 777745
___ 777519
cost 776191
grade 776071
La@@ 775826
CA 775809
mo 775777
drama 775758
up@@ 775196
private 775155
AN@@ 774810
Art 774640
Lady 774361
chocolate 774154
earth 773968
est 773967
buying 773829
ER 773731
model 773576
Say 772468
artist 771415
Those 771303
ness 771137
Par@@ 770809
Chinese 770641
Miss 769829
nap 769786
dear 768989
results 768879
Hahaha 768510
GOD 768229
Go@@ 768065
:tired_face: 767302
credit 767079
mph 766820
Morning 765853
ch 765813
leader 765666
rights 765446
basically 764141
Americans 763452
cake 763369
Russia 762264
sc@@ 761895
famous 761879
Ad@@ 761670
ge@@ 761589
tears 761396
pants 761135
whether 761077
names 760972
Chicago 760887
ver@@ 760634
dm 760410
husband 760307
mi 759922
HA@@ 759308
sm@@ 758828
Florida 758515
jealous 758471
Open 758267
ens 757831
ss 757312
comment 756571
jus 756531
Post 756238
75 755539
:winking_face_with_tongue: 755400
Wait 755333
taste 755166
Long 755156
language 755141
WILL 754726
sha@@ 754414
Sha@@ 754185
popular 754107
ily 754032
passed 754012
International 752933
di 752640
learning 752383
so@@ 752041
LIVE 750013
services 749478
wedding 749436
Money 749422
bank 748987
surprised 748787
hoping 748657
review 747846
dogs 746913
Looks 746576
Lo@@ 746403
Center 745134
hello 744632
crap 744495
goin 743607
Police 743337
les 742720
classes 742645
gas 741990
involved 741380
Washington 741316
beginning 741148
press 741113
general 740510
imma 739840
hopefully 739702
DAY 739216
accept 738428
Old 738417
ss@@ 737115
bunch 736707
#NowPlaying 736213
ugh 736054
ms 735836
ideas 735532
2008 735499
changes 735067
falling 734858
:grinning_face_with_smiling_eyes: 734667
Gotta 734586
lazy 734579
soo 734368
claim 734244
warm 732726
OK 732401
Down 732046
Part 731957
miles 731810
Power 731770
confused 731538
48 731250
Indian 731170
lay 730546
#J@@ 730335
teen 730260
der@@ 730166
TL 730165
ITS 729875
AN 729664
On@@ 729583
challenge 728789
sharing 728334
keeping 727960
ant@@ 727438
outta 727047
Boy 726845
healthy 726421
:') 726378
ep@@ 726216
Size 726031
However 726008
Playing 725944
ru@@ 725616
Better 725485
kin 725368
fa@@ 725328
Do@@ 725195
example 725192
FUCKING 725010
clearly 724608
upon 724518
Their 723948
fav 723572
mar@@ 723373
further 723204
ST@@ 723111
basketball 722672
KNOW 722512
events 722050
Dont 720957
terrible 720263
vi@@ 719841
cos 719240
Play 718449
bigger 718248
Young 718100
il 717851
brand 717844
par@@ 717484
signed 717483
Congrats 717193
legs 716792
ending 716259
UN@@ 716127
talks 715817
helping 715403
row 714052
ins 713360
da@@ 713281
gh@@ 713272
HAPPY 713209
hearing 712150
Amazon 711864
content 711775
security 711695
0.@@ 711620
Africa 711470
stats 711291
decide 711133
ge 710993
mis@@ 710631
fully 710351
beyond 710127
trouble 709073
Bill 708988
opportunity 708811
LO@@ 707925
staff 707811
Joe 707714
Japan 707603
My@@ 707278
Mark 707225
＠ 707173
weak 706969
six 706282
Donald 706028
Europe 705635
Once 705503
ic 704529
secret 704315
reasons 704264
Try 704191
folks 703893
ING 703637
:confused_face: 703599
36 703525
Bitch 702592
Le@@ 702176
Ever 700869
average 700618
Ra@@ 700357
:neutral_face: 699859
obviously 699103
Many 698513
fault 697819
daddy 697598
France 697478
growing 697253
rate 696610
ev@@ 696568
Road 696175
spread 695635
Tom 694931
memories 694803
DC 694729
published 694673
sir 694410
ous 694399
computer 694296
ler 693848
Li@@ 693526
simply 693246
Price 692772
tweeted 692561
education 692552
tt@@ 691863
Before 691490
beauty 691302
YES 690583
Rock 690254
:face_savoring_food: 689243
ye 689085
Bad 689010
Dis@@ 688562
eBay 688124
wood 687133
value 687125
effort 687122
Job 687019
population 686646
retweet 686527
fam 686382
AC@@ 686034
fish 685876
du@@ 685860
letting 685777
interest 685693
afternoon 685396
runs 685364
ber@@ 685019
als 685008
Learn 684830
2009 684828
hat 684624
kno 683845
wild 683725
Series 682603
Seriously 682156
tr@@ 681879
nude 681567
anybody 681474
gi@@ 681353
US@@ 681273
note 680717
Hate 680020
awake 679470
HD 679229
nights 678994
Luke 678300
angry 677712
selling 677563
Download 677073
ator 676998
Mike 676589
ka@@ 676569
military 676230
Be@@ 676203
turns 676126
seat 675914
traffic 675535
eb@@ 675487
Mu@@ 675398
lu@@ 675397
Having 675367
Sa@@ 675363
AS@@ 675298
exist 675019
HOW 674424
sort 674354
Use 673875
:broken_heart: 673627
Made 672909
speaking 672904
apparently 672718
ignore 672689
arms 672308
sh 672251
apart 672177
camera 672144
bday 672099
wine 671791
ig@@ 671738
Pretty 671682
34 671598
Mom 671311
schools 671247
Guess 670793
among 670204
Official 670117
draw 670096
window 669833
gorgeous 669769
worried 669587
ability 669290
recently 669114
comments 668862
rules 668695
charge 668489
paying 667950
shame 667832
00 667779
result 667712
ff@@ 667696
ten 667269
:person_facepalming: 666924
flight 666816
ding 666024
tough 665879
blessed 665580
Louis 665398
95 664893
2007 664587
allow 664277
:face_with_steam_from_nose: 664120
ga@@ 663935
numbers 663575
Date 663280
cars 663156
:male_sign: 663092
dropped 662899
Smh 662579
difficult 662242
XD 661913
LOOK 661904
aw 661744
Or@@ 661540
eh 661284
scary 660564
countries 660194
:disappointed_face: 659882
Group 659396
lately 659365
include 659223
itself 658687
mama 658409
dirty 658330
Hillary 657906
ra 657710
TS 657554
#O@@ 656936
winter 656863
bill 656808
heat 656730
nation 656479
nearly 655924
fresh 655658
wi@@ 655061
Gonna 654932
AR@@ 654606
voting 654602
Humidity 654160
dnt 653979
pp@@ 653928
fail 653878
pack 653368
teach 653293
PC 653085
q 652835
industry 652466
tips 652070
ll 651618
Yo 651440
yr 651403
Care 651292
wondering 651062
talked 650809
/@@ 650787
Su@@ 649980
cu@@ 649873
Battle 649861
easier 649599
feed 649248
mu@@ 649199
click 649032
cares 648980
cases 648892
similar 648796
Cor@@ 648658
NFL 648619
standing 648312
True 647926
Plus 647211
however 647016
trash 646870
EN@@ 646853
LI@@ 646490
Same 645640
stress 645615
ut@@ 644392
Silver 644121
access 643945
44 643900
Pre@@ 643355
sooo 642827
TH@@ 642087
tha 642048
Fire 641704
hospital 641632
ally 641496
era 640633
idiot 640380
horrible 640188
Christian 639976
co 639786
Har@@ 639720
natural 639559
ladies 639495
har@@ 639234
Man@@ 639210
ite 638600
successful 638558
Light 638393
br@@ 638188
push 638125
Clinton 638065
cheese 637280
pool 637141
NEVER 637084
Ima 636282
THEY 636103
AM@@ 636072
un 635962
TIME 635210
battle 634856
doesnt 634771
evil 634752
higher 634596
wide 634046
easily 633937
foot 633731
DONT 633632
Deals 633407
Enjoy 633076
ho 632914
Congress 632786
jump 632646
wanting 632641
BBC 632371
butt 631627
pe 631105
AS 631035
speech 631006
Case 630545
Football 628816
science 628787
protect 628745
#i@@ 628729
end@@ 628727
oo@@ 628624
bio 628592
Jack 628335
noticed 628236
shes 627581
slowly 627460
CO@@ 627213
helped 627034
Tonight 626994
ry 626978
smell 626746
lines 626703
Y'all 625707
hits 625704
spring 625486
facts 625482
everywhere 625151
oc@@ 625114
below 624796
ist 624727
♫ 624650
characters 624526
risk 624324
ap@@ 624307
ng 624269
ang@@ 623797
hahahaha 623136
mental 622962
:flexed_biceps: 622730
ked 622617
:face_screaming_in_fear: 622181
ors 622024
lack 622018
direction 621904
Th@@ 621704
cha@@ 621700
42 621597
non-@@ 621538
fu@@ 621196
38 620828
faith 620820
ard 620238
excuse 620192
Tweet 620144
south 620093
ky 619820
bottom 619222
began 618132
#t@@ 618040
provide 617999
Service 617968
hole 617873
ph@@ 617387
IS@@ 617016
planning 617011
DJ 616740
Per@@ 616153
walked 615966
shots 615844
hug 615349
den 615044
ves 614549
whenever 614470
changing 614396
:revolving_hearts: 614268
Germany 614255
wa 613724
shooting 613602
download 611942
Feel 611717
24@@ 611648
nose 611566
\ 611369
dating 611289
So@@ 611284
BC 611210
makeup 610934
weed 610586
ance 610385
Talk 610383
German 610116
re-@@ 609796
cash 608874
Russian 608832
winner 608546
Jordan 608405
Welcome 608402
manager 608071
politics 607759
30@@ 607742
Beautiful 607692
expected 607643
dies 607470
tree 607362
y-@@ 607237
Court 606758
IT@@ 606452
ages 605583
Sports 604938
huh 604726
abt 604699
hu@@ 604615
located 604482
2006 603938
CH@@ 603920
Smith 603798
dis 603791
ong 603748
Bi@@ 603477
Sp@@ 603466
burn 602925
GOP 602856
oil 602687
cast 602284
turning 602197
blow 602134
bringing 601995
ism 601232
RO@@ 601125
staying 601076
anywhere 600932
surprise 600736
dancing 600684
quit 600560
correct 600505
celebrate 600149
Mon@@ 599950
search 599623
suppose 599185
sw@@ 599011
BEST 598980
stock 598328
tag 597516
ver 597490
Trying 597094
helps 596760
Qu@@ 596482
Cha@@ 595833
ff 595668
balls 595666
bruh 595279
west 594915
0.0 594532
ji 594267
EVER 593868
spending 593493
saved 593419
mon@@ 593409
babies 593254
development 593033
uses 592946
ze 592784
ment 592319
300 592036
hilarious 591968
Mexico 591935
pa 591934
button 591552
btw 591458
exam 591389
gs 591376
com@@ 591350
fool 591256
Tomorrow 591200
Army 591173
crush 590844
av@@ 590805
deserves 590753
37 590632
During 590497
ir 590473
cards 590399
related 590368
Amazing 590060
Ka@@ 589306
products 589054
com 589037
sending 588991
#V@@ 588946
Android 588907
lips 588663
base 588600
consider 588518
I'M 588506
alot 588350
gotten 588035
Marketing 587721
mi@@ 587682
Season 587661
Ryan 587623
GOOD 587395
grown 587125
fantastic 586920
Bu@@ 586858
recent 586546
ga 586359
{ 586019
pair 585970
#p@@ 585681
regret 585419
ey@@ 585367
officially 585260
Games 585124
wind 585013
Kids 584652
blocked 584220
lights 584101
Kim 583917
ster 583871
bottle 583865
finding 583713
Ex@@ 583651
Ai 583518
SEE 582778
ER@@ 582729
failed 582459
WANT 582291
NBA 582249
parts 582249
century 581793
ty@@ 581778
55 581426
Queen 581352
Internet 581349
gr@@ 580889
Nobody 580690
tie 580546
Church 580340
65 580061
Win 579771
rude 579441
pl@@ 579274
Direction 578769
#job 578339
Disney 578257
:sun: 578053
Spanish 577909
Report 577565
address 577235
showed 577060
leg 577022
Bieber 576818
Glad 576304
enter 576263
Com@@ 576261
served 575830
mistake 575711
2000 575323
Friends 575316
SH@@ 575238
Ne@@ 574981
talent 574714
#SoundCloud 574434
wh@@ 574433
43 574203
Congratulations 573912
Visit 573639
2.@@ 573473
-> 572723
heads 572655
rule 572615
Food 572314
opened 572147
earned 572053
soft 571834
regular 571554
Gu@@ 571128
Him 570954
begin 570837
Tour 570689
Heart 570566
culture 570297
23@@ 569985
breaking 569597
speed 569489
Car 569368
closer 569332
Ya 569022
ridiculous 568893
Pro 568803
IC@@ 568730
Jo@@ 568641
49 568453
:yellow_heart: 568098
Market 567816
becoming 567517
moon 567463
ol 567227
02 567138
glass 566949
sum 566542
Everybody 566505
Lil 566172
quickly 566015
#no@@ 565864
considered 565676
under@@ 565659
network 565597
checked 565566
Guys 565516
5th 565331
Pa@@ 565309
Story 565069
states 565032
COVID 564886
awful 564564
Niggas 564199
freaking 564075
Bid 564074
sunshine 564073
male 563847
Song 563326
39 563295
jo@@ 563032
08@@ 563012
General 562731
MO@@ 561512
Special 561493
neck 561335
que 561089
Us 560702
society 560401
ded 560303
Other 560245
Company 559928
River 559795
41 559558
RA@@ 559512
#c@@ 559368
legal 559273
19@@ 559267
Review 559076
Something 559057
professional 558433
aka 558366
companies 558350
af@@ 558166
Hard 557997
picked 557749
Se@@ 557744
families 557487
:heart_with_arrow: 557395
ES@@ 557165
pressure 556858
Fox 556719
} 556221
brothers 556198
00@@ 556166
:sleepy_face: 556056
Sun 555962
adult 555892
ton@@ 555878
mobile 555626
Steve 555057
25@@ 554990
GOT 554980
sub@@ 554560
cancer 553958
5sos 553779
pu@@ 553770
ham 553491
hide 553478
min@@ 553124
prove 553035
product 552383
Awesome 552255
ford 552248
closet 552233
Sam 552191
SE@@ 552012
BACK 551981
47 551946
SA 551847
Ugh 551793
sexual 551784
kidding 551714
net 551468
Island 550898
mer 550812
NEED 550708
schedule 550687
Hopefully 550520
Of@@ 550295
plz 549736
Vote 549717
harder 549233
carry 549206
Wall 549122
Beach 548867
Ready 548719
quote 548550
sat 548250
mark 548185
hahah 548051
SE 547985
ani 547713
evidence 547370
dry 547304
leading 546613
Beauty 546478
46 546312
jail 546135
announced 545953
competition 545863
shi@@ 545785
Digital 545740
Italy 545682
avoid 544893
cor@@ 544771
ry@@ 544696
Awards 544430
debate 544416
session 544302
WHO 544297
hotel 544234
Allah 543972
Again 543955
north 543946
aw@@ 543536
#m@@ 543518
unfollowers 543304
mix 543147
lived 543128
HER 543116
brings 543073
ou 542970
whats 542697
Chelsea 542403
han 542397
angel 542390
Jones 542344
crime 542129
math 542083
Liverpool 542046
incredible 541818
8: 541759
MORE 541598
hes 541331
Movie 541145
gain 541118
jokes 540492
mer@@ 540367
t-@@ 540129
quiet 539902
status 539652
:cherry_blossom: 538936
Holy 538815
females 538359
ONLY 538255
SHIT 537651
receive 537626
sales 537176
apply 537146
Da@@ 537112
emotional 536968
Must 536720
els 536685
onto 536672
European 536662
mor@@ 536624
cross 536031
Ca@@ 535868
#n@@ 535728
supporting 535707
purpose 535685
mostly 535509
Japanese 535210
tu@@ 535031
teeth 534848
calm 534769
policy 534462
stomach 534338
Na@@ 534288
back@@ 534266
copy 533989
letter 533550
Nigga 533288
arm 533142
Ha 533073
leaders 532915
Boston 532765
Is@@ 532760
views 532625
03 532257
bae 532090
corner 531860
leaves 531566
Alex 531461
:smiling_face_with_horns: 531338
uh 531307
stone 531289
option 531202
Paris 531149
heavy 530302
Mal@@ 530226
ville 529983
te@@ 529887
source 529582
:kiss_mark: 529478
senior 529438
completed 529287
Manchester 529214
Much 529197
meaning 529182
aa@@ 528935
attitude 528695
follows 528659
cook 528377
#b@@ 527782
joy 527478
HO@@ 527385
s-@@ 527291
ell 527188
Jobs 527160
Lee 527001
wat 526992
center 526844
driver 526408
tri@@ 526093
App 526082
sed 525754
PS 525746
FROM 525633
award 525563
youre 525006
pink 524936
inter@@ 524741
skills 524595
although 524406
AB@@ 523959
ity 523849
Update 523762
texting 523723
Mind 523500
doctor 523168
FC 523141
Pakistan 522922
Am@@ 522856
Ri@@ 522855
DS 522786
Might 522525
puts 521849
international 521763
admit 521726
You@@ 521365
Dead 521281
uc@@ 521014
faces 520943
REALLY 520876
:raised_hand: 520871
can@@ 520865
05 520805
:oncoming_fist: 520746
WATCH 520483
delete 520421
Du@@ 520269
:'( 519882
PO@@ 519778
Robert 519381
soccer 519295
willing 518513
Sir 518429
Hall 518365
Bank 518304
he@@ 518188
Head 517647
bl@@ 517375
1000 517196
tight 517063
yrs 517001
Israel 516950
Woman 516179
collection 516100
filled 516061
barely 516015
storm 515952
struggle 515461
active 515043
shitty 514992
groups 514948
joined 514767
Kar@@ 514624
taught 514175
LIFE 514144
messages 514081
ther@@ 514058
Second 514049
04 513959
lower 513699
Netflix 512780
milk 512752
Actually 512295
Ah 511589
Johnson 511572
defense 511560
included 511348
thankful 511277
Honestly 511166
3.@@ 511056
matters 510976
Tips 510801
ls 510665
enjoyed 510607
anyways 510518
knowledge 510387
rid 510231
:speak-no-evil_monkey: 509879
suit 509762
Both 509521
fi@@ 509453
baseball 509344
gettin 509088
Arsenal 508991
Miami 508986
Lets 508983
1/2 508921
lyrics 508907
Vegas 508894
son@@ 508698
statement 508441
Hill 508409
ban 508251
hero 507901
lock 507822
Ko@@ 507679
wen 507469
ear 507225
La 506853
Hell 506737
Put 505647
ON@@ 505555
raise 505502
nails 505361
queen 505345
murder 505155
rea@@ 505128
tech 505120
ko@@ 505102
Cool 504984
Christ 504982
WTF 504963
Jackson 504874
64 504546
SP@@ 504252
#w@@ 504113
sea 503819
#Go@@ 503685
WHEN 503641
massive 503478
camp 503432
Central 503382
HERE 502837
Matt 502833
drugs 502770
herself 502756
Three 502501
Peter 501886
piss 501832
strength 501787
NE@@ 501680
brown 501667
50@@ 501487
chick 501469
Such 501293
Nah 501006
fr 500620
Mer@@ 500451
sport 500224
Scott 500153
bird 500118
Share 499949
image 499799
Halloween 499789
eee 499731
enjoying 499637
Dad 499519
teachers 499443
Temp 498986
zone 498937
posting 498806
Earth 498792
pregnant 498492
African 498100
AT@@ 498031
El@@ 497820
Niall 497273
Ben 497125
potential 496786
Days 496767
LMAO 496702
ence 496609
09 496257
trump 496087
village 495948
Cover 495853
ju@@ 495620
proof 495594
waking 495561
__ 495413
rise 495365
snap 495121
ni 494947
STOP 494916
production 494906
SA@@ 494882
tw@@ 494751
ties 494685
negative 494549
#Team@@ 494377
iPad 494365
load 493658
commercial 493554
tht 493463
impossible 493344
hella 493170
ino 493101
kitchen 492784
plane 492782
si 492757
Mother 492747
bother 492587
steps 492547
snapchat 492481
eventually 492028
powerful 492007
Korea 491879
Ta@@ 491853
Ti@@ 491846
possibly 491774
2005 491725
lit 491699
DE@@ 491476
bathroom 491431
Ni@@ 491338
decent 491295
east 491214
moments 491164
customer 491021
hood 490836
ner 490644
proper 490270
friday 490200
ja@@ 490127
actions 490101
08 490091
whose 489843
PA@@ 489710
07 489616
posts 489303
FB 489274
#s@@ 489218
Manager 489077
Bay 489074
prefer 488935
#news 488923
:squinting_face_with_tongue: 488911
Martin 488817
Start 488664
buddy 488593
Nike 488426
self-@@ 488405
:grinning_squinting_face: 488165
OR@@ 487959
Brazil 487876
AD@@ 487874
06 487841
birth 487607
range 487606
Says 487527
BS 487504
Thats 487304
ful 486824
exciting 486508
Tech 486423
Wanna 486404
drug 486076
Temperature 485943
Years 485784
holy 485734
fashion 485663
extremely 485645
army 485225
nasty 485153
don 485057
illegal 484858
dey 484774
Making 484667
AL 484456
Sales 484267
ery 484216
:grinning_face_with_big_eyes: 483611
scored 483268
#jobs 483152
BO@@ 483009
according 482501
legit 482483
partner 482352
forced 482262
majority 481867
feat 481799
conference 481737
NYC 481632
Br@@ 481512
ki@@ 481150
DON'T 481133
cats 480785
Thomas 480770
animals 480763
fingers 480487
Mor@@ 480205
Office 480205
Imagine 480197
accounts 479401
workout 479238
memory 479063
workers 478617
Grand 478590
bf 478301
rec@@ 478109
2020 477940
aww 477788
her@@ 477614
red@@ 477544
wing 477442
ABOUT 477433
SHE 477332
DI@@ 477326
Funny 477215
disgusting 477208
Ru@@ 477048
cheap 476969
moves 476735
40@@ 476573
Inc 476554
offers 476549
Final 476458
Government 476025
Probably 475827
wet 475726
fill 475521
gunna 475170
Vintage 475089
bright 474974
elected 474930
Photos 474719
CD 474707
ess 474565
Liam 474556
ile 474433
Design 474032
votes 474006
hehe 473614
AP 473598
Save 473521
#np 472865
Support 472819
medical 472811
ann@@ 472533
bomb 472523
truck 472514
Los 472360
:pistol: 472279
Ab@@ 472129
ser@@ 471997
TO@@ 471984
soooo 471802
ping 471550
parties 471503
Deal 471475
pi@@ 471448
Mary 471334
#coronavirus 471217
inc@@ 470941
Democrats 470897
facebook 470796
PA 470358
History 470096
Law 469960
ny 469922
:grinning_face: 469854
complain 469827
wash 469413
26@@ 469284
MA 469125
machine 468977
contract 468572
CA@@ 468540
27@@ 467962
throwing 467862
breath 467841
income 467827
moms 467518
TODAY 467512
Phone 467463
brilliant 466937
usual 466819
:green_heart: 466684
TE 466670
Boys 466649
serve 466362
ear@@ 466207
SO@@ 466136
ita 466048
inspiration 465918
heaven 465785
MAKE 465634
harry 465484
planned 465338
:face_with_medical_mask: 465315
BY 465199
shift 464921
surveys 464832
:grimacing_face: 464810
texts 464763
effect 464555
sees 464506
DA 464502
impact 464375
Dude 464120
BA@@ 464052
MAN 464035
bike 463830
ses 463656
hanging 463538
ary 463485
covered 463222
★ 462966
pro 462529
despite 462525
za 462472
planet 462449
journey 462320
anti-@@ 461891
reached 461851
Canadian 461850
ini 461815
mistakes 461724
07@@ 461711
pulled 461523
Sex 461258
rap 461173
growth 460920
con 460776
war@@ 460672
master 460636
tra@@ 460506
RIGHT 460325
OFF 460185
ot@@ 460140
studio 460069
modern 460053
Ber@@ 459852
lord 459609
Kevin 459401
freedom 459317
pieces 459203
economy 459002
sy@@ 458946
multiple 458750
Town 458632
Box 458622
#f@@ 458497
remind 458433
asks 458373
crew 458284
phones 457538
talkin 457464
ches 457390
Festival 457386
Blog 457226
becomes 457110
finals 456752
marriage 456700
expensive 456620
jk 456582
violence 456518
threw 456434
hh 456372
beats 456083
tattoo 455963
ane 455950
otherwise 455706
#MTVHottest 455683
ud@@ 455676
ups 455538
technology 455509
Although 455388
dollars 455186
attempt 455074
generation 454928
Sale 454735
Perfect 454663
web 454117
updates 453979
+@@ 453876
é@@ 453758
Edition 453729
Lake 453723
animal 453590
Xbox 453553
continues 453436
Ireland 453403
absolute 453311
ears 453213
ata 453004
Lots 452999
Change 452859
#nowplaying 452774
empty 452672
reported 452619
bo 452605
TOO 452469
constantly 452466
Project 452421
REAL 452206
int@@ 451859
laws 451592
airport 451464
Ja@@ 451056
#d@@ 451047
safety 450518
degree 450399
Williams 450391
squad 450210
finger 450030
bra@@ 449657
Union 449647
Mi@@ 449448
Dark 449429
immediately 449324
va 449191
district 449023
host 448985
hitting 448743
ada 448704
ja 448494
river 448231
USD 448018
Nigeria 447954
asshole 447837
nor 447636
magic 447621
Ask 447472
LA@@ 447450
artists 447318
28@@ 447137
Prince 447066
Card 447012
Wars 446927
IG 446923
all@@ 446915
terms 446850
shout 446844
sl@@ 446661
a-@@ 446596
Ver@@ 446537
remain 446422
Body 446327
ics 446024
Run 445536
bear 445451
'S 445157
raised 445126
areas 445113
increase 445071
Santa 445037
dy@@ 445023
Tr@@ 444616
smoking 444312
doin 443998
Min@@ 443391
Retweet 443367
marketing 443309
Episode 443205
Lu@@ 442792
talented 442788
invite 442776
ators 442727
customers 442637
Sal@@ 442527
;-) 442503
breaks 442434
sisters 442358
ists 442006
bridge 442004
Tri@@ 441913
friendly 441806
spirit 441774
ordered 441726
Them 441493
#In@@ 441381
END.OF.DOCUMENT 441325
flying 441201
non 441136
Her@@ 441112
Makes 441048
Ga@@ 440906
Water 440271
adorable 439886
Class 439327
Inter@@ 439248
Trust 439228
ca 439191
management 439092
ized 438931
leads 438810
disappointed 438400
reminds 438338
Press 438283
marry 438261
justice 438122
Tra@@ 437935
-R@@ 437867
William 437764
throughout 437728
ine@@ 437693
GA 437615
cried 437605
nature 437437
mentioned 437391
you@@ 437229
52 437138
studying 437080
Drake 437078
mat@@ 437075
billion 437031
laptop 436951
grateful 436880
Bal@@ 436503
smiling 436389
» 436139
crisis 436068
fe@@ 436068
kers 436066
by@@ 435953
arrested 435868
location 435658
don@@ 434929
hai 434896
d-@@ 434782
movement 434767
younger 434680
6th 434679
section 434557
dope 434545
ano 434446
background 434382
prices 434315
grab 434152
Bar 434109
Sign 433697
features 433648
DID 433549
crowd 433505
designed 433470
lin 433361
argument 433343
instagram 433246
Gaga 432708
Gra@@ 432450
SC@@ 432416
prison 432200
Rose 432109
reaction 431940
iz@@ 431838
Fashion 431823
direct 431789
debut 431752
horse 431469
Samsung 431174
Col@@ 431028
#the@@ 430900
anger 430842
NO@@ 430800
dangerous 430729
launch 430719
nt 430696
backup 430465
steal 430420
#No@@ 430401
sy 430369
oo 429937
Im@@ 429644
drinks 429316
BTS 429303
Nation 429262
THANK 429228
Minister 429141
LE@@ 428979
lonely 428868
Line 428796
pretend 428708
According 428659
bread 428445
Star@@ 428436
HIM 428344
Dog 428328
everytime 428303
BE@@ 428207
decisions 428200
global 427123
isnt 427089
kes 427009
somehow 426780
grandma 426561
Act 426211
Spring 426186
gra@@ 426142
various 426059
solo 426022
hearts 426018
guns 425664
notes 425661
pure 425463
yo@@ 425397
Thought 425386
=) 425308
FL 425266
claims 425237
69 425061
cus 425004
Houston 424875
Ed 424861
religion 424784
switch 424585
Muslim 423894
Italian 423881
arrived 423781
Royal 423645
library 423420
Network 423207
29@@ 423054
Irish 423047
#g@@ 422864
100@@ 422719
request 422578
Global 422567
Austin 422495
foreign 422400
respond 422284
campus 422260
insane 422066
comfortable 422031
Future 421982
crash 421833
lame 421416
abuse 421042
Country 420837
2004 420814
#k@@ 420655
Fun 420653
ut 420574
streets 420382
theres 420166
honey 420072
Si@@ 420056
Coming 420045
Ac@@ 419818
Drive 419817
reports 419752
ID@@ 419620
Mac 419359
limit 419316
island 419191
screaming 419156
lookin 419143
Spain 419053
perform 419007
meal 419001
wise 418999
ize 418762
gg@@ 418552
feature 418478
spell 418357
MP 418149
ati@@ 417976
ger 417935
MS 417904
2010 417822
RI@@ 417757
responsible 417737
thread 417699
ah@@ 417553
HIS 417464
EST 417253
ruin 417190
afford 416611
ines 416549
4.@@ 416390
sets 416362
inspired 416318
TH 416309
shed 416167
users 416032
finna 416020
bra 415926
tip 415905
ala 415653
Wtf 415608
unique 415553
THEM 415539
border 415515
io 415494
ara 415469
Iran 415272
400 415230
Meet 415177
EL@@ 415123
51 415045
pr@@ 414928
Pack 414900
episodes 414863
Small 414428
forces 414378
Australian 414225
Waiting 414131
War@@ 414028
nervous 414021
GO@@ 413896
considering 413805
Gr@@ 413793
previous 413653
punch 413231
Pls 413139
bur@@ 413078
flat 412981
we@@ 412834
ger@@ 412768
ents 412751
Security 412703
Wa@@ 412637
faster 412584
Senate 412583
#U@@ 412401
hy@@ 412312
Pu@@ 412225
Over@@ 412158
honor 412132
SM@@ 411961
lo 411910
Sounds 411197
theme 411157
route 411031
relationships 410832
mall 410794
Crazy 410766
ell@@ 410759
Mix 410698
ess@@ 410387
films 410343
silly 410341
our@@ 410325
:beating_heart: 410322
aa 409966
BIG 409519
SC 409502
ore 408946
hates 408822
DE 408759
ise 408619
ena 408561
target 408352
TA@@ 408333
attractive 408185
DA@@ 408173
BIRTHDAY 408150
Public 408030
Pink 407962
CNN 407901
classic 407767
Cant 407730
mission 407624
sugar 407533
sin 407484
signs 407277
Red@@ 407179
aware 407140
den@@ 407078
Award 407015
1D 406907
improve 406905
obvious 406626
Bur@@ 406519
Adam 406444
day@@ 406380
basic 406168
Cal@@ 406035
guide 405799
Bring 405789
ica 405775
with@@ 405540
drawing 405379
NA@@ 405307
entered 405237
au@@ 404957
chest 404825
personally 404811
IM@@ 404792
Jim 404746
06@@ 404682
Death 404647
cock 404591
blind 404328
Hollywood 404180
ama 404024
fb 403994
cam 403980
answers 403722
ical 403658
managed 403564
Order 403414
actor 403414
-L@@ 403248
lesson 403247
mode 403051
happiest 402884
bowl 402583
ffs 402573
Latest 402376
Tu@@ 402058
TR@@ 401932
Fall 401883
SS@@ 401870
sides 401829
falls 401742
species 401583
CEO 401563
Yea 401562
mail 401367
treated 401302
New@@ 401301
repeat 401287
Up@@ 401122
AA@@ 401100
Force 400815
Valley 400747
guilty 400196
limited 399969
accident 399763
vacation 399757
aye 399593
Out@@ 399531
financial 399433
Father 399233
timeline 399131
Secret 398967
produced 398589
Ohio 398588
7th 398539
glasses 398519
chief 398471
Charles 398454
crack 398422
levels 398373
vo@@ 398347
stayed 398154
ns 397837
suddenly 397834
caused 397443
dare 397297
dec@@ 397188
Council 397144
ill@@ 397132
teaching 397096
Tony 397086
OM@@ 396947
mal@@ 396879
ants 396852
Bra@@ 396685
tiny 396574
Kelly 396492
Bowl 396375
ce 396371
mirror 396227
saving 396117
Hu@@ 395900
ist@@ 395878
Dallas 395749
contest 395509
largest 395239
dollar 395233
(; 395104
ti 395071
System 395051
sn@@ 395047
highly 394984
fr@@ 394976
any@@ 394975
LED 394921
writer 394898
Camera 394828
slept 394814
excellent 394731
tries 394682
confirmed 394606
candy 394491
digital 394464
:persevering_face: 394451
boat 394116
Fi@@ 393954
dressed 393827
bestfriend 393681
Chief 393594
Asian 393474
coz 393205
shorts 393200
85 392724
unfollow 392722
AC 392607
les@@ 392394
region 392364
semester 392249
print 392223
09@@ 392177
Guy 392169
solid 392155
EC@@ 392095
WOULD 392051
ik 391970
recommend 391695
bby 391692
millions 391513
homie 391451
Mobile 391431
kar@@ 391359
sho@@ 391094
cho@@ 390863
35@@ 390786
Ill 390783
zz@@ 390580
tal@@ 390531
fellow 390473
Shop 390458
NEWS 390132
ig 390086
Angeles 390050
plenty 390034
1-@@ 389781
ate@@ 389743
specific 389642
dem 389559
obsessed 389284
passing 389223
loads 389103
Children 388915
Mac@@ 388710
Hair 388680
UR@@ 388640
yard 388582
fin@@ 388572
Science 388527
Without 388460
sun@@ 388322
Max 388319
platform 388238
bro@@ 388188
amp 388118
standard 388107
setting 388105
path 388071
owner 388040
LE 387961
progress 387928
Ladies 387801
Tim 387692
TI@@ 387552
knock 387524
Especially 387499
tions 387453
Artist 387321
nope 387233
Sweet 387104
ERS 387092
Working 386803
def 386612
BITCH 386424
boobs 386381
doe 386371
STILL 385752
Imma 385573
Republican 385549
ck 385470
Almost 385397
smiles 385354
square 385318
#COVID19 385208
draft 385084
uk 385045
alcohol 385042
hall 385015
fired 384960
hop 384868
Ford 384845
des@@ 384787
dia 384732
Name 384537
ber 384404
1,@@ 384324
000 384279
Microsoft 384276
neither 384258
throat 384174
parking 383912
kills 383882
certainly 383809
ach@@ 383765
Vi@@ 383746
cr@@ 383718
:hugging_face: 383669
recorded 383625
WORLD 383601
cheer 383562
Thinking 383492
Toronto 383381
And@@ 383294
favor 383281
orange 383268
distance 383177
sen@@ 383149
Sad 383095
Fa@@ 382979
loose 382914
Super@@ 382774
56 382712
prepared 382571
PL@@ 382538
assume 382530
victory 382483
youtube 382457
physical 382372
sleepy 382101
rare 382066
Dance 382020
ure 381987
UR 381951
necessary 381745
pips 381696
appeared 381565
gar@@ 381530
TT@@ 381525
OUR 381518
Swift 381493
:raised_fist: 381367
Favorite 381351
Nick 381314
treatment 381281
ak 381209
shake 381101
lied 381093
highest 381088
Via 381069
Day@@ 381063
DVD 380968
havent 380868
Brexit 380763
singer 380732
shape 380626
fixed 380592
begins 380442
cc 380400
Co 380355
indeed 380257
tos 380215
wings 380178
lea@@ 380009
ona 379987
#j@@ 379892
in-@@ 379858
goodbye 379615
FM 379587
Under 379467
cooking 379448
seven 379444
ET 379420
ation@@ 379408
sal@@ 379398
tl 378848
Somebody 378809
ob@@ 378781
solution 378742
Data 378713
paint 378664
TY 378615
bath 378433
BU@@ 378419
99@@ 378391
72 378308
Yep 378170
pleasure 378136
outfit 377938
53 377855
ung 377618
ef@@ 377617
describe 377431
insurance 377340
ri 376998
finds 376908
SS 376774
ws 376663
COME 376594
purchase 376287
:frowning_face: 376141
youth 376105
hurry 376052
Fucking 376011
strange 376011
Guide 375969
whoever 375931
Low 375834
8th 375808
HA 375782
Lost 375715
grew 375673
#oomf 375601
individual 375488
exact 375460
Gar@@ 375442
IT'S 375330
Nov 375227
economic 375094
christmas 375092
Bob 374973
tan 374945
☆ 374752
gate 374746
attacks 374729
guitar 374685
compared 374662
personality 374644
EA@@ 374337
creative 374300
chair 374292
meat 374236
Hit 374173
justin 374170
ker@@ 374081
subject 374013
54 374010
ney 373933
required 373817
ASS 373766
Gift 373628
Jan 373621
5.@@ 373464
ot 373205
argue 372993
Beat 372739
headed 372619
flow 372554
hand@@ 372550
Hotel 372375
Face 372342
stronger 372253
150 372249
Test 372194
EX@@ 371945
complaining 371803
66 371560
bi 371547
signing 371480
wan@@ 371427
3D 371409
WA@@ 371351
tune 371316
chose 371151
plant 371081
PEOPLE 371008
Community 371002
Sk@@ 370863
fucks 370558
GB 370395
demand 370156
RIP 369917
Literally 369759
kicked 369721
chances 369542
friendship 369438
#Y@@ 369387
projects 369380
⠀ 369320
trailer 369289
walks 369261
restaurant 369225
Wonder 369163
star@@ 369161
hrs 369156
acts 369017
blast 368792
wasnt 368719
Pe@@ 368674
failure 368646
trending 368394
Ass 368283
Listening 368129
avi 368113
wishes 368001
concept 367999
Michigan 367857
Britain 367707
UN 367703
pet 367637
humans 367613
hype 367592
pri@@ 367484
yellow 367466
ai 367461
ind@@ 367310
invited 367201
ish@@ 367089
tall 367056
Services 366904
degrees 366850
returned 366680
NA 366550
po 366524
patient 366439
false 366381
central 366359
Richard 366258
removed 366187
laying 366184
pathetic 366050
fave 365959
Four 365901
45@@ 365758
understanding 365674
:downcast_face_with_sweat: 365663
booty 365510
discuss 365486
locked 365464
goodnight 365457
seats 365421
Apparently 365354
tic 365318
van 365212
innocent 365126
benefits 364891
thousand 364854
IL 364789
VA 364774
riding 364666
continued 364623
options 364567
Store 364473
ning 364329
55@@ 364095
Galaxy 364009
Dress 363912
rough 363892
Jay 363888
vision 363779
cleaning 363729
universe 363676
tion 363647
streaming 363559
ew 363531
damage 363411
hating 363250
It@@ 363247
ching 363226
shared 363084
Jersey 363012
mass 363006
sel@@ 362956
diet 362895
mf 362867
cutest 362687
leadership 362648
laughed 362581
IC 362532
hockey 362499
05@@ 362442
gf 362401
Cu@@ 362350
gen@@ 362283
District 362098
television 361993
:angry_face: 361891
Henry 361823
Film 361799
36@@ 361790
Enter 361752
pride 361546
57 361544
rape 361529
2011 361513
listened 361474
bags 361468
owned 361458
confidence 361424
Single 361396
shown 361333
appear 361332
Bl@@ 361241
He@@ 361089
ya@@ 361010
ali@@ 360995
Can@@ 360980
ong@@ 360867
Found 360744
#Ask@@ 360734
toilet 360676
on-@@ 360480
refuse 360477
✧ 360470
Jason 360466
app@@ 360200
iOS 360191
Classic 359978
types 359904
sts 359619
dudes 359609
Ke@@ 359550
Five 359390
garden 359349
ignorant 359159
mini 359136
Scotland 359107
:: 359043
Sure 359019
98 358855
yay 358777
Leave 358709
dates 358494
flag 358458
includes 358275
OO@@ 358241
é 358078
juice 357979
realise 357945
Airport 357901
Ur 357752
BR@@ 357703
wave 357384
deals 357374
WAY 357365
citizens 357306
addition 357253
remembered 357099
jeans 356692
acc 356664
62 356661
bea@@ 356509
Western 356462
IA 356432
ble 356430
ale 356397
Nicki 356344
Feeling 356270
zero 356113
bang 355987
director 355928
ick@@ 355863
apple 355822
FA@@ 355638
88 355620
kk@@ 355564
trend 355521
golf 355247
ters 355141
directly 355140
theory 355084
trial 355026
heading 355009
Easy 354939
ik@@ 354845
2003 354736
mag@@ 354650
Daniel 354543
CANT 354514
des 354385
Wayne 354227
aid 353974
Mag@@ 353909
Sar@@ 353842
Republicans 353828
:confounded_face: 353806
SK@@ 353727
Carolina 353602
CR@@ 353425
ster@@ 353390
bands 353385
Travel 353344
budget 353092
congrats 353075
Went 353046
Winter 352824
testing 352795
CC 352635
candidate 352455
midnight 352447
Poshmark 352436
idol 352387
deleted 352372
Brand 352283
Left 352279
advantage 352198
threat 352190
concerned 352077
destroy 352048
connection 351971
manage 351964
s.@@ 351876
ALWAYS 351860
lane 351631
Wh@@ 351601
dr@@ 351553
guard 351531
forgive 351515
slightly 351458
anc@@ 351362
Space 351286
map 351239
:woman_dancing: 351229
user 351161
Remix 351143
orders 351057
survive 350923
bloody 350743
fer@@ 350707
year-old 350697
Senior 350664
Band 350598
charged 350552
opposite 350168
LY 350121
stands 350057
ny@@ 349930
awards 349863
holds 349825
discovered 349804
developed 349628
De 349460
hel@@ 349396
Justice 349374
formed 349263
property 349236
37@@ 349165
zer 349144
Cam@@ 349072
ii 349055
english 349051
clock 349043
tor@@ 348952
Style 348942
aha 348906
quarter 348903
established 348857
nu@@ 348691
hardest 348618
fo@@ 348555
prom 348252
Done 348198
featured 348108
delivery 348102
67 348087
emotions 347969
Atlanta 347889
KS 347879
ten@@ 347706
blonde 347464
Ice 347389
Lmfao 347340
EM@@ 347336
Challenge 347303
List 347239
cancelled 347235
replace 346843
apartment 346748
particular 346602
Sun@@ 346570
careful 346538
cha 346401
Yet 346307
vid 346119
Research 346043
creating 345975
59 345939
ella 345592
shoulder 345570
ci@@ 345413
63 345326
Director 345294
Windows 345189
Taking 345115
Ball 345033
earn 345011
Ser@@ 344950
uncle 344898
:thumbs_down: 344696
Station 344648
Original 344579
Kit 344536
Frank 344481
Bro 344475
material 344451
↺ 344373
Than 344354
beating 344315
bal@@ 344233
attend 344197
sur@@ 344138
bite 344006
appears 343971
ely 343952
offered 343862
cuts 343789
luv 343701
ME@@ 343673
momma 343670
govt 343633
pping 343594
Point 343586
ourselves 343569
58 343567
injury 343492
360 343434
hhh 343376
topic 343272
ire 343253
ically 343220
Dan 343191
Pal@@ 343172
lin@@ 343121
#h@@ 343103
seasons 343079
We@@ 343041
GOING 343036
ts@@ 342954
LS 342923
mile 342848
DO@@ 342844
Fu@@ 342831
checking 342804
Half 342726
WOW 342682
whom 342650
jack 342601
Management 342554
hmm 342427
ering 342386
With@@ 342320
strike 342281
ships 342195
jam 342018
guest 341840
Shi@@ 341832
med 341824
mixed 341779
ruined 341679
liking 341516
sha 341471
HOT 341423
Send 341234
upcoming 340961
Education 340946
,000 340899
ug@@ 340852
cookies 340843
prayers 340768
48@@ 340761
22@@ 340739
Link 340622
updated 340605
systems 340408
cal@@ 340377
enemy 340371
Seems 340334
#shopmycloset 340234
shine 340185
sometime 339802
ip@@ 339717
anxiety 339679
loyal 339646
sigh 339485
author 339469
ie@@ 339414
pee 339370
hill 339295
badly 339249
YO@@ 339184
anime 338867
ow 338803
ea 338762
lift 338627
capital 338615
Code 338612
bri@@ 338513
delicious 338504
IL@@ 338452
:double_exclamation_mark: 338422
thousands 338367
Ray 338314
Em@@ 338247
selfie 338201
Easter 338189
wo@@ 338120
items 338070
creepy 337858
Board 337798
surgery 337752
gang 337654
clue 337642
Stars 337547
tar@@ 337498
cher 337344
Bout 337342
virus 337296
king@@ 337273
:smiling_face_with_halo: 337143
edge 337101
Kingdom 337079
Room 337002
ATION 336844
ving 336781
GUYS 336736
religious 336587
Dar@@ 336546
ack@@ 336528
pin 336439
Ben@@ 336356
Ki@@ 336288
Exactly 336104
giant 336058
ST 336054
boo@@ 335980
Fair 335949
xx@@ 335829
legend 335826
colors 335788
tongue 335788
ash 335744
Championship 335597
benefit 335554
Syria 335538
couch 335510
properly 335484
pitch 335281
AMAZING 335214
tournament 335160
connect 335152
Turn 335063
Department 335035
Georgia 334984
92 334961
cell 334925
ilysm 334884
flowers 334835
HATE 334768
ven@@ 334595
#My@@ 334572
:backhand_index_pointing_right: 334559
5SOS 334392
shy 334367
EVEN 334267
taxes 334166
novel 334147
expecting 334057
SU@@ 334045
ink 333895
pan@@ 333846
200@@ 333764
Round 333716
38@@ 333615
AF 333345
ys@@ 333327
bb 333275
101 333176
ched 333128
super@@ 333082
Mis@@ 333023
03@@ 332759
EVERYONE 332683
icon 332678
supporters 332560
Dream 332552
MTV 332453
:slightly_smiling_face: 332248
Conference 332146
EN 332026
Sleep 331994
lic@@ 331876
96 331833
Were 331825
approach 331769
independent 331661
serving 331519
Living 331454
Magic 331437
pper 331426
mentions 331393
Virginia 331275
Golden 331131
U.S. 331044
Sam@@ 330967
cum 330899
perhaps 330364
picking 330307
tracks 330212
princess 330126
97 330094
At@@ 329983
anna 329943
stan 329942
zy 329933
tom@@ 329863
Al 329820
Leather 329815
ank@@ 329803
Sarah 329790
shirts 329771
scenes 329712
air@@ 329655
edition 329591
6.@@ 329525
elections 329359
criminal 329322
curious 329318
anytime 329311
breathe 329280
pages 329275
Peace 329262
apps 329255
Forever 329186
centre 329177
sin@@ 329173
TA 329152
Pr@@ 329146
77 328893
col@@ 328803
str@@ 328581
hundred 328453
7.@@ 328444
Into 328359
influence 328333
sons 328310
Hol@@ 328215
Album 328165
att@@ 328143
nowhere 328045
perfectly 327939
work@@ 327773
2001 327771
Feb 327748
FBI 327670
Andrew 327651
scream 327560
uni 327358
trick 327353
birds 327266
0.00 327249
Far@@ 327224
minds 327200
cities 327187
ro 327041
Reuters 326940
THERE 326738
SI@@ 326599
sake 326599
Million 326553
Smart 326528
magazine 326489
Wal@@ 326481
lip 326450
construction 326356
TED 326176
gosh 326081
:waving_hand: 326020
Bitches 325767
TX 325753
Saw 325700
Until 325592
co-@@ 325390
alarm 325315
epic 325312
performing 325123
Plan 325095
ved 324967
Doing 324726
Reading 324601
google 324587
recording 324452
Fast 324421
Navy 324208
Early 324114
PLS 324016
68 323938
Wo 323928
tumblr 323760
messed 323755
bound 323701
:person_gesturing_NO: 323693
Bernie 323504
CON@@ 323410
accidentally 323313
Victoria 323309
lesbian 323287
transfer 323044
ela 323029
rolling 322962
eeee 322841
cra@@ 322833
#News 322821
ep 322645
exams 322603
:sad_but_relieved_face: 322589
EL 322445
fa 322379
#MTVStars 322359
ours 322187
wan 322187
NC 322163
drops 322098
hurting 322017
sayin 321986
Asia 321977
T-@@ 321928
ying 321924
2002 321796
lang 321759
silver 321749
Medical 321696
inch 321675
cunt 321572
sites 321283
disease 321225
Lvl 321183
fed 321106
remove 321068
61 321060
ola 320853
EP 320842
Black@@ 320715
Fan 320638
chi@@ 320352
cont 320313
pal 320190
ans@@ 320183
injured 320060
ari 320031
fantasy 319957
costs 319932
Human 319899
Absolutely 319765
33@@ 319708
idc 319570
Wedding 319528
cutting 319478
hopes 319431
ative 319422
anniversary 319335
Definitely 319217
Don 319199
Your@@ 318856
:money_bag: 318786
El 318771
port 318676
ASAP 318576
embarrassing 318467
houses 318424
Char@@ 318407
ads 318406
Nope 318231
accepted 318214
Whatever 318174
backs 317831
dropping 317762
victims 317694
primary 317643
Mas@@ 317641
Oct 317620
bor@@ 317525
Dec 317507
pal@@ 317397
Sch@@ 317360
skinny 317261
fl@@ 317244
78 317105
anti 316983
software 316978
oomf 316940
organization 316899
Former 316827
balance 316736
HI 316672
Zayn 316662
agreed 316662
Training 316586
Demi 316484
RED 316436
Rihanna 316373
zing 316351
hr 316291
bot 316224
Middle 316102
Dems 316076
stole 316076
vs@@ 316026
Josh 316022
ll@@ 316016
coverage 316005
audience 315983
Ju@@ 315902
Oil 315899
festival 315770
Mexican 315769
holidays 315749
cop 315549
Olympics 315296
View 315277
covers 315274
#St@@ 315255
promote 315191
Bel@@ 315188
sentence 315120
pocket 315114
opinions 315109
annual 315101
joining 315091
Starting 315081
cat@@ 315038
doors 314993
OS 314992
relax 314970
essay 314914
fruit 314807
climate 314718
:-( 314643
percent 314581
-up 314494
officials 314437
log 314354
FA 314349
nuts 314236
91 314231
Orange 314229
ski 314013
cap 314005
pie 313978
plate 313956
Pi@@ 313944
musical 313909
funniest 313880
・ 313827
Magazine 313715
discussion 313689
depends 313671
#my@@ 313631
FT 313583
hip 313581
Barometer 313566
annoyed 313462
remains 313382
@@@ 313201
oz 313195
ening 313120
stores 313083
Excited 313074
Energy 313071
Sean 313012
hated 312967
GA@@ 312788
ide 312711
Add 312700
Dave 312648
Valentine 312523
sey 312445
pre-@@ 312409
mm@@ 312407
Heat 312392
thy 312342
Yay 312333
apologize 312260
haters 312187
Labour 312112
tits 312032
76 311967
PR 311966
Sony 311793
MT 311773
slap 311521
10:@@ 311517
kin@@ 311479
ye@@ 311362
core 311229
ku@@ 311160
inn@@ 311150
nie 311121
freak 311086
Master 311062
III 311060
express 310986
Sexy 310941
HS 310885
rose 310883
47@@ 310877
Chi@@ 310838
Hi@@ 310797
tests 310789
ek 310633
Starbucks 310502
win@@ 310499
Believe 310461
12:@@ 310354
boots 310107
char@@ 309997
Kanye 309908
rush 309870
entry 309744
All@@ 309740
appearance 309701
AGAIN 309680
emergency 309634
#Job 309560
Lot 309549
coast 309391
ous@@ 309372
Brian 309348
tape 309219
Soon 309217
Coach 309216
gy@@ 309163
71 309046
drivers 308875
Madrid 308845
passion 308774
cops 308649
Jr 308642
Ring 308612
omfg 308607
tear 308418
FO@@ 308408
placed 308114
tro@@ 308102
passes 308059
precious 308014
gross 308010
ED@@ 308007
opens 307989
rice 307955
caring 307936
gan 307934
#l@@ 307928
lah 307896
records 307882
dd@@ 307690
officer 307673
bel@@ 307658
voters 307554
Sky 307476
sight 307418
Major 307347
appreciated 307268
racism 307249
defend 307229
Short 307056
cuddle 307024
Ariana 306999
pot 306940
:face_with_tongue: 306912
flip 306904
Breaking 306890
Word 306780
regarding 306565
Prime 306516
noise 306458
metal 306327
WH@@ 306248
Yall 306090
mp@@ 306080
Bag 306017
low@@ 305888
73 305858
matches 305764
besides 305763
egg 305735
kit 305706
gifts 305695
sub 305647
VOTE 305531
rent 305516
Cat 305497
victim 305339
--@@ 305324
Eric 305284
shares 305217
Te@@ 305180
suggest 304959
een 304933
#go@@ 304884
Hold 304873
tool 304820
Dra@@ 304789
uk@@ 304770
suicide 304716
pat@@ 304707
ahh 304609
Ms 304519
Key 304499
scale 304418
knee 304412
BB@@ 304361
Ty@@ 304343
Wil@@ 304328
thick 304290
battery 304102
Sat 304079
Truth 303848
replaced 303793
investigation 303448
2-@@ 303357
Said 303325
Natural 303283
89 303140
yep 303032
wal@@ 302928
employees 302913
Ways 302902
Local 302895
figured 302814
NE 302688
che@@ 302459
grand 302395
socks 302298
strategy 302113
Web 302107
Republic 302056
04@@ 302027
Technology 302001
praying 301953
39@@ 301937
surely 301934
silence 301897
awhile 301884
Instead 301864
93 301784
hiding 301693
aged 301608
probs 301547
activity 301494
funding 301459
han@@ 301442
playoffs 301374
sm 301361
ere 301310
conditions 301223
jacket 301139
models 301111
effective 301079
ick 301076
devil 301044
4-@@ 301038
homes 300980
ered 300956
Mad@@ 300925
Academy 300856
activities 300825
outs 300812
colour 300676
Photoset 300647
businesses 300599
pushing 300597
Running 300580
79 300524
ck@@ 300516
Each 300445
cheat 300424
Mrs 300406
´ 300326
stops 300309
ani@@ 300277
Khan 300237
KING 300193
Bell 300152
Hmm 300111
Talking 300088
reminder 300033
lat@@ 300027
WIN 300006
staring 299980
#8@@ 299979
Coffee 299955
county 299839
94 299792
focused 299787
blessing 299715
presence 299663
MC 299630
eng@@ 299623
er-@@ 299620
Tune 299616
laid 299608
lar@@ 299566
pt 299497
gg 299489
tt 299484
bills 299477
choices 299475
ser 299448
fe 299443
one@@ 299395
Pri@@ 299355
Note 299186
Available 299136
escape 299090
significant 299027
comeback 299021
Walking 299009
ious 298825
lover 298779
gi 298708
tive 298667
GREAT 298660
BA 298617
Seeing 298571
#a@@ 298503
VERY 298422
tim@@ 298417
max 298414
Coast 298320
Andy 298289
sunday 298237
fandom 298010
spoke 297872
beef 297779
cam@@ 297779
Using 297733
24/7 297668
Seattle 297589
seek 297507
iTunes 297485
ama@@ 297475
ene 297244
11:@@ 297163
deserved 297134
Pl@@ 297093
podcast 296763
Child 296722
49@@ 296574
Doctor 296525
eggs 296513
ace 296379
:regional_indicator_symbol_letter_u: 296373
#New@@ 296319
Ive 296314
itt@@ 296312
Val@@ 296285
Stories 296284
federal 296263
je@@ 296237
Pop 296155
fund 295967
destroyed 295951
Stone 295857
UM@@ 295847
Francisco 295841
Turkey 295828
provided 295638
lands 295628
idiots 295550
display 295529
patients 295155
greater 295112
Sea 295080
graduate 294897
eng 294797
eight 294673
ming 294636
ham@@ 294588
bin 294535
trees 294500
ward 294470
slide 294453
ei@@ 294447
ken 294353
Model 294340
Sc@@ 294301
founded 294153
raining 294102
Though 293925
announce 293806
championship 293791
Color 293688
Used 293580
Followers 293565
Jeff 293512
Action 293396
university 293330
Event 293144
lbs 293108
Grey 293038
Weekend 292958
tta 292938
fri@@ 292920
Supreme 292904
Charlie 292750
Hy@@ 292720
anal 292626
hPa 292625
Wild 292570
pen@@ 292379
Aww 292373
dedicated 292373
CH 292352
handsome 292334
wasted 292275
men@@ 292238
Cr@@ 292194
verse 292109
sore 292087
BLACK 292084
Ross 292054
74 292053
giveaway 292048
overall 292034
del 291982
rip 291975
Break 291930
puppy 291889
unit 291877
thus 291812
Through 291506
GONNA 291492
comedy 291445
links 291268
Sho@@ 291130
hugs 291100
burning 291012
Stand 290995
Don@@ 290927
killer 290912
Bible 290911
Pay 290901
duty 290899
zz 290754
Stephen 290712
returns 290529
adding 290411
Mat@@ 290369
chips 290311
worries 290225
HELP 290152
tur@@ 290151
separate 290145
Pat@@ 290109
odd 289975
lake 289851
21st 289736
ste@@ 289728
tend 289728
UT 289711
Muslims 289666
bars 289523
Fight 289503
hor@@ 289426
Mini 289412
lessons 289394
reference 289365
debt 289352
bodies 289349
tons 289197
YA 289179
stressed 289167
:regional_indicator_symbol_letter_s: 289151
izing 289146
EVERYTHING 289129
Fans 289052
ped 289050
Cut 289033
head@@ 288939
depressed 288893
Age 288888
function 288850
administration 288808
inst@@ 288765
liberal 288690
hiring 288648
split 288646
Bro@@ 288588
generally 288548
motivation 288521
Side 288499
regardless 288460
albums 288352
:crown: 288321
ths 288309
HAS 288273
sea@@ 288061
Double 288036
catching 288032
Rick 287983
convo 287931
al-@@ 287857
ATE 287757
exercise 287716
84 287714
Ft 287700
WAIT 287685
Society 287665
keys 287639
chain 287458
fancy 287432
Late 287388
featuring 287377
Son 287213
tin 287182
Gen@@ 286954
scores 286737
listed 286732
package 286680
Mine 286645
Diamond 286624
AP@@ 286613
speaks 286400
ats 286359
ging 286279
250 286215
whilst 286163
yah 286035
ce@@ 286034
sauce 286029
prepare 285971
advance 285970
achieve 285870
QU@@ 285817
Poor 285805
professor 285801
tank 285771
Mad 285743
cl@@ 285668
HAHA 285644
prob 285570
Dec@@ 285426
enc@@ 285425
Xx 285416
images 285245
Jimmy 285141
din 285058
luke 284973
Proud 284969
ocean 284893
9th 284840
yy 284704
Association 284612
clubs 284539
nail 284462
existence 284459
Lewis 284358
HAHAHA 284258
believed 284182
:collision: 284029
Chat 284029
Friend 283984
desk 283967
Holiday 283873
Del@@ 283753
butter 283753
prevent 283733
headache 283707
88@@ 283695
originally 283686
basis 283643
Anthony 283522
not@@ 283520
Centre 283472
chase 283440
thin 283427
Air@@ 283304
connected 283281
20th 283273
kisses 283265
SAY 283159
productive 283063
dunno 283057
Words 282924
programs 282914
fourth 282866
3-@@ 282710
Stock 282531
Alright 282470
Fr@@ 282457
supported 282456
prolly 282328
opportunities 282292
silent 282201
belong 282149
Release 282148
equal 282127
dealing 281988
cheating 281965
Control 281931
EVERY 281865
COM@@ 281833
Yo@@ 281763
Sydney 281703
LOT 281623
celebrating 281552
60@@ 281537
Mueller 281485
BEEN 281482
efforts 281443
closing 281356
painting 281305
supply 281284
spam 281274
120 281250
mb 281210
Simple 281172
tied 281097
swimming 280998
skip 280810
Trailer 280681
FF@@ 280647
(8 280589
Southern 280577
82 280512
charges 280493
yyy 280466
shipping 280357
mas 280326
automatically 280307
bt 280272
definition 280249
warning 280195
RE 280134
Page 280057
relevant 279997
suffering 279970
sch@@ 279909
jersey 279821
profit 279800
offense 279703
ils 279687
lee 279686
Greek 279658
firm 279596
Sub@@ 279501
monday 279481
Tyler 279442
division 279425
McDonald 279381
Following 279353
garbage 279249
Place 279166
bles 279116
IV 279014
useless 278996
83 278896
standards 278896
Garden 278887
Hal@@ 278819
follower 278789
politicians 278737
VE 278652
Interesting 278578
Beyonce 278525
behavior 278520
1:@@ 278363
Putin 278350
protest 278337
gender 278229
happier 278114
Month 278030
Away 277901
tter 277761
crossed 277731
Cur@@ 277717
GU@@ 277655
« 277603
81 277446
wn 277376
pen 277363
fc 277272
Building 277122
wr@@ 277104
genius 276906
doctors 276840
Development 276837
mr 276782
forgotten 276769
bug 276739
liar 276696
Miller 276685
ABC 276518
blowing 276506
ned 276475
Da 276373
€ 276325
fits 276148
Gets 276039
Division 276037
bat@@ 276037
DOWN 276003
clip 275906
picks 275870
:headphone: 275756
banned 275712
Hor@@ 275711
Premier 275709
ingly 275700
ab 275697
Ay@@ 275606
childhood 275595
Either 275570
Player 275568
agent 275468
monster 275467
reporting 275387
#re@@ 275241
ened 275230
stood 275151
mates 275127
environment 275123
offering 275063
yan 275041
experienced 275035
hire 275004
#7@@ 274986
disagree 274945
gh 274929
#r@@ 274928
prize 274896
BABY 274785
Cross 274728
Cro@@ 274716
Modi 274518
Catholic 274214
FIRST 274207
BB 274083
texted 274051
Unless 274005
letters 273918
western 273798
Sur@@ 273742
purple 273734
performed 273646
1999 273642
Detroit 273609
ben@@ 273607
Pan@@ 273579
papers 273567
prayer 273526
Tor@@ 273510
Moon 273439
pped 273331
Morgan 273276
bb@@ 273231
land@@ 273160
OVER 273052
Feels 273051
goodness 272977
600 272957
traditional 272907
aaa 272905
Steel 272842
Junior 272797
Gone 272767
pulling 272700
PE@@ 272547
7-@@ 272503
As@@ 272318
logic 272316
settle 272275
]: 272269
lab 272198
Tar@@ 272107
Van 272088
Angel 272083
BL@@ 272056
San@@ 271916
mid 271911
CT 271890
Miley 271885
concern 271884
presents 271778
Cuz 271628
resources 271605
windows 271580
accused 271554
8-@@ 271542
Area 271496
rates 271423
bab@@ 271328
smells 271258
Perry 271184
Kid 271111
compare 270889
sof@@ 270885
86 270856
87 270742
ooo 270728
Question 270703
housing 270680
ians 270658
Bush 270459
condition 270441
Zealand 270439
Ku@@ 270382
hs 270375
Deep 270364
responsibility 270341
ever@@ 270320
Bri@@ 270307
Hahahaha 270286
Anything 270218
genuinely 270172
gen 270152
bonus 270115
niall 270114
mans 269949
#quote 269899
sia 269826
GIRL 269806
edit 269772
complex 269743
down@@ 269740
depression 269731
useful 269668
Collection 269639
Shoes 269588
:Christmas_tree: 269543
cur@@ 269485
8.@@ 269469
Alabama 269349
Davis 269299
gie 269275
Sen@@ 269252
sed@@ 269151
ESPN 269137
desperate 269000
lov@@ 268954
medicine 268825
funds 268751
hun 268668
#y@@ 268659
ac 268644
effects 268519
democracy 268517
chapter 268472
wouldnt 268461
Tickets 268431
CO 268397
roads 268397
civil 268382
someday 268359
wor@@ 268323
2.0 268256
Books 268221
introduced 268214
PE 268137
ora 268130
Ter@@ 268115
emails 268081
EV@@ 268026
Aug 267919
shocked 267875
nonsense 267841
Shout 267720
--> 267699
Glass 267668
trading 267547
tor 267449
Reach 267408
heck 267368
mc@@ 267323
bat 267304
GR@@ 267293
produce 267280
SW@@ 267229
hhhh 267175
ars 267143
Korean 267125
ap 267078
Northern 267073
sta@@ 267051
ges 267028
Search 266987
exchange 266882
FF 266717
pounds 266553
wisdom 266518
toward 266420
nine 266397
Federal 266348
Hour 266348
bench 266326
Captain 266292
analysis 266144
Romney 266134
ku 266132
smaller 266125
♪ 266055
int 266027
null 266015
sor@@ 265977
Islam 265948
2.5 265876
donate 265857
Rising 265842
VI@@ 265564
Democratic 265426
ther 265339
Johnny 265318
inner 265263
parent 265168
Hospital 265082
therefore 265075
#im@@ 265046
Main 264857
plot 264827
Phil 264808
suffer 264705
grades 264697
May@@ 264686
committed 264683
Level 264617
#gameinsight 264577
Bor@@ 264469
Front 264383
appointment 264372
oun@@ 264343
#Ch@@ 264224
wee 264125
ami 264114
Closed 264007
Bon@@ 263940
sto@@ 263909
Yup 263895
li 263882
Fo@@ 263759
Allen 263722
TWEET 263713
shits 263708
bury 263620
promised 263589
Patrick 263544
Diego 263455
IG@@ 263454
Voice 263429
va@@ 263338
mayor 263288
horror 263258
Against 263218
Falling 263170
counting 263064
Jewish 263015
pur@@ 263015
shi 263014
Sy@@ 262792
bum 262758
Bea@@ 262727
convinced 262689
mature 262687
wore 262660
that@@ 262647
Text 262568
sex@@ 262544
MUST 262539
bit@@ 262539
license 262530
Snow 262407
Learning 262364
forms 262289
:smiling_cat_face_with_heart-eyes: 262194
Ly@@ 262136
ments 262085
plastic 262058
Ob@@ 262044
adventure 261990
zed 261988
rep@@ 261839
TD 261779
Credit 261749
charity 261681
engine 261617
sandwich 261567
Step 261521
Square 261518
launched 261481
Fake 261448
ory 261415
critical 261391
flower 261378
vehicle 261332
bias 261327
46@@ 261317
marks 261159
defeat 261087
unfollowed 261075
By@@ 261041
deliver 261030
Already 260991
Sol@@ 260938
issued 260917
delay 260855
PH@@ 260806
zi 260785
bell 260663
#9@@ 260644
reviews 260630
struggling 260629
ken@@ 260618
hashtag 260571
anti@@ 260564
Yesterday 260535
impressed 260457
LET 260341
LMFAO 260319
bedroom 260298
asses 260280
attacked 260261
corrupt 260228
:sweat_droplets: 259834
2,@@ 259775
Trade 259736
owners 259714
ality 259691
Large 259650
Wilson 259525
Records 259498
WWE 259486
naw 259475
18th 259465
#Happy@@ 259456
sar@@ 259415
weekly 259310
Study 259243
bone 259190
QB 259162
confident 259071
walls 258971
wishing 258929
desire 258887
ky@@ 258879
seeking 258802
stays 258772
cough 258742
joking 258566
gear 258548
loan 258502
saturday 258502
THEN 258446
Despite 258405
shing 258279
unknown 258251
comfort 258231
sec 258222
ppy 258137
poll 258097
Selena 258075
tone 257880
TF 257870
por@@ 257785
Boo@@ 257690
:pleading_face: 257685
UP@@ 257546
Roman 257543
#5@@ 257540
ura 257520
Back@@ 257406
yup 257396
normally 257378
Arts 257241
10th 257201
minister 257089
HP 257066
Ed@@ 257020
squ@@ 257015
:camera: 256919
TW@@ 256906
Saudi 256876
lemme 256873
EXO 256868
expert 256800
sen 256773
ity@@ 256759
hun@@ 256749
b4 256748
sudden 256745
Fin@@ 256722
winners 256684
THINK 256568
ders 256558
val@@ 256529
shoe 256417
PT 256368
SM 256340
lia 256306
rising 256261
factor 256225
Cra@@ 256068
Bridge 256034
xxxx 255983
Sea@@ 255817
Walk 255712
Hand 255629
Cam 255617
DIS@@ 255596
slut 255579
Forget 255403
Cute 255395
ities 255213
ston 255167
Wake 255099
Pressure 255097
Clean 255076
Blood 255016
9.@@ 254992
play@@ 254784
uck 254743
cer@@ 254739
gl@@ 254692
upload 254621
longest 254612
ANY 254605
Thing 254563
patience 254532
gun@@ 254472
fan@@ 254458
department 254449
application 254418
ner@@ 254413
Took 254402
new@@ 254401
Currently 254392
Jon 254333
Cruz 254300
fab 254281
CAN'T 254233
ji@@ 254223
Colorado 254211
length 254195
cousins 254161
MUSIC 254114
Princess 254064
studies 254031
southern 254018
yer 253888
Judge 253852
tu 253784
LL 253771
swim 253675
Cho@@ 253611
Quality 253581
fought 253561
Kobe 253505
fun@@ 253471
wrap 253468
loser 253422
therapy 253385
circle 253383
Las 253363
black@@ 253337
packed 253286
union 253276
granted 253240
maker 253174
arguing 253124
mentally 253042
Ion 253022
GE 253009
Mel@@ 252962
hook 252930
provides 252881
eaten 252871
ids 252798
accurate 252754
broadcast 252645
MO 252515
.com 252514
gal 252446
Bet 252430
#not@@ 252353
allows 252351
heels 252326
lmaoo 252314
painful 252250
Success 252174
graduation 252165
Wales 251998
file 251981
aunt 251942
directed 251896
comic 251824
promo 251801
Land 251745
conversations 251738
AK@@ 251709
je 251610
agenda 251597
lifetime 251553
KE 251495
tion@@ 251465
Whenever 251375
boost 251299
adults 251270
shock 251258
FIFA 251219
bacon 251211
chin 251210
grass 251210
off@@ 251190
ites 251132
Loving 251032
twin 250940
articles 250891
ohh 250789
bla@@ 250704
Ham@@ 250629
Mil@@ 250613
roof 250579
☼ 250533
ged 250125
ised 250112
Olympic 249995
mountain 249945
Rd 249909
delivered 249894
:snowflake: 249810
TING 249785
ghost 249761
Goodnight 249678
1.5 249645
Eat 249561
RB@@ 249553
Na 249546
CL@@ 249396
Minaj 249329
brave 249264
rocks 249257
Pacific 249229
grind 249195
Er@@ 249194
seemed 249169
Cleveland 249156
agency 249138
logo 249058
3,@@ 249022
develop 248977
Jose 248930
Cameron 248924
Woke 248865
investment 248862
GS 248851
gro@@ 248830
fabulous 248774
ren 248711
teens 248684
Program 248609
ds@@ 248586
inf@@ 248567
DAMN 248439
Nu@@ 248374
MD 248353
inspiring 248350
Cole 248155
TT 248129
hosting 248129
worthy 248086
ark@@ 248068
pp 248008
anda 247955
lls 247909
stfu 247893
bow 247878
mommy 247828
drag 247775
bee 247725
#Vote@@ 247700
dd 247681
dads 247676
intelligence 247630
atic 247616
,@@ 247537
illa 247506
Around 247396
sol@@ 247377
#えどがわイケメン 247357
Field 247354
wed 247314
1,000 247272
GIVE 247262
sum@@ 247228
accent 247197
hoo@@ 247177
uploaded 247121
selfies 247104
zayn 247104
App@@ 247051
ue 247018
shit@@ 246990
hardly 246964
Mars 246877
device 246846
tools 246837
fre@@ 246789
corruption 246683
knocked 246637
ink@@ 246559
facing 246556
individuals 246518
panic 246516
Fresh 246468
assist 246347
ances 246338
Gi@@ 246309
Wi@@ 246284
affected 246271
Own 246207
Number 246170
ISIS 246167
Studio 246157
Fine 246137
captain 246133
SB 246050
Ge@@ 245970
ently 245876
:backhand_index_pointing_down: 245819
Sta@@ 245807
owe 245737
aaa@@ 245635
relate 245574
una 245545
Thanksgiving 245509
laughs 245435
def@@ 245412
Joseph 245329
visiting 245272
bid 245227
GM 245189
jo 245100
Arizona 245062
:heavy_check_mark: 245054
tty 244979
gam@@ 244974
believes 244878
Ian 244860
fla@@ 244792
tube 244780
Museum 244772
offensive 244687
Win@@ 244663
BREAKING 244652
AR 244623
writers 244614
acc@@ 244467
Gal@@ 244457
powers 244420
Alert 244384
ational 244366
joint 244308
ashamed 244297
Mountain 244199
za@@ 244192
Nor@@ 244179
AH 244050
fs 244045
thrown 243995
homeless 243941
ass@@ 243896
described 243850
Foundation 243809
Inside 243792
candidates 243778
sources 243742
Aaron 243737
Sound 243641
Sport 243581
gained 243568
#o@@ 243531
stadium 243520
eve 243456
Auto 243454
selfish 243359
Together 243325
Fla@@ 243270
mil@@ 243206
asf 243176
rolls 243161
solve 243111
Brother 243056
revealed 243033
CAR@@ 242974
uck@@ 242945
cla@@ 242866
tra 242865
incredibly 242824
Sanders 242816
E-@@ 242725
bon@@ 242689
har 242629
handed 242473
quotes 242441
ology 242329
Fre@@ 242322
far@@ 242316
races 242205
exclusive 242091
19th 242069
NY@@ 241995
Ger@@ 241983
realised 241919
0-@@ 241893
ultimate 241889
fraud 241879
aya 241801
EE@@ 241766
stairs 241738
raising 241683
grace 241677
Bye 241640
protection 241578
Daddy 241563
Move 241557
bull 241554
unfortunately 241414
Mario 241398
allowing 241396
Rs 241360
faced 241280
attached 241279
residents 241247
downtown 241108
Basketball 241091
;D 241080
randomly 241066
SL@@ 241011
rooms 240981
ease 240830
#so@@ 240822
#v@@ 240790
TOP 240771
wheel 240752
dar@@ 240741
TAKE 240721
fails 240711
weapons 240675
:kissing_face_with_closed_eyes: 240647
bts 240602
wifi 240582
dislike 240495
Au@@ 240487
Shame 240435
Cash 240326
particularly 240292
Under@@ 240284
Ash@@ 240280
eyebrows 240255
USB 240228
Drop 240218
Bitcoin 240125
clothing 240088
sec@@ 240044
increased 240005
Kate 239900
entirely 239883
aside 239879
nut 239831
Je@@ 239795
variety 239761
register 239757
lion 239756
PS@@ 239666
MEAN 239664
Pokemon 239600
ack 239581
label 239569
Yellow 239523
burger 239445
ole 239435
Kill 239411
hunt 239367
feedback 239292
wn@@ 239262
dra@@ 239160
BI@@ 239130
appointed 239123
hw 239064
5-@@ 239011
penalty 238899
poster 238876
lad 238771
fights 238732
ii@@ 238645
Shut 238544
Lana 238502
rapper 238457
dawg 238421
Loved 238391
CS 238381
6-@@ 238328
MAR@@ 238308
Governor 238255
client 238255
tru@@ 238241
ization 238206
Kinda 238195
trap 238151
1998 238134
Bless 238107
e_@@ 237949
password 237925
ignoring 237922
NIGHT 237866
coat 237866
ree 237708
sam@@ 237701
racing 237682
UC@@ 237673
Hand@@ 237667
addicted 237653
CUTE 237611
reduce 237554
9-@@ 237510
Huge 237504
hal@@ 237496
typical 237435
Stream 237371
Rey 237323
wha@@ 237280
sters 237255
PP@@ 237227
frame 237015
Complete 237009
chi 236992
hidden 236978
los 236962
charger 236902
beast 236872
Teen 236729
wasting 236663
Britney 236597
beside 236568
chosen 236493
tested 236431
Ali 236378
:pile_of_poo: 236358
Express 236259
Traffic 236218
ight 236181
kicking 236148
á@@ 236114
pushed 236113
emoji 236026
Gary 236001
MM@@ 235982
Limited 235936
Iraq 235926
burg 235876
sted 235856
affect 235723
Wo@@ 235619
lon@@ 235611
#3@@ 235598
replied 235578
non@@ 235537
IP 235475
Camp 235435
berg 235334
sooooo 235324
fries 235323
ban@@ 235285
ze@@ 235160
ati 235154
PRO@@ 235072
awww 235068
sunny 235019
WHERE 234991
HEY 234985
dan 234978
amp@@ 234945
Fan@@ 234939
reaching 234859
PS4 234858
Financial 234769
Giveaway 234746
ion@@ 234715
Cas@@ 234670
kissing 234656
confirm 234648
Gay 234602
:smiling_face_with_3_hearts: 234515
Ph@@ 234488
farm 234474
yelling 234470
error 234431
Eye 234425
Cat@@ 234369
Battery 234361
dos 234349
Del 234348
elle 234282
mainly 234200
Inch 234065
if@@ 233994
rally 233980
Dragon 233960
plain 233935
cloud 233870
grey 233817
tuned 233809
stated 233797
terrorist 233756
whore 233690
Duke 233673
lan@@ 233672
ez 233613
Strong 233471
ignored 233440
Totally 233425
hum@@ 233415
entertainment 233339
policies 233271
Students 233185
clients 233098
Six 233083
suspect 232958
kh@@ 232897
bad@@ 232888
Told 232877
od@@ 232815
porno 232747
lick 232712
punk 232573
dig 232563
perspective 232431
hahahahaha 232365
UPDATE 232293
claimed 232217
HE@@ 232215
constant 232179
DR@@ 232123
Audio 232083
Contact 232039
soldiers 232021
Quick 231995
tho@@ 231940
BAD 231937
O'@@ 231931
estate 231915
:registered: 231914
officers 231860
ira 231795
lowkey 231764
needa 231702
Rich 231683
salad 231595
TONIGHT 231579
Lebron 231526
horny 231515
Attack 231364
#6@@ 231293
Spurs 231264
rings 231252
ington 231232
task 231089
Crystal 231044
34@@ 230866
uu@@ 230858
Tax 230780
key@@ 230774
fo 230773
NI@@ 230705
Ban@@ 230653
hardcore 230578
gging 230363
belly 230356
Kansas 230312
Student 230293
values 230240
Moore 230231
ously 230210
Barcelona 230193
nothin 230116
YOU'RE 230070
CC@@ 230059
#Jobs 230033
dem@@ 229984
Eve 229837
fee 229768
Aw 229742
oops 229726
cm 229650
suspended 229587
SU 229573
Islamic 229563
wars 229563
fy 229503
blunt 229493
Fort 229373
asap 229327
prime 229300
Singapore 229288
Race 229270
peoples 229253
Dun@@ 229237
MAN@@ 229228
iv@@ 229173
WA 229145
#ma@@ 229139
BECAUSE 229044
tes 229013
Golf 228993
rage 228985
Sterling 228916
context 228896
ano@@ 228887
quest 228807
fuel 228791
Men@@ 228774
stra@@ 228752
fest 228744
explains 228727
dang 228660
loo@@ 228657
selection 228628
ero 228583
banks 228577
praise 228534
assault 228532
Machine 228458
Die 228434
reminded 228358
#2@@ 228353
BJP 228346
carried 228328
mines 228286
ok@@ 228261
represent 228223
ego 228218
bothered 228214
blah 228109
woo@@ 228052
actress 228048
pace 228009
mb@@ 227976
D: 227961
IR@@ 227955
#Re@@ 227949
Drinking 227888
ith 227878
wat@@ 227853
flu 227850
tail 227824
ech@@ 227819
Empire 227817
sand@@ 227760
knees 227731
alongside 227718
Batman 227569
covering 227560
cy@@ 227545
Institute 227502
headphones 227498
MC@@ 227470
dj@@ 227461
hahahah 227451
deaths 227450
champion 227228
Kong 227086
wee@@ 227061
Howard 227005
VS 226956
SOME 226923
Stupid 226901
LAST 226837
Less 226822
hu 226816
extreme 226799
ali 226714
HI@@ 226680
sem@@ 226655
#in@@ 226651
Soul 226543
ain 226536
Current 226513
attended 226450
DAYS 226442
enemies 226435
discount 226423
Big@@ 226419
rated 226412
jumping 226349
electric 226291
units 226288
stunning 226260
lly 226224
Skin 226219
Philippines 226157
VIP 226146
beg 226119
uncomfortable 226026
clo@@ 225938
massage 225884
Weight 225847
causes 225788
fuck@@ 225780
HARD 225757
lads 225740
Cla@@ 225726
Good@@ 225659
meme 225630
nuclear 225619
Ted 225559
ers@@ 225554
MI 225469
OT 225411
spoken 225409
Engineer 225343
soup 225328
Scottish 225289
sweat 225287
courage 225230
:rose: 225217
scoring 225179
:dizzy: 225162
act@@ 225130
ENT 225125
worldwide 225124
iphone 225019
golden 225004
toy 224947
Tim@@ 224930
understood 224911
Bruh 224882
Mur@@ 224828
AG@@ 224818
Cold 224767
su 224759
temperature 224731
searching 224634
nephew 224532
bud 224514
Due 224440
eats 224422
Build 224389
proven 224356
Orlando 224293
alist 224251
#ask@@ 224249
Danny 224202
gre@@ 224177
hh@@ 224151
Iron 224147
som@@ 224043
Catch 223869
Lauren 223838
sk 223835
booked 223816
Cap@@ 223815
bre@@ 223813
Missing 223770
sticks 223692
ier 223668
800 223635
13th 223633
:soccer_ball: 223631
Nigerian 223588
tit@@ 223582
Modern 223554
Fat 223506
ana@@ 223482
positions 223480
56@@ 223476
Cy@@ 223436
ets 223386
healthcare 223333
kno@@ 223253
Cancer 223221
ino@@ 223208
mid@@ 223192
#Z@@ 223183
deny 223174
Sell 222978
humanity 222825
Dick 222818
recognize 222794
belt 222667
atleast 222648
header 222618
Computer 222597
gan@@ 222582
yung 222438
Ram@@ 222434
Nintendo 222400
Cheers 222366
motion 222351
Customer 222309
Potter 222290
Gri@@ 222289
Pick 222015
PR@@ 222013
ising 221945
1997 221853
convince 221720
Details 221662
recovery 221611
Grande 221558
Kings 221489
finishing 221388
nic@@ 221331
raw 221318
Charlotte 221307
TER 221305
Shows 221271
clouds 221249
minor 221224
del@@ 221200
Des@@ 221154
Between 221136
logical 221105
rat 221092
mel@@ 220987
hmmm 220962
touched 220924
strip 220885
Bruce 220842
nightmare 220831
Assistant 220820
Email 220808
item 220798
DEALS 220723
structure 220707
pre 220683
ich 220666
Hum@@ 220643
St. 220607
dev@@ 220531
Tired 220523
Eastern 220501
bee@@ 220441
dumbass 220428
#co@@ 220405
Register 220391
#th@@ 220377
freshman 220292
Bids 220275
way@@ 220122
k-@@ 220062
spreading 220059
answered 220058
Track 219966
phase 219912
spots 219882
humble 219874
#RT 219872
aaaa@@ 219729
Rob 219667
tz 219614
Mama 219592
iron 219509
Mount 219427
:face_without_mouth: 219393
gri@@ 219346
HELL 219234
rac@@ 219215
awareness 219028
iPod 219006
sting 218987
big@@ 218932
brush 218917
mask 218860
causing 218755
opposition 218696
3:@@ 218661
yards 218626
Ya@@ 218611
stopping 218594
panel 218584
Worst 218567
illi@@ 218541
blown 218535
presentation 218521
Ak@@ 218417
Worth 218337
#Mar@@ 218242
Type 218223
Military 218152
xo 218083
exposed 218036
pts 217983
Michelle 217925
stare 217880
couples 217765
ade 217760
kie 217760
one-@@ 217754
capable 217727
immigration 217722
e.@@ 217702
Perhaps 217691
Train 217623
1996 217599
ü@@ 217588
Maria 217580
carrying 217556
hon@@ 217513
crimes 217508
sit@@ 217505
march 217490
#be@@ 217483
folk 217446
TE@@ 217363
sadly 217359
alternative 217352
kan 217253
AF@@ 217251
Poland 217241
fried 217228
Walmart 217206
UM 217163
THING 217141
chilling 217138
relief 217137
remaining 217136
exists 217123
scare 217102
sta 217059
Wood 217047
providing 216827
ITY 216815
formula 216815
Harris 216775
Ave 216725
Behind 216714
Champions 216687
Spirit 216672
promises 216651
sends 216632
SP 216623
dri@@ 216598
celebrity 216573
Katy 216480
disaster 216417
Saint 216415
CP 216384
stranger 216381
o-@@ 216329
root 216322
toes 216312
 216275
Giants 216255
Baseball 216254
Chicken 216173
kk 216152
experiences 216073
Thx 216054
bitter 215949
zi@@ 215920
Lakers 215897
troops 215833
swing 215747
concerns 215727
chart 215707
chy 215643
ahaha 215614
77@@ 215516
volume 215491
ble@@ 215458
FL@@ 215429
NJ 215416
YO 215361
Wrong 215316
fiction 215313
post@@ 215293
Delhi 215196
MI@@ 215191
tattoos 215191
Oregon 215174
alo@@ 215144
server 215123
offended 215117
thirsty 215113
romantic 215050
Executive 215049
twins 215043
intense 215008
additional 214989
Jane 214968
ensure 214950
Retweeted 214857
larger 214847
NOTHING 214807
LeBron 214802
Sim@@ 214756
figures 214741
tre@@ 214739
Later 214713
SAME 214693
knw 214667
weekends 214665
HAD 214619
Gro@@ 214605
dam 214603
Match 214590
Hoo@@ 214538
stolen 214490
Jennifer 214451
pun@@ 214441
Amy 214351
helpful 214328
Female 214325
RT@@ 214320
Print 214317
Denver 214306
yn 214301
Hemmings 214245
Sitting 214245
Gray 214219
petty 214217
:penguin: 214214
None 214206
om 214131
Kal@@ 214040
acceptable 214029
Version 214001
band@@ 213938
A-@@ 213913
Dean 213841
mic 213834
Interview 213823
penis 213819
sla@@ 213739
Ocean 213736
waited 213713
LL@@ 213708
lers 213701
Bas@@ 213652
#Deals 213641
supports 213612
---> 213600
entertaining 213599
Love@@ 213544
communities 213519
approximately 213497
Egypt 213475
ond@@ 213447
northern 213414
irrelevant 213295
Experience 213293
UT@@ 213286
louis 213278
Committee 213236
selected 213171
reveals 213159
cycle 213139
ware 213099
ron 213091
flash 213067
VO@@ 213055
Marvel 213003
kn@@ 212935
AD 212928
nite 212915
drove 212864
SF 212843
Matthew 212793
clown 212726
Roll 212612
TWO 212612
Sick 212469
ING@@ 212410
Bad@@ 212390
intended 212351
Except 212329
just@@ 212308
tryin 212227
Tweets 212211
Rest 212209
ran@@ 212196
Dutch 212128
Unfortunately 212124
determined 212106
documentary 211956
OMFG 211882
Parliament 211817
Total 211792
chasing 211778
inches 211688
lawyer 211504
cancel 211498
:anxious_face_with_sweat: 211497
21@@ 211474
NYT 211464
vibes 211456
Bed 211453
ric@@ 211432
rs 211408
youu 211380
:cat_face_with_tears_of_joy: 211378
Bre@@ 211361
appropriate 211345
neighborhood 211315
amateur 211273
ain@@ 211263
Mid@@ 211199
tic@@ 211190
10-@@ 211085
eat@@ 211019
Youth 211005
outbreak 210987
Lincoln 210980
referring 210972
craft 210954
secure 210949
CE 210940
decades 210911
Indiana 210906
unable 210905
Hel@@ 210903
tap 210878
genuine 210820
hat@@ 210791
#hiring 210780
Jewelry 210719
screwed 210682
� 210659
#Trump@@ 210488
retweets 210475
Indonesia 210474
stealing 210450
tennis 210431
Argentina 210427
Works 210397
kicks 210388
Cafe 210352
Elizabeth 210290
² 210279
quiz 210277
ao 210276
swag 210270
jumped 210207
meets 210198
XL 210193
audio 210155
wer@@ 210147
Touch 210119
TELL 210116
Tea 210078
gue 210062
Kyle 210057
plants 210027
ren@@ 210010
bucks 209995
stations 209946
vin 209942
dreaming 209778
yl@@ 209747
vers 209746
XXX 209657
gig 209650
Merry 209644
lap 209568
ding@@ 209567
collect 209548
esh 209482
Simon 209418
nor@@ 209393
bust 209357
AA 209351
Brothers 209350
arrive 209343
sang 209341
neighbors 209327
#4@@ 209309
sensitive 209307
defeated 209274
suits 209274
zo 209271
arrest 209229
familiar 209205
cable 209200
subscribe 209173
mon 209124
vibe 209104
Electric 208960
iness 208946
Anna 208944
PI@@ 208914
pose 208911
depressing 208871
aircraft 208823
West@@ 208794
native 208772
Ultimate 208764
admire 208742
Ppl 208708
identity 208679
Stadium 208668
:balloon: 208618
actors 208585
Carter 208580
pillow 208578
WS 208574
oooo@@ 208496
kay 208494
Born 208453
Parents 208412
celebration 208378
conservative 208361
cutie 208291
Boss 208192
Vine 208135
your@@ 208109
fridge 208096
Bla@@ 208074
Jake 208017
Dor@@ 207975
Clear 207933
succeed 207927
beard 207845
HR 207821
Metal 207818
Ps 207760
READ 207704
enn@@ 207689
emp@@ 207684
YEAR 207665
promotion 207663
complicated 207596
deck 207563
ul 207563
toe 207555
Civil 207514
Dr@@ 207486
Vs 207479
sooner 207471
Democrat 207457
#Al@@ 207421
11/@@ 207370
Fantasy 207366
eeee@@ 207365
Emma 207327
Lea@@ 207303
Pope 207294
Warriors 207250
ako 207212
txt 207173
Rec@@ 207149
equipment 207095
babes 207077
throws 207061
experts 207018
drives 206817
physically 206807
ILY 206675
funeral 206666
guessing 206663
4,@@ 206655
SHA@@ 206540
wealth 206419
SHOW 206392
visited 206368
Walker 206366
aging 206332
ele@@ 206245
defending 206243
fitness 206209
theyre 206196
02@@ 206162
nam@@ 206115
:glowing_star: 206074
Capital 206069
tel@@ 206047
Author 206014
ILYSM 205971
may@@ 205967
#new@@ 205961
spare 205942
Tom@@ 205909
burned 205883
#team@@ 205849
smash 205835
AI 205792
sion 205764
mfs 205723
1/@@ 205675
Ashley 205660
wana 205640
Exclusive 205622
IVE 205555
RS 205540
couldnt 205505
INE 205470
peak 205462
ila 205440
hol@@ 205392
Lucky 205367
Brooklyn 205362
pleased 205334
Target 205330
Create 205236
trynna 205203
aga@@ 205196
Apply 205189
PER@@ 205174
Facts 205170
require 205092
challenges 204939
shar@@ 204851
Hamilton 204844
marathon 204821
humor 204794
Prod 204701
skill 204658
boxes 204637
Robin 204628
operations 204618
80@@ 204606
cricket 204595
associated 204582
Wishing 204387
height 204361
Professional 204267
sing@@ 204232
Pizza 204226
keeper 204225
Journal 204220
Billy 204204
nerves 204200
violent 204186
Kindle 204124
#music 204099
situations 204069
breathing 204026
french 204009
DJ@@ 203926
favorites 203919
Safe 203854
Jeremy 203851
Lovely 203764
receiving 203750
cap@@ 203740
alert 203708
Hmmm 203638
buildings 203637
rel@@ 203593
trains 203552
Library 203530
spin 203443
Kiss 203418
sive 203360
#st@@ 203256
GAME 203220
pops 203213
Jews 203203
Gun 203175
ph 203140
treating 203139
Problems 203133
presented 203130
harm 203124
incident 203115
poverty 203111
nn 203109
Everytime 203082
#best@@ 203057
RN 203033
dam@@ 202989
1995 202967
Software 202967
SD 202943
ICE 202937
ining 202889
Vo@@ 202875
vis@@ 202865
releases 202787
#Mo@@ 202742
abortion 202696
:zzz: 202691
counts 202633
Rights 202625
Baltimore 202617
#Ma@@ 202612
Philadelphia 202579
Cloud 202577
pays 202556
Fer@@ 202527
#BB@@ 202503
SN@@ 202496
rank 202489
gaming 202476
screw 202465
Dev@@ 202431
Le 202425
cri@@ 202424
fallen 202411
shaking 202406
forth 202394
ath 202370
Jessica 202347
Gov 202342
s_@@ 202302
1994 202281
kes@@ 202239
cure 202208
junior 202155
ach 202054
forest 202018
thx 201959
Driving 201938
hundreds 201923
comin 201872
blessings 201807
playin 201774
Dan@@ 201743
Excellent 201742
Pra@@ 201741
pig 201721
CM 201715
pc 201701
voices 201605
:trade_mark: 201563
Close 201540
reveal 201509
worship 201509
Mar 201469
Pen@@ 201437
Luc@@ 201423
fame 201340
Ebay 201327
Anniversary 201297
MADE 201296
tops 201228
Ag@@ 201198
:wrapped_gift: 201180
WANNA 201161
knife 201146
od 201076
linked 201063
Alan 201036
Ear@@ 201030
failing 201012
specifically 201002
salt 200951
cookie 200931
Pur@@ 200920
ai@@ 200771
council 200751
slip 200712
Son@@ 200704
markets 200652
bottles 200593
2:@@ 200556
decides 200517
Christians 200468
Antonio 200463
Sand@@ 200456
140 200415
freezing 200346
Der@@ 200325
discover 200320
eeeee 200288
communication 200232
Hum 200208
Iowa 200195
shoutout 200191
lim@@ 200101
method 200069
habit 200035
Jan@@ 200007
Jerry 200007
Flash 199956
Sm@@ 199944
OKAY 199934
prior 199906
ray 199896
Eagles 199851
Por@@ 199849
Soccer 199849
menu 199831
Anti-@@ 199800
compete 199798
29.@@ 199797
michael 199757
SAID 199754
invest 199670
Rangers 199661
gap 199636
Election 199616
agreement 199599
lists 199556
Anybody 199520
Rio 199500
ico 199440
kinds 199428
Movies 199388
Content 199370
costume 199331
mal 199315
holes 199301
ANT 199287
ined 199283
minimum 199282
hmu 199271
uu 199267
pic@@ 199215
TRA@@ 199208
Av@@ 199207
an-@@ 199193
extended 199092
secrets 199086
vine 199064
pretending 199063
loses 199059
Brady 199033
Kentucky 199030
capacity 198950
Ass@@ 198923
mac@@ 198825
FU@@ 198796
Straight 198699
phrase 198697
BETTER 198672
yoga 198619
isa 198607
bes 198549
News@@ 198530
mah 198527
touching 198522
KE@@ 198479
MM 198426
niece 198413
retired 198403
surface 198272
auto 198216
Rev@@ 198197
smooth 198191
crib 198161
stri@@ 198121
Fitness 198096
bie 198052
CHA@@ 198038
pointless 198033
:exclamation_mark: 197974
Rachel 197946
Dem@@ 197934
Started 197910
impressive 197869
arts 197813
dramatic 197807
Speed 197792
fools 197755
58@@ 197729
Mens 197723
#Love@@ 197710
az@@ 197631
UG@@ 197546
eastern 197531
Avenue 197527
newest 197510
sel 197500
payment 197479
HQ 197469
#ch@@ 197434
DD@@ 197429
ranked 197404
Eyes 197389
ppin 197368
designer 197366
thou 197325
TOMORROW 197228
Wife 197205
engaged 197193
Industry 197164
rant 197142
Lead 197137
theatre 197124
Lovato 197064
IF@@ 197011
:new_moon_face: 196991
light@@ 196972
Heaven 196970
script 196911
FOR@@ 196863
Illinois 196857
vi 196828
Rise 196814
32@@ 196795
VER@@ 196768
ries 196768
Tree 196742
Cards 196691
filling 196682
mothers 196677
worker 196606
commit 196472
Tal@@ 196439
:| 196350
Wanted 196285
gy 196268
FULL 196234
lmaooo 196233
Rep@@ 196216
SW 196190
feelin 196083
Snapchat 196053
dah 196004
contacts 195984
Omega 195975
:pizza: 195974
Core 195961
Grace 195951
washing 195944
Storm 195929
custom 195908
Cable 195876
packing 195859
Shot 195845
500@@ 195819
politician 195800
SJ@@ 195748
ida 195724
⁦ 195715
Oscar 195674
essential 195666
previously 195607
Officer 195599
bits 195548
gon@@ 195507
dor@@ 195378
claiming 195376
SONG 195366
Anderson 195338
→ 195321
fied 195309
witness 195297
nominated 195256
Minecraft 195250
Secretary 195232
Port 195225
Record 195218
Enough 195188
imo 195175
Bru@@ 195172
corporate 195159
:hot_beverage: 195151
attending 195129
BUY 195067
bay 195033
ek@@ 195031
Fact 195019
graphic 195015
eli@@ 195000
Uber 194951
Bay@@ 194942
moral 194895
pets 194891
presidential 194885
san 194873
#Free@@ 194870
dom 194842
united 194779
returning 194764
ful@@ 194729
drank 194708
1990 194703
CK 194683
tar 194620
drake 194585
Ma 194521
rarely 194498
Freedom 194487
ala@@ 194422
replies 194391
liam 194324
Eating 194315
rite 194297
existing 194272
Att@@ 194231
:basketball: 194223
Giving 194216
Play@@ 194201
chillin 194200
unlike 194180
intelligent 194169
:zany_face: 194155
craving 194155
END 194112
get@@ 194100
pub 194066
boy@@ 194057
insult 194046
ld 194044
wallet 194042
foundation 193965
duck 193961
excuses 193944
dresses 193935
iting 193927
deeply 193926
doll 193911
compliment 193893
Gun@@ 193886
Whoever 193860
57@@ 193833
Estate 193751
comp@@ 193718
01:@@ 193656
fur@@ 193604
titles 193525
username 193472
signal 193463
Han@@ 193462
THAN 193422
10,000 193413
Edward 193412
hacked 193363
Bat@@ 193359
Home@@ 193347
odds 193308
Den@@ 193302
#Bo@@ 193295
YS 193293
exit 193290
entitled 193275
nar@@ 193261
somethin 193253
toys 193249
90s 193190
#ALDUB@@ 193137
mid-@@ 193116
Sel@@ 193115
wrestling 193082
4:@@ 193051
Leader 193039
Tur@@ 193013
ex-@@ 192980
chicks 192959
pit 192941
WHITE 192887
Bus 192874
Met 192854
ens@@ 192815
Hoping 192807
Phoenix 192806
hunting 192792
childish 192787
fears 192684
toxic 192680
3.5 192658
reads 192650
Chocolate 192629
Res@@ 192614
applied 192586
Lisa 192564
Stick 192505
Xmas 192504
treats 192455
dust 192424
Spears 192423
Theatre 192328
ement 192313
abs 192295
scheduled 192236
Feat 192190
biz 192183
#un@@ 192176
fishing 192130
danger 192121
bas@@ 192086
Forest 192040
bubble 192038
laundry 192012
HAHAHAHA 192002
Az@@ 191976
waves 191884
sucking 191803
Wireless 191787
ath@@ 191758
DONE 191710
drew 191707
remained 191678
Jonathan 191636
web@@ 191609
hottest 191607
Person 191540
Atlantic 191513
hur@@ 191513
TV@@ 191488
Quote 191476
chip 191476
boi 191458
expectations 191438
operation 191431
inger 191374
oooo 191357
amo 191350
tting 191319
Wire 191207
1992 191190
Oklahoma 191171
Ontario 191144
#1@@ 191071
twist 191058
Kenya 191053
proved 191042
ple@@ 191029
gt 190990
NEXT 190913
eness 190765
mad@@ 190723
MB 190715
gos 190679
Greece 190590
Russell 190547
SOMEONE 190502
upgrade 190498
pol@@ 190494
all-@@ 190487
Hunter 190486
Hong 190476
CU@@ 190444
rescue 190423
mac 190411
nearby 190394
bass 190339
combined 190294
ft@@ 190283
Latin 190263
urge 190257
201@@ 190219
graduated 190195
ignorance 190176
GE@@ 190164
Mayor 190144
sj@@ 190099
ancient 190057
flies 189972
dot 189918
THEIR 189895
sheet 189880
finale 189827
cr 189826
sector 189817
#KCA 189816
FR@@ 189777
ays 189764
rem@@ 189697
#Best@@ 189680
Hawaii 189650
hangout 189612
fac@@ 189607
Bear 189580
10/@@ 189579
elite 189538
lovers 189490
worrying 189468
Wine 189433
Commission 189411
creation 189387
Aye 189370
eman 189357
ele 189355
refused 189353
Thoughts 189331
Paper 189224
Performance 189189
OU@@ 189185
cas@@ 189164
watches 189162
blew 189116
Jamie 189076
wolf 189057
Picture 189056
survey 188941
cultural 188915
awarded 188908
Govt 188892
ture 188810
announcement 188808
numerous 188767
⃣ 188764
recipe 188724
solutions 188715
Dem 188686
hea@@ 188675
Ken@@ 188673
Cream 188652
see@@ 188650
MIN@@ 188624
messing 188612
tribute 188592
Generation 188573
post-@@ 188517
#Im@@ 188510
cheers 188504
16th 188469
Rt 188462
rides 188461
Seen 188454
Amen 188449
eal 188434
yyyy 188292
SEO 188195
miserable 188160
Concert 188156
HUGE 188113
bones 187990
importance 187975
hung 187918
Sky@@ 187900
Yahoo 187865
dic@@ 187781
DIE 187722
requires 187662
chemistry 187661
hn 187586
kindness 187564
shops 187560
#We@@ 187539
strikes 187517
Minnesota 187515
Kardashian 187505
producer 187479
Murray 187478
nun 187344
uniform 187332
Campaign 187322
WERE 187313
pas@@ 187304
exhausted 187284
lifestyle 187250
xoxo 187242
Pandora 187238
#e@@ 187098
POTUS 187088
mann 187077
Fantastic 187076
ome@@ 187042
was@@ 186995
pla@@ 186985
Teacher 186980
blanket 186962
:white_medium_star: 186959
Lam@@ 186920
files 186901
Sab@@ 186896
piano 186893
Jam@@ 186885
bun@@ 186883
enti@@ 186871
organized 186868
Cyrus 186849
attacking 186734
fifth 186720
glory 186691
#Co@@ 186621
That@@ 186581
Senator 186559
weapon 186550
❁ 186479
registered 186478
⁩ 186444
Choice 186420
ene@@ 186361
corn 186333
wears 186327
HOME 186272
appeal 186271
Results 186262
clips 186228
Mus@@ 186201
interviews 186195
routine 186183
emo@@ 186182
ref 186167
5:@@ 186135
sneak 186034
Entertainment 186032
ball@@ 185994
WORK 185966
70@@ 185961
ast@@ 185955
Animal 185947
vel@@ 185879
ook 185846
sucked 185837
Legend 185814
ony 185788
blocks 185775
dirt 185745
domestic 185709
decade 185701
informed 185606
Driver 185582
90@@ 185514
thang 185500
Smile 185490
educated 185474
hm 185467
Columbia 185446
Annual 185444
ial 185419
/: 185403
referred 185319
Grow 185284
14.@@ 185264
Israeli 185259
partners 185248
cow 185205
arent 185196
gn@@ 185174
embarrassed 185173
rub 185123
GP 185092
remix 185011
Roy 185010
illness 184994
Larry 184961
eva 184946
disrespectful 184921
12th 184891
15th 184876
upper 184848
comm@@ 184816
Personal 184768
delayed 184723
#Get@@ 184680
BT@@ 184646
Heard 184646
WELL 184616
Dinner 184530
cheated 184504
ump@@ 184497
flights 184443
1993 184441
SON 184408
Blues 184403
valid 184394
art@@ 184389
devices 184363
Everyday 184362
foods 184337
ml 184295
sweetest 184291
NBC 184285
！ 184265
Location 184256
nowadays 184240
LONG 184234
traveling 184224
Memorial 184213
í@@ 184200
ette 184193
au 184191
Ten 184178
playoff 184154
pin@@ 184135
confusing 184120
rly 184111
11th 184045
˘ 184036
bucket 183997
Assembly 183992
700 183861
styles 183845
theater 183830
Loss 183818
Str@@ 183786
prince 183696
Best@@ 183691
sits 183627
:yin_yang: 183582
understands 183539
petition 183508
Calling 183507
studied 183474
Ren@@ 183471
household 183459
Mail 183385
Um 183373
fields 183366
NHL 183351
Jay@@ 183266
SHOULD 183220
Tro@@ 183210
umm 183192
ula 183133
Screen 183127
Indians 183084
Uh 183078
stretch 183070
micro@@ 183067
Goes 183034
RA 183025
blocking 183017
Block 182975
chers 182959
aim 182958
Op@@ 182916
participate 182901
hatred 182881
PAR@@ 182863
measure 182741
le-@@ 182737
sweetie 182730
Warning 182712
shade 182692
run@@ 182684
speaker 182666
Sla@@ 182559
bul@@ 182518
sorted 182513
THESE 182493
contains 182490
ial@@ 182479
1989 182443
PLAY 182437
Faith 182369
Sweden 182345
retirement 182313
Far 182307
Necklace 182298
begging 182273
Reasons 182237
arse 182211
#good@@ 182195
highlight 182191
peeps 182182
CB@@ 182177
sand 182172
highlights 182160
counter 182089
ا@@ 182063
loyalty 182049
SL 182042
pilot 181998
priority 181995
newspaper 181968
Green@@ 181956
cared 181947
GTA 181931
faithful 181931
Pass 181918
5/@@ 181887
peaceful 181847
hav 181810
ure@@ 181756
mur@@ 181712
Constitution 181698
some@@ 181598
journalist 181588
ratchet 181497
:person_raising_hand: 181489
designs 181480
hack 181473
ron@@ 181439
mar 181437
banana 181363
DU@@ 181360
MON@@ 181324
Takes 181235
fra@@ 181225
op 181196
Emily 181183
Likes 181183
Awww 181143
urs 181115
CI@@ 181080
Anyway 181040
react 181011
12-@@ 180997
permanent 180987
oms 180895
Hero 180867
guarantee 180856
timing 180798
roo@@ 180782
congratulations 180780
Shipping 180751
Product 180738
tier 180691
:musical_note: 180686
ahhh 180553
mixtape 180539
TION 180536
JA@@ 180513
Fri@@ 180439
pho@@ 180372
59@@ 180369
rr@@ 180340
17th 180313
believing 180292
Hills 180274
book@@ 180246
worn 180201
res@@ 180174
#Be@@ 180115
excitement 180024
Self 179943
performances 179891
GG@@ 179888
limits 179875
Website 179866
Jazz 179855
Btw 179784
regional 179765
ceremony 179745
cruise 179719
atm 179712
leg@@ 179711
var@@ 179694
boom 179690
EM 179658
8/ 179633
executive 179633
iner 179618
Common 179579
:sign_of_the_horns: 179567
mes 179541
med@@ 179530
interests 179521
Bot 179503
maintain 179390
every@@ 179386
Steven 179338
coaches 179317
Based 179284
Duty 179264
MP@@ 179254
Tennessee 179228
Messi 179199
Meeting 179187
bing 179177
technical 179161
propaganda 179150
cher@@ 179097
Knight 179071
defensive 179057
Creek 179025
Opening 179022
ree@@ 179004
trends 178973
sings 178964
1991 178953
kid@@ 178935
Weird 178890
DD 178885
Hop 178883
12/@@ 178873
TER@@ 178868
boxing 178838
Kitchen 178826
wit@@ 178722
atory 178718
Gor@@ 178717
heal 178689
ably 178676
wards 178661
lif@@ 178656
Insurance 178653
DREAM 178651
purchased 178625
messy 178547
Orleans 178520
GMT 178502
Med@@ 178491
Warren 178420
proposed 178400
3/@@ 178398
notifications 178397
#Th@@ 178386
cs 178366
achievement 178313
spo@@ 178293
dressing 178278
pers 178243
Restaurant 178212
pattern 178119
row@@ 178116
iz 178108
Aint 177934
CK@@ 177874
Portland 177807
washed 177794
differently 177782
DOES 177770
ILL 177711
dro@@ 177679
Sept 177666
:clinking_beer_mugs: 177647
Whats 177645
CHECK 177520
Ky@@ 177499
CBS 177461
assistance 177445
forgetting 177360
instantly 177299
ideal 177265
Shopping 177249
asian 177225
immigrants 177225
Tip 177213
bu 177201
Ann 177198
Shar@@ 177192
dye 177190
LP 177171
ttt 177168
1/4 177155
i-@@ 177135
preview 177119
branch 177109
slave 177103
#bu@@ 177092
4/@@ 177091
Purple 177059
YEAH 177058
darling 177058
Yu@@ 177052
disrespect 177032
jet 176996
DNA 176987
Third 176962
Jacob 176943
boards 176943
authority 176930
Top@@ 176851
bond 176835
Graham 176800
Beer 176755
Kat@@ 176646
toast 176643
replacement 176618
pay@@ 176558
Thrones 176527
fer 176516
#So@@ 176515
love@@ 176456
Philly 176444
neighbor 176442
programme 176407
Ronaldo 176364
command 176348
:sneezing_face: 176336
Writing 176292
bare 176207
closest 176182
MISS 176177
rie 176174
Bobby 176169
Tam@@ 176159
rugby 176139
historic 176115
aries 176098
injuries 176041
Tiger 176008
IE 175997
ix 175993
jesus 175952
grand@@ 175875
gal@@ 175836
form@@ 175835
yell 175794
Focus 175781
6:@@ 175738
:high_voltage: 175723
tin@@ 175698
Zone 175643
76@@ 175627
Ok@@ 175618
ero@@ 175594
09:@@ 175524
wl 175472
Con 175423
sty 175375
leather 175346
Tower 175337
kindly 175329
ssss 175299
ame 175257
tradition 175235
Malaysia 175203
ams 175202
noon 175186
assignment 175164
american 175156
ane@@ 175155
ester 175147
Covid 175144
Jun@@ 175130
SALE 175090
fighter 175082
AMO 175030
fever 175018
acy 174970
thinkin 174948
roommate 174937
dated 174912
SCHOOL 174892
Count 174877
jay 174875
woods 174798
AW@@ 174791
applications 174769
olds 174762
13.@@ 174749
Mum 174749
​ 174734
Source 174699
wil@@ 174667
stu@@ 174615
sty@@ 174540
retweeted 174536
HAR@@ 174471
ean 174434
tte 174429
Pol@@ 174425
water@@ 174422
Biggest 174401
coins 174393
checks 174369
One@@ 174354
historical 174347
woo 174341
awa 174272
night@@ 174266
spec@@ 174247
courses 174208
dea@@ 174202
KEEP 174192
editing 174189
Wood@@ 174172
ited 174155
Products 174137
cut@@ 174131
athletes 174105
Information 174095
MV 174064
ello 174052
committee 174014
approved 174007
trained 173997
Not@@ 173961
ett 173934
78@@ 173922
meh 173921
Private 173911
Chuck 173892
FINALLY 173880
achieved 173820
#Lo@@ 173698
S-@@ 173698
Blake 173671
08:@@ 173620
Francis 173620
Nash 173612
CRYING 173586
Dreams 173539
high-@@ 173536
Fun@@ 173519
horses 173421
writes 173396
channels 173393
Premium 173390
pulls 173248
18.@@ 173207
grant 173186
30.@@ 173166
JO@@ 173142
tb@@ 173131
lool 173123
armed 173086
Safety 173036
Standard 173019
Ahh 172989
fi 172979
homies 172938
AV@@ 172910
#ha@@ 172871
detail 172871
350 172850
Pride 172841
gir@@ 172828
bros 172763
iling 172755
inspire 172708
hv 172681
encourage 172669
PRE@@ 172620
tran@@ 172592
HEART 172589
ont 172543
110 172523
dms 172494
frozen 172470
eet 172467
improved 172454
Pun@@ 172422
seed 172372
ide@@ 172368
MLB 172354
vids 172303
Trans@@ 172301
dr 172232
fw 172158
medal 172114
eed@@ 172094
:airplane: 172090
realizing 172070
beans 172062
UFC 172049
Shirt 171965
ought 171961
inn 171941
Zero 171937
Mol@@ 171935
naturally 171888
vent 171840
versions 171835
Beyond 171832
eless 171810
ps@@ 171803
Roger 171740
cells 171675
Re 171664
Healthy 171650
retarded 171620
cooked 171615
7pm 171609
mol@@ 171568
Needs 171541
driven 171501
Message 171494
insta 171478
Hannah 171476
format 171452
bert 171434
ste 171433
persons 171362
drawn 171327
Tea@@ 171292
reward 171283
Gomez 171269
Mul@@ 171211
14th 171156
ria 171155
trips 171148
stressful 171120
Anne 171100
alike 171096
19.@@ 171095
shortly 171082
Mo 171081
home@@ 171073
salty 171041
:dog_face: 171006
hosted 170977
Whole 170962
serves 170938
belief 170909
judging 170905
gram 170880
Laura 170868
bli@@ 170855
cheek 170854
moron 170816
factory 170787
age@@ 170782
07:@@ 170775
sheets 170768
10.@@ 170716
alism 170706
zo@@ 170702
#to@@ 170688
ito 170680
vol@@ 170655
anne 170642
TS@@ 170611
settled 170598
Songs 170569
#it@@ 170555
#tech 170536
Nature 170498
UTC 170474
Dogs 170457
lean 170456
dol@@ 170451
Om@@ 170449
Ron 170380
CALL 170371
Rem@@ 170346
nudes 170326
Table 170325
75@@ 170265
employee 170224
whip 170180
lik@@ 170134
ache 170106
hard@@ 170105
tea@@ 170092
du 170088
potato 170027
Nelson 170023
#10@@ 169981
somewhat 169981
Laptop 169956
Ur@@ 169873
Hood 169867
perfection 169816
photography 169816
Brandon 169800
06:@@ 169775
Melbourne 169774
:black_heart: 169770
lolol 169768
Pennsylvania 169729
p-@@ 169697
spit 169694
Tokyo 169675
Bang 169661
VR 169655
Tak@@ 169643
THATS 169632
Lar@@ 169573
Rom@@ 169570
thes@@ 169562
advertising 169442
Rules 169395
loaded 169383
8p 169363
44@@ 169338
Spotify 169290
promoting 169278
DM@@ 169260
Arthur 169257
foo@@ 169245
gum 169242
ppers 169229
Wisconsin 169177
Wave 169166
relaxing 169165
friend@@ 169152
kings 169139
Monster 169138
pressed 169096
troll 169073
grocery 169067
VP 169063
Dubai 169062
tagged 169062
#al@@ 169061
frm 169051
adore 169037
permission 169029
Cook 169025
Castle 169024
combat 169024
Loc@@ 169005
Truck 168933
advanced 168930
Madison 168898
Gas 168896
thr@@ 168864
Fear 168859
BBQ 168823
murdered 168810
80s 168799
Plz 168790
category 168788
PH 168758
refer 168750
Stage 168747
destination 168735
suggestions 168724
Mun@@ 168721
darkness 168714
tan@@ 168669
hil@@ 168662
Ve@@ 168659
#Good@@ 168622
backwards 168599
lev@@ 168587
bouta 168554
kissed 168546
pisses 168540
2/@@ 168531
coaching 168525
shadow 168446
cereal 168425
Piece 168412
remote 168407
:sun_with_face: 168391
Lane 168391
exc@@ 168350
HOPE 168348
jin 168285
BEAUTIFUL 168247
#You@@ 168236
Seconds 168235
who@@ 168235
snake 168220
blu@@ 168213
Village 168210
Alexander 168198
pole 168194
soundtrack 168181
wel@@ 168110
Videos 168107
languages 168077
amid 168063
BOY 168049
pound 168035
High@@ 168033
oldest 168001
Yu 167996
Fit 167985
Pain 167982
05:@@ 167959
KO 167957
PP 167950
-to-@@ 167944
#fuck@@ 167941
NW 167931
SD@@ 167930
Shawn 167926
Came 167886
makin 167885
plug 167865
sober 167845
Id 167829
sink 167811
Problem 167807
ing-@@ 167795
G-@@ 167705
Mall 167699
ort@@ 167619
cheaper 167615
cre@@ 167584
2/2 167572
TRUMP 167572
gif 167546
wrapped 167545
two-@@ 167536
terror 167500
Rep 167465
ins@@ 167432
conflict 167430
#u@@ 167418
combination 167382
ency 167380
Beyoncé 167361
nominee 167361
MU@@ 167291
steel 167276
Politics 167273
Adams 167241
Newcastle 167232
painted 167184
bir@@ 167176
laughter 167168
expression 167102
ums 167073
bru@@ 167047
Leeds 167041
Metro 167000
sessions 166933
coke 166925
sman 166921
South@@ 166915
hah 166889
12.@@ 166877
Fri 166873
300@@ 166862
66@@ 166838
7:30 166819
magical 166801
Rome 166754
mp 166745
grave 166729
calendar 166710
Professor 166655
girl@@ 166652
venue 166646
Ari@@ 166609
Sox 166595
badass 166585
preparing 166571
addiction 166508
curse 166453
Rea@@ 166444
muscle 166344
Breakfast 166343
Pop@@ 166322
ust@@ 166313
Buhari 166283
DY 166247
Down@@ 166241
dale 166235
spanish 166233
Gre@@ 166224
valuable 166224
tastes 166213
Stewart 166189
adds 166143
Sor@@ 166139
Saints 166123
1984 166112
Hands 166092
labor 166068
Tory 166067
mul@@ 166058
worlds 166050
RETWEET 166048
Puerto 166036
pon@@ 166033
:speaking_head: 165990
wi 165961
booth 165934
¿ 165917
Patriots 165907
gged 165896
pop@@ 165888
ank 165884
developing 165864
Saying 165839
ari@@ 165839
temporary 165784
blo@@ 165757
dle 165723
Keith 165707
Wants 165679
terrorists 165604
ND 165552
dish 165530
Kind 165517
Birmingham 165465
sli@@ 165459
boot 165457
EE 165424
memes 165411
#Black@@ 165394
irl 165380
Sat@@ 165293
dip 165291
poetry 165286
ae 165283
fil@@ 165276
Temple 165252
retail 165250
04:@@ 165222
#1D@@ 165212
gor@@ 165206
Wed 165175
ades 165166
Ex 165021
rocking 164982
KD 164975
Sil@@ 164964
Mass 164938
Lin@@ 164916
Account 164877
D-@@ 164869
regularly 164830
Bun@@ 164829
FEEL 164823
bump 164817
this@@ 164784
une 164761
Schools 164707
rrr 164706
Vol@@ 164650
bio@@ 164644
adopted 164641
lighting 164635
Native 164621
lecture 164600
#VMA 164599
AFTER 164582
thing@@ 164564
-F@@ 164554
humidity 164502
storage 164488
Custom 164473
Finna 164456
Tha@@ 164452
tors 164437
Happiness 164415
meetings 164411
Beats 164405
lineup 164405
pes 164387
dragon 164383
body@@ 164381
conspiracy 164346
eal@@ 164340
san@@ 164317
:microphone: 164252
goods 164218
Pray 164208
string 164156
answering 164153
Analysis 164033
MS@@ 164006
physics 164006
Pet 163969
11.@@ 163958
C-@@ 163946
:ghost: 163930
steak 163924
represented 163918
MVP 163867
diff 163860
aaaa 163856
commitment 163855
Sum@@ 163800
Pittsburgh 163787
#you@@ 163760
polls 163703
scandal 163695
Hear 163684
Falls 163682
Neil 163629
haircut 163612
AND@@ 163602
tch 163590
mystery 163569
Em 163502
Tryna 163434
mill 163433
wage 163410
Hits 163391
Chance 163340
fires 163309
cont@@ 163296
berry 163240
Chill 163236
assholes 163220
rolled 163149
misses 163138
Just@@ 163099
NCAA 163077
tower 163061
trans@@ 162970
Evil 162956
Tru@@ 162939
kkk 162909
Cru@@ 162888
footage 162882
iles 162881
recall 162881
fal@@ 162864
volleyball 162864
WO@@ 162839
Draft 162834
Fl@@ 162822
Kha@@ 162814
#li@@ 162743
▸ 162714
urban 162697
commercials 162670
tam@@ 162667
define 162661
TC 162653
stable 162618
RC 162611
best@@ 162584
Gordon 162574
trail 162564
365 162555
satisfied 162536
what@@ 162493
ALS 162462
ium 162453
landed 162451
Finding 162372
citizen 162367
guests 162366
Bol@@ 162344
ash@@ 162304
Hours 162275
Summit 162274
3.0 162239
:money_with_wings: 162199
TRUE 162178
REA@@ 162135
possibility 162119
1975 162117
Bird 162059
spotted 162029
ven 161959
Berlin 161936
ute 161914
virgin 161887
#business 161880
champions 161876
criticism 161847
ö@@ 161844
bil@@ 161839
membership 161826
hired 161804
solar 161788
captured 161757
foul 161711
bastard 161655
Ukraine 161639
classy 161639
1980 161637
Moving 161554
backed 161548
Cl@@ 161512
nations 161508
iled 161482
LORD 161458
editor 161458
iest 161456
madness 161422
PARTY 161413
MONEY 161391
cel@@ 161353
parade 161320
spelling 161285
museum 161276
:index_pointing_up: 161265
Fly 161260
declared 161246
mercy 161204
afterwards 161175
Obviously 161144
Dublin 161115
Lights 161110
controlled 161086
Vancouver 161085
naman 161051
jun@@ 161044
spray 160998
Ride 160951
frustrating 160925
aff@@ 160914
consequences 160902
sweater 160860
eachother 160859
borrow 160848
pissing 160833
comfy 160816
forehead 160794
gov 160791
Ker@@ 160779
ards 160777
#Ro@@ 160753
hers 160751
dat@@ 160735
correctly 160660
cinema 160643
assistant 160642
FS 160637
ANYTHING 160601
spider 160595
kis@@ 160572
severe 160567
Tbh 160548
1.0 160546
annoy 160525
filming 160525
din@@ 160524
Questions 160503
Smartphone 160436
bullying 160420
proves 160391
#Car@@ 160356
narrative 160342
Ho 160328
america 160296
Universal 160268
CAN@@ 160264
Meanwhile 160262
Defense 160256
Heavy 160256
time@@ 160236
ool 160223
ison 160195
invented 160176
CB 160156
choosing 160138
explanation 160130
castle 160128
mus@@ 160073
facial 160068
#tcot 160043
Edge 159992
measures 159992
NS 159989
nick 159987
Nazi 159977
sie 159934
shoulders 159922
PERFECT 159921
motivated 159921
Cowboys 159892
Brazilian 159883
burnt 159871
highway 159858
eu 159848
Door 159839
USE 159821
consists 159770
Site 159680
Prize 159676
gods 159666
ia@@ 159655
Brain 159571
:four_leaf_clover: 159544
assuming 159542
Ad 159541
tak 159524
umb@@ 159523
fees 159506
launches 159501
COMING 159495
Finance 159492
Popular 159486
Clark 159478
:dashing_away: 159449
Corporation 159385
･ 159376
concerts 159375
Weekly 159333
surrounded 159328
Whit@@ 159299
#fb 159293
Water@@ 159250
INS 159201
PU@@ 159199
fro@@ 159134
recognized 159106
hair@@ 159092
mie 159081
heroes 159047
120@@ 159046
trans 159017
ly-@@ 159012
clever 159003
Tommy 158908
SH 158906
GI@@ 158893
25th 158859
sss 158859
zy@@ 158851
cul@@ 158847
Respect 158845
roles 158828
Value 158827
Grab 158821
Kam@@ 158817
announces 158812
itch 158806
ili@@ 158804
privilege 158801
strangers 158790
Maryland 158738
transport 158694
Albert 158687
16.@@ 158674
ille 158627
shave 158624
01@@ 158585
kpop 158581
Bryan 158573
vice 158551
Climate 158483
Idc 158479
kn 158460
Brilliant 158441
hint 158431
ann 158419
good@@ 158408
Extra 158406
description 158391
:tongue: 158327
nat@@ 158321
Honey 158301
ina@@ 158276
98@@ 158256
Systems 158240
aj@@ 158208
ences 158169
dh@@ 158164
networks 158152
Pete 158143
Wolf 158128
OP@@ 158047
sacrifice 158043
Fe@@ 158035
IST 158003
03:@@ 157998
reform 157964
Pictures 157916
AZ 157824
ooooo 157778
js 157769
#Un@@ 157750
tom 157745
bully 157732
Mission 157708
Terry 157695
FACE 157667
Greg 157664
NZ 157646
equ@@ 157620
goo@@ 157607
Switch 157575
Solid 157574
rit@@ 157561
Dirty 157525
aswell 157519
Ala@@ 157490
stocks 157481
1-0 157461
blows 157453
World@@ 157432
racial 157431
7:@@ 157428
Lose 157427
SB@@ 157422
Sister 157313
Rare 157213
filter 157201
TN 157108
capture 157103
BEFORE 157100
shell 157100
scheme 157084
Mill 157061
reduced 157041
attempts 156976
ado 156959
latter 156929
All-@@ 156919
JOB 156918
governor 156887
eline 156883
lish 156877
freakin 156854
lows 156849
Franklin 156840
uni@@ 156829
introduce 156813
cartoon 156801
Turkish 156783
cheeks 156758
bible 156753
fuc@@ 156752
Pearl 156718
Sem@@ 156695
ks@@ 156675
1988 156672
shite 156663
#just@@ 156571
9/@@ 156566
Reality 156566
Ka 156521
THANKS 156521
HOUSE 156518
Cars 156491
bel 156478
Porn 156454
Cri@@ 156435
Band@@ 156427
NG 156410
itation 156370
cruel 156367
academic 156278
FRIEND 156275
Soft 156253
Kay 156206
PL 156035
engineering 156011
Vietnam 156000
Hai 155999
locker 155976
gas@@ 155962
RU@@ 155955
#MAGA 155942
cli@@ 155920
Free@@ 155880
Mean 155841
Styles 155788
Flight 155781
Independent 155781
Hun@@ 155701
ó@@ 155699
gers 155688
Talks 155669
#US@@ 155663
increasing 155608
Joy 155607
discussing 155606
nerve 155580
Polish 155555
rr 155530
Katie 155517
marked 155514
defence 155481
scratch 155459
monkey 155451
che 155446
fucker 155411
depending 155402
✿ 155358
Leo 155314
HU@@ 155287
outcome 155282
65@@ 155273
Cape 155258
Liberal 155241
Planning 155159
resolution 155156
divided 155137
:gem_stone: 155120
7/@@ 155097
pumped 155039
ich@@ 155034
raped 155008
6/@@ 154958
soap 154943
cent 154927
Offers 154923
printed 154921
tly 154910
school@@ 154894
Ali@@ 154883
daughters 154871
suggested 154869
india 154815
survived 154779
Fil@@ 154773
Palace 154765
Farm 154753
Soo 154734
NASA 154717
Chase 154696
Sooo 154686
Access 154679
Lo 154676
protected 154557
OL 154548
ame@@ 154546
belongs 154540
DR 154526
Ghost 154513
sses 154488
THE@@ 154475
6:30 154404
COULD 154389
Hip 154361
PD 154324
recognition 154323
contain 154309
defined 154297
AB 154294
ome 154293
wo 154251
ley@@ 154248
itt 154247
vehicles 154229
mmm 154225
AY 154185
supplies 154183
coin 154166
kik 154141
fox 154140
:american_football: 154122
sized 154121
SMH 154112
py 154100
ment@@ 154093
unreal 154086
accomplished 154083
02:@@ 154039
newly 154030
EST@@ 153990
ills 153939
Biden 153924
sp 153908
:white_heavy_check_mark: 153855
pills 153854
terrorism 153853
behalf 153835
Kendrick 153816
beta 153813
20.@@ 153748
zzy 153736
DIY 153723
woulda 153714
Arabia 153704
Craig 153696
Jam 153695
rep 153660
COR@@ 153646
scar@@ 153640
legacy 153617
-based 153609
typing 153609
ian@@ 153607
Real@@ 153599
NT 153585
supporter 153583
to-@@ 153565
comics 153541
#An@@ 153538
Ir@@ 153517
LISTEN 153517
Soviet 153510
Fest 153496
replying 153488
LG 153455
conclusion 153431
Gol@@ 153424
Pad@@ 153378
spoiled 153360
Utah 153328
Nurse 153312
Nat@@ 153310
Mention 153307
GH@@ 153269
ripped 153246
urself 153239
Pin@@ 153229
abo@@ 153185
tackle 153166
#vote5sos 153164
nee@@ 153151
coolest 153104
:birthday_cake: 153103
Yourself 153056
diamond 153050
Diet 153049
rely 153049
Lunch 153021
ires 153021
poem 153019
smith 152987
Bc 152975
Revolution 152974
EY 152971
ı@@ 152964
DOING 152954
par 152943
real@@ 152910
Retro 152886
ju 152864
ship@@ 152809
Exit 152805
Tried 152799
HOLY 152797
ood@@ 152766
Cali 152763
feeding 152756
mutual 152731
spree 152684
speakers 152631
X-@@ 152624
Net 152595
16GB 152594
Hea@@ 152578
aga 152567
miracle 152549
successfully 152545
sharp 152543
sweetheart 152538
badge 152535
YEARS 152529
eling 152484
ghetto 152480
Night@@ 152462
endless 152462
booking 152439
entering 152433
rlly 152424
suffered 152388
vin@@ 152387
competitive 152361
operating 152358
Nicole 152346
approval 152335
hunger 152320
smack 152316
iro 152301
Rico 152291
fm 152262
Reason 152236
Launch 152235
Lawrence 152223
sounded 152223
ankle 152222
Seven 152202
Cell 152182
tted 152152
Guardian 152120
accepting 152117
tmrw 152095
Vis@@ 152089
initial 152086
Luck 152072
EA 152046
sky@@ 152016
stroke 151976
duh 151970
fireworks 151970
Oxford 151955
romance 151949
gin 151947
angle 151944
gallery 151930
Taco 151926
spy 151915
#car@@ 151907
UL@@ 151904
twenty 151886
JUSTIN 151849
monthly 151840
burst 151838
GT 151799
coo@@ 151798
cru@@ 151797
tale 151794
Urban 151793
repair 151789
Gucci 151782
Kor@@ 151779
Ah@@ 151701
cro@@ 151688
Ev@@ 151670
Arab 151650
MOST 151645
oral 151639
BEING 151581
engagement 151544
singles 151539
Rice 151447
NHS 151414
Cab@@ 151390
keyboard 151352
trophy 151348
xbox 151329
roots 151312
Parker 151285
:nail_polish: 151237
deeper 151221
:right_arrow: 151219
Swear 151202
Wel@@ 151197
Return 151160
greatly 151105
1987 151102
EP@@ 151096
ops 151079
Gear 151070
Hunt 151063
crossing 151059
OLD 151054
@gmail.com 151051
lar 151045
bia 151039
garage 151031
RP 151005
30th 150988
IR 150958
photo@@ 150945
stones 150938
consistent 150936
TU@@ 150930
:person_gesturing_OK: 150900
bieber 150892
protein 150881
ple 150874
caps 150863
hats 150828
م@@ 150823
loop 150819
spoil 150782
Barry 150772
Ep 150772
face@@ 150754
dic 150747
streak 150743
Babe 150739
disappear 150726
Route 150707
bugs 150692
mornings 150682
Syrian 150675
PROUD 150664
Manila 150656
B-@@ 150621
copies 150566
explained 150471
× 150431
loans 150425
King@@ 150413
15.@@ 150409
Tan@@ 150374
Factory 150366
Stra@@ 150345
mee 150338
thug 150326
Moment 150311
dishes 150270
vagina 150264
Fed 150243
Medium 150229
unfair 150228
alized 150226
cou@@ 150218
say@@ 150211
grad 150207
Staff 150140
Bab@@ 150107
Hitler 150095
secretly 150089
OK@@ 150061
Member 150054
Get@@ 150048
Grant 150000
Lyrics 149999
Universe 149940
Different 149896
ures 149885
frustrated 149872
elements 149867
BT 149829
Kennedy 149755
crown 149707
thursday 149693
virtual 149690
:open_hands: 149669
rejected 149634
vic@@ 149594
spiritual 149591
Players 149586
deadline 149580
liberals 149560
6pm 149551
Amber 149529
#love 149521
admitted 149519
luxury 149408
LITERALLY 149360
prof@@ 149357
qualified 149327
nes 149301
Agreed 149274
Nar@@ 149265
Power@@ 149251
noted 149244
Cotton 149239
forcing 149231
scam 149208
symptoms 149200
threats 149184
eth@@ 149180
lem@@ 149129
kitty 149127
Buffalo 149119
kat@@ 149105
witch 149100
ouse 149069
eta 149067
Comm@@ 149039
ante 149030
wherever 149006
Utd 148997
Womens 148947
turkey 148938
Foreign 148912
happily 148885
DL@@ 148854
submit 148829
hoodie 148800
irs 148800
Are@@ 148761
sil@@ 148749
Ton@@ 148728
won@@ 148728
Contest 148727
obsession 148708
torture 148673
YALL 148646
Selling 148641
pad 148625
1986 148615
yg 148531
reputation 148490
tun@@ 148490
Web@@ 148484
opposed 148456
workshop 148454
Harvey 148443
agents 148436
ooh 148421
promoted 148394
sab@@ 148316
determine 148308
oon 148262
KK@@ 148258
Lion 148205
grammar 148196
Anti@@ 148187
HC 148170
11-@@ 148138
medium 148129
surrounding 148091
bn 148073
ign@@ 148050
wreck 148045
explore 147981
pur 147975
Alone 147961
struck 147954
fade 147925
cafe 147917
stic 147890
attracted 147887
emotion 147867
thanksgiving 147854
FRIENDS 147826
jazz 147819
ANG 147817
Whether 147787
ius 147782
install 147768
#sp@@ 147760
jerk 147757
Dollar 147729
Montana 147721
kar 147691
Cannot 147668
WI 147652
ling@@ 147652
KED 147643
Joey 147638
titled 147624
inning 147622
emo 147620
FI@@ 147583
lou@@ 147571
nn@@ 147569
Creative 147544
Sri 147515
pot@@ 147508
pile 147504
Labor 147494
ary@@ 147473
disgrace 147444
Bracelet 147402
bt@@ 147402
Bis@@ 147399
cries 147398
Chain 147386
Nashville 147385
karma 147350
BTW 147346
AWESOME 147340
:police_car_light: 147327
charts 147321
uma 147318
minded 147286
hhhhh 147267
Planet 147243
well-@@ 147236
Preview 147220
ately 147219
robot 147205
province 147202
healing 147189
pour 147180
ي@@ 147174
Cooper 147143
Pure 147110
Fish 147099
Culture 147034
#happy@@ 147008
smo@@ 147006
Lagos 146976
males 146966
5,@@ 146953
forecast 146953
aggressive 146936
restaurants 146935
awe 146920
Portugal 146910
:bouquet: 146900
savings 146885
depth 146867
Info 146851
lowest 146821
BOYS 146809
#on@@ 146807
Brad 146803
Agency 146801
onic 146801
revenge 146797
bears 146711
Solar 146707
EXCITED 146704
Di 146701
GG 146699
:people_with_bunny_ears: 146690
van@@ 146659
Winner 146649
tee 146636
mane 146630
DI 146619
1985 146529
yourselves 146521
Angels 146502
Toy 146483
breast 146434
mun@@ 146422
Crew 146421
tix 146420
Collins 146407
pump 146405
Woo@@ 146403
pra@@ 146358
Male 146355
BLUE 146328
shore 146298
mag 146295
scientific 146285
premiere 146276
grows 146256
2k 146237
bein 146221
thin@@ 146206
Blessed 146142
ANA 146055
Forecast 146046
FC@@ 146037
stand@@ 146033
blaming 145972
STA@@ 145970
zes 145959
79@@ 145926
Lions 145898
dal@@ 145881
yu@@ 145848
honesty 145840
farmers 145813
Ci@@ 145792
charging 145792
theirs 145791
buried 145775
aku 145765
cups 145728
peanut 145719
Bears 145715
sions 145707
#Trump 145706
tn 145675
classroom 145671
popped 145639
shades 145633
Pay@@ 145620
ANS 145596
Racing 145596
denied 145587
ow@@ 145556
Nations 145550
rating 145499
thee 145480
unnecessary 145480
grandpa 145477
Greatest 145469
triple 145467
#Big@@ 145459
bean 145429
HY@@ 145390
facilities 145347
:15 145337
shocking 145310
finance 145286
WR 145282
Gain 145266
carpet 145210
authorities 145148
Ultra 145137
HO 145134
high@@ 145129
VE@@ 145128
rd 145078
North@@ 145059
Eddie 145038
practices 145038
stressing 145022
Goo@@ 145016
judges 144973
Title 144968
comparison 144965
sack 144937
underwear 144908
Grand@@ 144901
bold 144900
Singh 144881
Sep 144867
BTC 144856
pea@@ 144852
skirt 144848
ead 144837
raises 144829
Dep@@ 144824
households 144823
Finals 144812
Direct 144810
temple 144784
TRI@@ 144783
#NFL 144780
Article 144774
Practice 144750
FOX 144727
ood 144721
shaped 144716
locations 144698
relations 144694
sat@@ 144672
ohhh 144649
Casino 144621
brains 144555
resist 144554
AG 144533
Answer 144521
Cre@@ 144512
Goodbye 144510
ITE 144471
pointing 144458
sue 144452
ATL 144433
forreal 144424
tables 144416
Emergency 144383
MY@@ 144336
Gam@@ 144333
CD@@ 144324
dom@@ 144291
Alice 144268
Wor@@ 144263
climb 144233
bble 144228
extension 144202
poop 144195
meals 144168
Evans 144163
· 144152
ves@@ 144149
STAR 144147
tuesday 144097
Hockey 144031
abroad 144008
founder 143995
mutuals 143981
Base 143935
joins 143911
ALERT 143903
Grade 143885
SK 143876
Mon 143857
TM 143829
steady 143822
flo@@ 143809
snacks 143780
packs 143773
Ken 143752
Growth 143734
Announces 143719
Nancy 143717
chu 143693
impression 143652
nerd 143649
Pre-@@ 143619
fate 143613
heavily 143606
privacy 143606
Mentions 143603
ud 143588
Career 143586
refugees 143571
twee@@ 143545
Marine 143536
ania 143498
switched 143482
#X@@ 143476
finest 143433
SET 143411
Lor@@ 143401
:backhand_index_pointing_left: 143389
refs 143378
select 143372
Life@@ 143310
Retail 143304
releasing 143296
taxi 143294
brick 143280
identify 143277
:baby_angel: 143264
DER 143259
teenage 143214
ander 143210
vy 143199
Milan 143184
LING 143155
PG 143139
gains 143124
eo@@ 143121
CARE 143103
cho 143101
res 143083
Rap@@ 143082
trusted 143065
rey 143061
thi 143025
diversity 142985
wire 142972
Rush 142962
#mo@@ 142953
eck 142946
pple 142935
Missouri 142912
WEEK 142911
snack 142900
honored 142864
maintenance 142860
Boo 142858
thunder 142832
SI 142829
WRONG 142807
fire@@ 142789
protecting 142766
equivalent 142764
starving 142763
hehehe 142718
Juan 142708
― 142701
#To@@ 142695
existed 142694
READY 142687
LO 142633
Cheap 142585
threatened 142566
igg@@ 142501
ice@@ 142482
mere 142464
Fame 142458
cracking 142454
Netherlands 142449
Sw@@ 142446
fold 142343
Shoutout 142337
hay 142316
wea@@ 142310
angels 142290
Ralph 142283
Missed 142277
► 142271
ww 142263
WH 142251
attempted 142244
credits 142234
naughty 142231
eed 142217
hyped 142211
warming 142207
cooler 142189
versus 142143
Ltd 142123
creep 142111
Swedish 142110
maths 142106
closes 142104
installed 142090
ION 142084
sheep 142084
taco 142062
joe 141988
#For@@ 141982
WHOLE 141978
rumors 141959
:thought_balloon: 141928
shu@@ 141926
Uncle 141914
Matter 141870
wer 141859
Af@@ 141833
SF@@ 141828
TALK 141828
circumstances 141825
Tf 141807
Dam@@ 141795
Course 141760
Pet@@ 141735
poo@@ 141730
reasonable 141716
net@@ 141695
Apr 141692
popcorn 141652
smiled 141638
DP 141615
Ashton 141601
souls 141584
tunes 141569
Yoga 141557
exo 141553
Squ@@ 141496
9.99 141477
Drink 141441
Tigers 141435
Long@@ 141433
arch@@ 141431
Slow 141421
ort 141361
marijuana 141351
Amanda 141329
visual 141302
Ban 141299
emotionally 141297
tat@@ 141297
AY@@ 141286
x2 141276
listing 141252
ruining 141211
demon 141195
grounds 141140
Choose 141114
ric 141113
favour 141103
makers 141079
jan 141076
internal 141062
arguments 141018
logist 141015
asa 141009
yelled 140993
SORRY 140980
tricks 140980
facility 140977
:05 140953
Pussy 140938
Photography 140921
boyfriends 140909
ssi@@ 140883
salary 140882
sunset 140871
Guard 140864
embrace 140815
identified 140809
Fund 140786
regime 140776
sample 140770
JU@@ 140748
pockets 140735
brief 140731
Canon 140724
pandemic 140681
Thailand 140649
Fro@@ 140633
Ohh 140617
ratings 140557
downs 140549
Bee@@ 140489
liquor 140485
Finished 140471
Legal 140470
dun@@ 140423
bol@@ 140365
volunteer 140335
Fra@@ 140333
Ideas 140330
Lat@@ 140283
Oliver 140283
independence 140275
1000@@ 140274
usa 140274
wx 140270
io@@ 140206
Lyft 140187
celebrities 140173
recover 140163
SEC 140151
blank 140133
Ol@@ 140127
anks 140125
NIGGA 140101
NB 140067
disabled 140060
Kra@@ 140053
NC@@ 140040
apology 140037
phon@@ 140028
buys 140019
bullet 139981
Sadly 139916
investigate 139875
bounce 139870
Political 139858
ions 139849
vodka 139842
gies 139817
ux 139808
deadly 139776
chaos 139754
lip@@ 139752
taylor 139744
eland 139716
wth 139654
1970 139643
Advice 139631
#USA 139624
itch@@ 139624
equally 139620
Bluetooth 139601
:astonished_face: 139599
OL@@ 139566
Treat 139565
beaten 139554
ave 139549
Banks 139509
das 139489
explaining 139466
disappointing 139451
flu@@ 139431
DEAD 139413
Artists 139411
NAME 139408
Champion 139389
colleagues 139357
abandoned 139356
revolution 139350
Dang 139339
d'@@ 139331
cd 139329
royal 139326
homecoming 139301
#Pro@@ 139287
Become 139283
starter 139237
CIA 139236
Glasgow 139234
Earrings 139230
Offer 139223
Gen 139203
shoulda 139203
franchise 139193
frequently 139155
Heart@@ 139125
Trading 139096
surprising 139080
oooooo 139054
stupidity 139053
emojis 139041
zoo 139020
Couple 138989
revenue 138982
nurse 138961
blues 138959
vegan 138946
Epic 138929
popping 138910
stepped 138894
tttt 138880
scientists 138869
#ge@@ 138865
Rol@@ 138858
OTHER 138850
Bit 138834
AWAY 138829
FG 138822
flew 138813
Gla@@ 138778
Hay@@ 138765
jam@@ 138747
fairly 138741
inal 138730
Venezuela 138720
railway 138712
eer@@ 138704
Discover 138700
Gl@@ 138693
Gym 138667
bag@@ 138655
TR 138640
❝ 138622
anxious 138617
mountains 138612
SOMETHING 138574
visits 138563
Gaming 138553
part@@ 138486
collected 138474
rat@@ 138463
gla@@ 138459
69@@ 138458
typically 138449
shining 138414
Random 138398
EAT 138384
Afghanistan 138373
Off@@ 138324
ggy 138323
lor 138279
<@@ 138271
:30 138270
tooth 138246
Yankees 138236
Run@@ 138197
Charger 138182
Tag 138165
Paradise 138153
beliefs 138144
acted 138120
thankyou 138106
ables 138081
retweeting 138050
PlayStation 138045
patch 138037
sticking 138017
viewers 137991
Ministry 137978
stalk 137978
Dylan 137950
Bruno 137938
#Po@@ 137936
KA 137918
congress 137918
Highway 137913
mike 137904
ting@@ 137850
nit@@ 137786
secondary 137778
abi 137777
hooked 137771
#ro@@ 137750
ales 137736
و@@ 137727
Cast@@ 137711
tional 137710
quar@@ 137708
OG 137698
Ny@@ 137695
I-@@ 137686
2-0 137668
EDT 137655
doo 137642
technically 137642
journalism 137632
Jean 137631
Pic@@ 137617
loool 137597
ld@@ 137589
cakes 137588
Hahah 137571
ML@@ 137569
What@@ 137554
valentines 137552
dog@@ 137540
#Red@@ 137533
Finish 137529
tters 137506
landing 137505
dentist 137480
Trip 137474
criminals 137456
Loo@@ 137432
superior 137357
Bang@@ 137331
vintage 137329
vo 137321
Cody 137290
passionate 137270
See@@ 137255
try@@ 137255
Jenner 137242
weakness 137198
Fighting 137186
Costa 137182
Wear 137171
drum 137162
Bishop 137160
FE@@ 137151
Ops 137136
saves 137127
MANY 137119
911 137115
Blu@@ 137113
AGE 137092
youuu 137091
biased 137090
Engineering 137057
striker 137022
:sunflower: 137007
kha@@ 137002
kl@@ 136992
funded 136973
android 136967
organizations 136964
Jo 136948
owns 136942
Shooting 136914
brands 136913
Marcus 136899
earning 136871
Speaker 136862
lit@@ 136847
Sugar 136821
180 136814
pul@@ 136790
mainstream 136711
Youtube 136704
#love@@ 136697
,9@@ 136666
junk 136657
Guitar 136636
insecure 136633
starring 136631
instant 136627
elli 136619
Conservative 136572
#Ar@@ 136542
Shares 136540
inj@@ 136532
subs 136529
portion 136494
Rule 136449
Cast 136433
BEAUTY 136407
ﾟ 136407
affordable 136384
Sleeve 136382
Bak@@ 136370
journalists 136370
Jacket 136369
traveled 136369
Agree 136361
Woods 136352
doc 136306
Pla@@ 136303
conc@@ 136302
philosophy 136285
TWITTER 136278
ATED 136269
ler@@ 136226
uti@@ 136211
jst 136190
:middle_finger: 136177
Tools 136126
Ste@@ 136125
rappers 136123
199@@ 136120
Calls 136081
ctfu 136068
swift 136050
destroying 136049
downloaded 136046
Past 136031
Slim 136019
hd 135998
multi-@@ 135960
vet 135947
Carl 135931
LETS 135927
:Santa_Claus: 135912
crea@@ 135888
woah 135886
machines 135872
xi@@ 135857
tag@@ 135848
conf@@ 135834
OC 135822
Score 135821
Cake 135817
rainbow 135801
-RSB- 135797
mouse 135780
CL 135691
x3 135690
eep 135623
Ten@@ 135592
nickname 135585
Mostly 135566
engage 135503
Jun 135500
#National@@ 135479
weave 135465
❞ 135412
Construction 135407
delays 135399
esp@@ 135388
ori 135378
#Q@@ 135364
graphics 135354
Work@@ 135350
Members 135330
zombie 135309
#Li@@ 135306
ova 135303
ump 135301
K-@@ 135283
rural 135279
pun 135273
Gang 135221
Ara@@ 135217
atmosphere 135209
purse 135194
ket@@ 135185
Hen@@ 135108
Gallery 135090
Ry@@ 135082
Ran@@ 135047
wack 135040
netflix 134995
sher 134985
tab@@ 134921
Adventure 134918
TUR@@ 134915
Forum 134910
iss 134865
sticker 134860
Designer 134858
tter@@ 134843
ffy 134839
indian 134838
mea@@ 134816
Tampa 134812
Robinson 134802
trippin 134800
mit@@ 134758
ACT 134730
ech 134708
9:@@ 134689
1983 134668
bull@@ 134661
-LSB- 134614
Met@@ 134566
sadness 134553
closely 134537
goat 134529
examples 134511
submitted 134474
ato@@ 134470
led@@ 134459
Clearly 134456
Spot 134417
MOM 134394
commentary 134391
stalking 134377
ral 134361
wipe 134353
bunny 134346
alien 134343
RTs 134315
creates 134307
Corbyn 134301
Tre@@ 134290
Sli@@ 134287
andy 134249
smarter 134223
amongst 134215
cope 134207
Dal@@ 134202
Waking 134201
rail 134190
hoo 134184
ust 134179
EC 134166
chef 134154
Cry 134133
1982 134129
materials 134122
BR 134113
5:30 134094
rom@@ 134080
liars 134079
kg 134054
representing 134035
tracking 134032
KY 134030
Pat 134029
Kil@@ 134003
#ho@@ 133996
lier 133982
STR@@ 133970
pasta 133936
◡ 133933
rounds 133931
Roses 133926
pregnancy 133910
cop@@ 133907
profits 133887
siblings 133880
legally 133856
powered 133841
pan 133836
#Sh@@ 133823
bald 133818
beloved 133815
overnight 133802
Apps 133789
Bonus 133779
tempted 133742
Hehe 133735
valley 133686
Few 133646
warned 133639
qui@@ 133630
az 133628
ite@@ 133617
dest 133609
Lies 133603
Ji 133582
legendary 133569
wished 133563
Law@@ 133552
punishment 133550
#quotes 133540
sam 133532
wondered 133512
#TeenChoice 133491
Tun@@ 133477
rubbish 133465
butt@@ 133451
y_@@ 133442
Knowing 133435
reporter 133425
basement 133394
GRA@@ 133392
territory 133334
WW@@ 133328
jay@@ 133326
tripping 133311
Devil 133309
Columbus 133306
gurl 133301
Sl@@ 133295
Cer@@ 133286
artwork 133284
object 133279
outstanding 133269
86@@ 133263
subway 133224
Hoes 133215
1979 133210
statements 133204
Stainless 133197
Mystery 133193
sleeve 133189
Cambridge 133182
seniors 133181
minority 133159
Century 133156
Game@@ 133153
Key@@ 133123
Hat@@ 133118
Leadership 133102
loc@@ 133098
suggests 133096
panties 133086
Micro@@ 133081
Kon@@ 133068
64@@ 133063
#sh@@ 133024
flood 133023
Mirror 133009
Hom@@ 132993
Bulls 132992
wala 132976
Elite 132971
outfits 132942
PO 132936
chris 132893
clutch 132892
gur@@ 132883
Evening 132878
2day 132862
dn@@ 132844
Skype 132830
LITTLE 132826
17.@@ 132781
89@@ 132762
#la@@ 132753
sponsor 132753
Dancing 132739
#for@@ 132684
WE@@ 132660
3000 132653
ancy 132632
proposal 132624
lan 132614
chinese 132563
photographer 132553
impress 132547
continuing 132506
Bond 132490
Bradley 132488
Kid@@ 132457
Podcast 132409
fur 132408
NWT 132406
Regional 132396
behaviour 132396
resume 132385
reunion 132384
offices 132367
dj 132347
list@@ 132347
til@@ 132341
AIR 132336
median 132328
Adult 132320
OPEN 132310
reverse 132306
(@@ 132304
Mari@@ 132290
hot@@ 132263
Excuse 132256
soldier 132246
prizes 132244
dee 132231
Jus 132226
CE@@ 132224
stro@@ 132183
#ar@@ 132166
methods 132147
occurred 132137
#what@@ 132120
unity 132108
Wonderful 132086
#One@@ 132083
Fifth 132080
rocket 132067
champ 132058
steam 132053
ect 132024
Turns 132013
ww@@ 131978
LY@@ 131969
aki 131959
unt 131956
matching 131931
medi@@ 131927
Dy@@ 131917
Praying 131901
STO@@ 131900
Sleeping 131898
cameras 131884
bites 131881
Asking 131868
24.@@ 131861
poly@@ 131855
mil 131853
Tumblr 131848
hemmings 131799
Drew 131795
Kay@@ 131793
gel 131780
Plans 131762
Hat 131758
chemical 131709
lighter 131705
too@@ 131692
#Not@@ 131685
harsh 131680
retire 131653
Lucy 131646
Sunny 131636
Crown 131615
125 131609
documents 131602
GIRLS 131543
iced 131542
HAIR 131538
admin 131534
ing_@@ 131467
tragic 131460
Commercial 131404
Horse 131401
Sending 131394
Sec@@ 131386
Massive 131371
CRY 131333
Book@@ 131321
Speaking 131320
ung@@ 131283
lov 131278
Lives 131277
Moments 131250
pancakes 131244
downstairs 131186
SG 131183
ddd 131182
mat 131173
Daughter 131163
Sto@@ 131120
:fearful_face: 131115
UK@@ 131104
tti 131100
begun 131068
hem@@ 131061
Cel@@ 131060
Coo@@ 131057
Serious 131055
Squad 130974
Image 130971
Ex-@@ 130953
chan 130953
intro 130920
chee@@ 130919
#What@@ 130906
bake 130903
canceled 130898
immature 130849
ov 130820
SUPER 130792
Important 130782
:heavy_heart_exclamation: 130781
:ribbon: 130777
vulnerable 130766
hosts 130760
Tem@@ 130748
Curry 130729
pity 130705
Candy 130693
SY@@ 130693
2-1 130675
ruled 130668
expansion 130665
dio 130657
Economic 130613
donated 130588
logy 130588
cleaned 130569
formation 130568
tures 130562
ms@@ 130560
Growing 130554
Fire@@ 130553
Hon@@ 130517
strongly 130515
formal 130479
0000 130465
eer 130431
Gandhi 130420
break@@ 130420
Drama 130419
unbelievable 130416
skins 130402
lor@@ 130378
Thunder 130361
mom@@ 130360
ished 130274
Surely 130266
Mand@@ 130261
responded 130207
lec@@ 130199
:55 130197
Fred 130188
【 130172
widely 130165
cracked 130133
mers 130121
5,000 130118
Villa 130113
Lamar 130111
cult 130084
ordinary 130079
Maine 130062
#free 130047
Jer@@ 130031
nvm 130014
baby@@ 130002
organic 130002
sni@@ 130002
wk 129997
losses 129995
es-@@ 129976
fml 129976
recommended 129966
buzz 129952
AU 129946
BELIEVE 129942
imp@@ 129918
comp 129902
AAAA@@ 129891
shook 129890
#Coronavirus 129854
old@@ 129836
Liberty 129809
RY 129786
initially 129780
Lemme 129744
Leaving 129705
borders 129703
Promo 129697
9pm 129683
publicly 129682
Bike 129675
dump 129658
Quotes 129646
fathers 129621
softly 129619
BO 129599
programming 129596
Gil@@ 129571
year@@ 129569
resign 129554
Cats 129551
#Tr@@ 129520
FUN 129515
Vol 129485
trea@@ 129484
athlete 129468
Bath 129452
♬ 129444
Ang@@ 129419
Goal 129395
differences 129319
sizes 129317
directions 129313
BEA@@ 129298
67@@ 129287
inv@@ 129274
reckon 129247
Tab@@ 129246
Cloudy 129209
mute 129171
Retweets 129167
Cap 129158
destruction 129148
OWN 129143
ALREADY 129140
smoked 129095
destiny 129094
Boyfriend 129082
BLO@@ 129069
sponsored 129051
Ever@@ 129044
Idol 129043
port@@ 129041
Nov@@ 129036
Region 129007
Euro 128999
nes@@ 128995
LM@@ 128994
pcs 128980
reflect 128974
Clifford 128971
Mi 128959
Dry 128949
130 128921
Crisis 128890
ा 128828
Solutions 128810
Developer 128802
havin 128775
ruling 128760
ston@@ 128758
Dame 128740
Called 128679
Forgot 128679
twat 128678
passenger 128671
sushi 128658
mee@@ 128640
TRY 128627
Events 128609
refund 128596
Hearts 128546
Wings 128514
cheering 128511
ition 128511
Fal@@ 128509
practical 128418
beers 128416
oppa 128409
UGH 128399
Unit 128395
e: 128392
Mir@@ 128391
5pm 128387
yeh 128365
ANCE 128323
tragedy 128311
Jets 128286
wah 128282
municipality 128267
Dou@@ 128262
OT@@ 128255
teenager 128237
Sen 128232
life@@ 128224
necessarily 128214
cleared 128206
Lie 128204
5.0 128198
iss@@ 128157
】 128136
Tournament 128134
Makeup 128113
LU@@ 128110
TB 128074
LEA@@ 128023
lab@@ 128013
donation 127987
insight 127979
wrist 127956
wakes 127950
idgaf 127856
Ham 127854
Posted 127847
Boost 127841
Spent 127836
roster 127817
IMO 127798
Knicks 127781
Ahhh 127775
Nathan 127774
pointed 127766
unexpected 127762
colours 127738
traded 127737
FYI 127736
kins 127730
pipe 127726
lifting 127719
calories 127718
winds 127714
Arena 127713
SING 127712
dit@@ 127707
Comedy 127694
Wade 127694
Companies 127692
1980s 127665
Delivery 127665
4.5 127650
HH 127612
Thai 127575
acknowledge 127563
:rainbow: 127551
industrial 127528
merch 127506
Leaders 127498
bowling 127492
Swiss 127475
websites 127468
fixing 127448
responding 127432
tacos 127415
Watson 127413
:45 127410
electricity 127406
partnership 127379
world@@ 127338
ä@@ 127338
:person_running: 127334
Flower 127308
screenshot 127296
Ki 127290
combo 127264
Virgin 127258
codes 127252
plat@@ 127251
tiv@@ 127249
gent 127246
welfare 127239
habits 127220
Land@@ 127203
Leicester 127202
HEAD 127179
Chapter 127125
Eagle 127115
twisted 127101
dicks 127100
Gate 127095
improvement 127085
rainy 127060
dose 127058
tou@@ 127005
shark 127002
flirt 126990
ements 126972
ush@@ 126946
#win 126942
equality 126898
9/11 126879
Crash 126868
a_@@ 126846
meds 126824
HIGH 126823
Vice 126819
Fab@@ 126786
SIZE 126745
yyyyy 126736
Kenny 126713
BET 126703
Massachusetts 126699
low-@@ 126698
Thompson 126683
beings 126678
dive 126676
GOLD 126672
Hearing 126669
ners 126635
TEAM 126595
tr 126591
potatoes 126590
xxxxx 126582
Ep@@ 126571
God@@ 126569
viral 126546
Var@@ 126538
#travel 126518
MPs 126518
She@@ 126511
vel 126484
Intel 126477
Sav@@ 126448
Hindu 126441
Till 126424
overcome 126415
Rap 126404
Unknown 126344
900 126342
commission 126341
CR 126327
Jesse 126311
edited 126307
oul@@ 126285
beds 126280
t.co/@@ 126256
Roc@@ 126231
ied 126218
Graphic 126161
ind 126155
43@@ 126123
bombs 126120
AAAAAAAA@@ 126081
esp 126077
Pence 126075
jewelry 126058
Memories 126057
waist 126057
wicked 126040
Pelosi 126020
whit@@ 126019
Christopher 126015
Ven@@ 126005
:worried_face: 125999
Speak 125978
10am 125968
eh@@ 125965
Rather 125957
acid 125940
Stanley 125937
democratic 125936
DT 125924
PC@@ 125906
john 125889
pro-@@ 125885
td 125875
Haw@@ 125865
Among 125856
stor@@ 125803
GC 125796
iri 125796
Ji@@ 125782
missions 125781
alleged 125755
Memphis 125752
inbox 125748
thers 125748
Fix 125743
Foo@@ 125739
DL 125738
kil@@ 125734
3/4 125715
ees 125706
volunteers 125699
backing 125696
Trump@@ 125680
yummy 125677
:dark_skin_tone: 125674
Say@@ 125674
Dat 125665
spaces 125656
burgers 125654
:leaf_fluttering_in_wind: 125652
bly 125649
soda 125644
BOO@@ 125638
adi 125631
Tw@@ 125590
Caught 125565
ssy 125564
1972 125536
Lens 125517
seeks 125483
Airlines 125472
Tool 125469
Julia 125467
wig 125432
BOOK 125420
MF 125413
Everton 125355
voter 125352
PUT 125339
wheels 125328
LOVES 125325
breakdown 125321
aah 125307
toll 125296
Boy@@ 125291
PHOTO 125278
7.5 125271
KO@@ 125263
Dj 125252
softball 125245
hubby 125196
casual 125177
hater 125169
Billion 125163
Memory 125134
Jul 125122
kt 125110
halfway 125103
ben 125100
tub 125078
Dur@@ 125072
bin@@ 125064
shrugs 125063
Throw 125043
bestie 125030
Besides 125021
CLO@@ 125014
ound@@ 125014
Louisiana 125002
Hart 124989
PHOTOS 124977
locks 124976
licking 124965
mes@@ 124949
kee@@ 124916
'n 124913
Intelligence 124909
thumbs 124895
ACTUALLY 124887
Head@@ 124849
exception 124846
#FF 124836
heart@@ 124826
END@@ 124749
flavor 124734
Spending 124673
Dawn 124667
Marshall 124667
ceiling 124661
guaranteed 124647
1981 124632
Strategy 124615
oma 124614
anthem 124555
Ama@@ 124523
Marie 124510
ough@@ 124506
imagination 124496
hangover 124480
producing 124474
oned 124425
FRIDAY 124423
Stats 124412
EAR@@ 124388
Investment 124386
readers 124385
resolved 124374
Oomf 124351
ney@@ 124350
lay@@ 124326
Wide 124319
eys 124314
fication 124314
Islands 124286
Tran@@ 124275
FAST 124266
depend 124252
cum@@ 124250
RB 124231
necklace 124227
DOWNLOAD 124217
Period 124216
Cubs 124211
registration 124204
#All@@ 124200
elsewhere 124194
Outside 124192
manner 124180
Shoot 124163
DIDNT 124109
Bristol 124068
Belgium 124042
Chrome 124040
Outdoor 124037
Destiny 124030
demo 124019
boarding 124011
Rolling 123986
topics 123975
nya 123972
handling 123954
follow@@ 123928
9.5 123922
10:30 123906
Suite 123893
expand 123858
Montreal 123854
oh@@ 123851
Sher@@ 123843
vocals 123800
Mumbai 123787
pt@@ 123763
Reports 123753
Per 123747
resistance 123711
short@@ 123704
ough 123683
entrance 123664
Trends 123662
Tel@@ 123656
passengers 123644
lanes 123623
GPS 123609
even@@ 123607
wid 123556
disappointment 123548
free@@ 123529
Actor 123528
investors 123518
demands 123515
HARRY 123500
AAA 123490
Dual 123452
Hurricane 123438
IDK 123435
solved 123429
INA 123410
Verizon 123410
ical@@ 123401
power@@ 123400
Lounge 123386
Mississippi 123371
Kindly 123360
Raw 123358
Indeed 123352
replay 123322
mug 123314
prick 123313
Logan 123302
justify 123294
SR@@ 123264
#ad 123258
TB@@ 123243
105 123225
fu 123219
flex 123217
bun 123213
INTO 123162
Carlos 123128
outdoor 123127
pairs 123111
operated 123109
elementary 123083
SHUT 123082
FOREVER 123075
Analyst 123070
infrastructure 123035
transition 123035
scares 123018
Wi-Fi 123014
wednesday 122995
rest@@ 122993
Competition 122987
courts 122976
D'@@ 122973
DMs 122969
Cheese 122921
ored 122921
Mam@@ 122914
faves 122906
mindset 122905
#PushAwardsLizQuens 122902
snaps 122900
AJ 122892
Rocky 122888
ordering 122876
twit@@ 122864
shouting 122860
Norway 122857
divorce 122847
fir@@ 122835
innings 122815
ado@@ 122813
Ball@@ 122803
headline 122787
1969 122760
ask@@ 122738
1976 122685
needing 122682
wassup 122679
HES 122664
Sessions 122658
furniture 122655
Alaska 122635
Giant 122629
:star-struck: 122622
SR 122610
fck 122596
abilities 122588
lic 122587
semi 122570
Solo 122561
temp 122551
immediate 122521
BI 122518
Write 122505
jar@@ 122459
:crossed_fingers: 122457
Non-@@ 122371
largely 122369
celebrated 122358
Dri@@ 122352
XX 122327
torn 122301
Live@@ 122294
Will@@ 122292
eller 122279
alls 122249
isha 122247
Springs 122245
Celtic 122212
focusing 122187
trapped 122176
Delta 122160
Bella 122144
ence@@ 122132
upstairs 122130
NIALL 122097
Sin@@ 122090
WAL@@ 122085
Bull 122080
Honda 122078
acquired 122045
Tough 122032
homemade 122022
TRYING 122015
TY@@ 122011
Who@@ 121984
hy 121984
layout 121982
uring 121979
Sandy 121972
7,@@ 121970
925 121964
#ipadgames 121963
#can@@ 121959
sixth 121951
rick 121930
cabinet 121920
MN 121907
mother@@ 121889
reportedly 121875
Lan@@ 121863
Exp@@ 121858
Hard@@ 121848
Secrets 121844
describes 121838
leaked 121833
Hur@@ 121824
sells 121823
Avengers 121789
Updated 121784
Exchange 121783
sword 121777
Authentic 121755
struggles 121746
Keeping 121734
Others 121714
Derby 121710
nan 121710
borough 121677
Pool 121674
Megan 121662
educational 121658
Wright 121656
threatening 121653
reaches 121648
PART 121630
Pres 121618
Time@@ 121606
Lou 121582
sou@@ 121576
braces 121574
slick 121569
LOW 121558
cross@@ 121546
progressive 121539
exp@@ 121529
josh 121528
Wendy 121516
Strange 121480
primarily 121480
donations 121478
ABLE 121468
Bought 121466
Chef 121450
BAR@@ 121415
Jared 121392
FollowSpree 121375
expose 121373
#Man@@ 121361
Railway 121350
Paid 121319
Pak 121318
Incredible 121303
melt 121299
th-@@ 121295
Simply 121290
DK@@ 121272
law@@ 121268
para 121268
ht 121218
Tablet 121203
gut 121181
Putting 121179
Bit@@ 121178
genre 121173
ented 121171
Mill@@ 121158
greet 121126
appreciation 121114
YING 121091
yea@@ 121088
ender 121086
Hii 121085
tonite 121084
settlement 121066
Baker 121022
Bae 121016
1978 121011
Oz 121008
;( 120965
¯ 120959
1970s 120946
ance@@ 120917
#HappyBirthday@@ 120908
10k 120887
las 120878
bac@@ 120857
23rd 120846
EURUSD 120833
viewing 120830
Masters 120821
nt@@ 120807
Rock@@ 120801
ve-@@ 120787
#Di@@ 120736
Lab 120710
occasion 120674
#Super@@ 120665
zzle 120665
tered 120654
x1 120649
lau@@ 120643
Drug 120638
requests 120606
skype 120585
kingdom 120569
storms 120562
anga 120560
stat@@ 120558
FIN@@ 120543
1968 120529
EX 120514
literature 120482
9am 120470
:confetti_ball: 120461
lasted 120453
integrity 120452
Tank 120446
Oakland 120403
East@@ 120383
Oops 120375
Gorgeous 120372
#Star@@ 120371
From@@ 120358
MJ 120354
employed 120342
arena 120341
21.@@ 120326
forum 120325
A1 120317
guidance 120281
Cont@@ 120262
lottery 120233
Sonic 120222
Eh 120218
sins 120214
Dig@@ 120198
400@@ 120183
jelly 120172
s: 120156
regard 120151
Bio@@ 120148
YOURE 120148
LES 120132
establishment 120115
Chair 120068
hence 120038
damaged 120037
1974 120025
zation 120000
QUE 119999
convention 119995
but@@ 119994
AK 119993
:02 119992
Adele 119989
DING 119987
Eminem 119976
Vir@@ 119964
sav@@ 119961
Bros 119958
ENCE 119904
ginger 119902
_button: 119855
battles 119851
8.5 119849
1977 119843
half-@@ 119840
BYE 119838
WC 119828
XX@@ 119808
vía 119786
Nearly 119771
london 119761
Legends 119741
Ty 119728
Plea@@ 119689
waters 119663
Twin 119651
AH@@ 119624
honour 119609
#dont@@ 119604
defender 119595
hii 119585
ov@@ 119567
inspirational 119542
:person_bowing: 119535
Calum 119533
Ghana 119505
kim 119503
Ends 119500
sers 119496
Noah 119494
nig@@ 119493
sle@@ 119484
elo@@ 119474
#Ra@@ 119429
BER@@ 119422
ush 119421
Travis 119408
refuses 119401
employment 119388
ota 119371
Gods 119366
Kel@@ 119355
ed-@@ 119352
#marketing 119338
Moscow 119318
Administration 119317
dk@@ 119311
MB@@ 119297
Pastor 119295
Comes 119294
mob 119278
eo 119247
roller 119247
BMW 119223
BUR@@ 119209
PHONE 119208
visitors 119202
filed 119167
о@@ 119134
adi@@ 119128
relatively 119117
5000 119102
ore@@ 119100
swee@@ 119093
punched 119087
lik 119074
iconic 119071
idi@@ 119067
Like@@ 119064
CAR 119055
Stuff 119044
iously 119037
ag 119030
ng@@ 119027
ayo 119011
Relationship 119008
fort 119003
Lim@@ 118984
polish 118982
utes 118966
upside 118962
:ring: 118947
6,@@ 118930
Hiring 118924
Played 118916
infection 118912
Rate 118908
Attention 118888
lam@@ 118886
Auto@@ 118882
PDT 118858
#World@@ 118855
Derek 118847
sexually 118840
Steps 118827
casino 118822
Watched 118809
hurricane 118801
oney 118800
broad 118778
Midnight 118759
Spec@@ 118735
favorited 118639
1945 118600
approve 118592
Bir@@ 118583
Campbell 118488
SOON 118475
Adidas 118457
dun 118455
Barack 118441
102 118439
collaboration 118393
mas@@ 118387
22.@@ 118360
desert 118351
pumpkin 118323
iter@@ 118319
cherry 118307
Basically 118299
fist 118291
buses 118279
Clo@@ 118263
#po@@ 118237
stance 118215
cc@@ 118188
Shane 118179
losers 118161
shelter 118150
casting 118146
fart 118135
68@@ 118133
XI 118100
dumbest 118086
Lower 118074
assumed 118071
involving 118062
adventures 118046
exhibition 118044
targets 118041
brutal 118029
arrival 118027
von 118025
deposit 117996
3am 117983
duc@@ 117969
Snow@@ 117953
dian 117927
represents 117919
flags 117889
eyed 117880
networking 117862
managers 117848
eg@@ 117846
Karen 117836
Stu@@ 117813
1973 117812
gol@@ 117811
TON 117805
roses 117805
Platform 117789
nd@@ 117778
Photo@@ 117775
unlimited 117773
ct 117752
safely 117751
Harmony 117716
holder 117716
rad 117714
MSM 117707
leak 117705
agu@@ 117694
hyper@@ 117680
protests 117677
professionals 117645
advise 117619
density 117615
lemon 117606
fence 117603
KILL 117591
Pic 117590
anta 117584
grip 117580
possession 117575
Goals 117571
ANYONE 117570
oner 117566
tablet 117550
hammer 117543
Reviews 117541
Nights 117532
MG 117523
❀ 117487
DB 117473
bush 117456
goddamn 117447
forming 117435
lasts 117434
console 117423
Winning 117420
administrative 117407
showers 117383
:palm_tree: 117357
reflection 117334
THAT'S 117325
ecting 117322
bff 117288
Speech 117252
Kent 117237
Sigh 117230
travelling 117216
#10 117205
gud 117199
dly 117187
estimated 117179
ishing 117166
occur 117146
legislation 117138
exposure 117126
SLEEP 117117
Soooo 117105
camping 117094
choke 117086
towns 117075
Murphy 117070
dancer 117054
unhappy 117041
Seth 117040
ALLY 117018
wealthy 117015
jar 117014
Flat 117012
Superman 117008
roll@@ 117001
SAD 116988
Uni@@ 116969
#La@@ 116957
hl 116923
eff@@ 116914
Harper 116902
achi 116888
shoots 116880
cking 116872
Clar@@ 116860
Floyd 116850
webcam 116825
Dr. 116822
sour 116799
Pon@@ 116784
xed 116771
Stan 116769
<--- 116759
attempting 116749
McCain 116718
confusion 116691
Xxx 116690
:trophy: 116689
challenging 116677
Marathon 116670
Impact 116653
sarcastic 116646
rises 116644
MER@@ 116641
ruins 116622
iy@@ 116617
pill 116583
ahah 116575
prep 116559
controversial 116556
Bul@@ 116549
Bag@@ 116537
:drooling_face: 116518
II@@ 116517
:herb: 116510
#bo@@ 116508
brea@@ 116507
antly 116501
Broadway 116493
warns 116493
WAR@@ 116472
chatting 116467
ona@@ 116448
Mitchell 116441
Celebrity 116415
distribution 116410
de-@@ 116408
ris 116387
nicely 116324
graduating 116323
rev@@ 116320
cents 116311
Championships 116308
complaint 116308
shawty 116306
Hear@@ 116279
coal 116261
slam 116257
realistic 116256
snow@@ 116248
Oc@@ 116242
fastest 116236
#NP 116234
nak 116231
fam@@ 116222
reliable 116181
mums 116148
Burger 116127
Aid 116119
ENT@@ 116106
Sucks 116097
spelled 116096
vocal 116068
Kan@@ 116059
ALSO 116056
Kin@@ 116048
IES 116018
Several 115998
Kavanaugh 115997
now@@ 115994
ESS 115982
se-@@ 115966
Theory 115948
1971 115941
Talent 115932
Vision 115931
cotton 115903
census 115900
NICE 115871
constitution 115868
foot@@ 115864
gay@@ 115861
dedication 115855
mn 115845
9:30 115790
Advanced 115779
james 115779
ym@@ 115718
Genuine 115682
collapse 115682
Sheeran 115676
g-@@ 115676
#Just@@ 115649
Post@@ 115632
opponent 115611
Valentines 115596
Non@@ 115586
:-D 115564
nicest 115543
attract 115515
Al-@@ 115514
Stri@@ 115502
HIT 115494
ICYMI 115494
regards 115489
LIAM 115483
LIGHT 115480
auto@@ 115473
PRI@@ 115464
Truly 115455
Hawks 115448
:hibiscus: 115434
1960s 115427
Murder 115421
Heroes 115398
Gir@@ 115378
ssing 115357
RD 115355
Min 115336
#mar@@ 115321
Agent 115314
JB 115311
py@@ 115292
dorm 115284
#ra@@ 115277
agencies 115252
fairy 115228
Marc 115214
2-3 115213
vampire 115191
qualify 115182
Ricky 115172
rea 115165
unk 115161
Risk 115153
tags 115151
arsenal 115145
pressing 115143
louder 115126
2pm 115125
baked 115125
Policy 115115
SAW 115107
gossip 115099
OFFICIAL 115091
minus 115090
amazed 115066
8am 115046
hahahaha@@ 115014
crappy 115012
dig@@ 115001
god@@ 115000
intentions 114972
Flu@@ 114961
composed 114938
Specialist 114921
Lucas 114909
54@@ 114906
draws 114893
Supply 114883
MR 114878
wick 114860
Wy@@ 114857
taller 114847
Jack@@ 114844
elderly 114833
#NBA 114829
Lou@@ 114817
jury 114808
Beast 114805
24th 114796
Edinburgh 114789
burns 114788
HEA@@ 114780
happ@@ 114764
:copyright: 114749
cast@@ 114737
nia 114731
earthquake 114724
Healthcare 114711
relative 114674
hen@@ 114671
connections 114667
mem@@ 114663
sung 114654
☾ 114642
ongoing 114637
no-@@ 114629
Convention 114605
rist@@ 114601
sssss 114601
Doug 114598
zar@@ 114598
currency 114597
DON@@ 114586
disturbing 114582
Quit 114568
GL@@ 114563
#shoes 114560
stans 114555
Theres 114530
shooter 114525
Browns 114520
communicate 114514
Dm 114504
Cuba 114498
jan@@ 114472
dats 114447
deadass 114440
FIRE 114436
CN@@ 114435
stuffed 114435
lipstick 114405
Malik 114402
oring 114401
Studies 114399
Gab@@ 114369
Frame 114352
origin 114346
girlfriends 114335
scope 114331
parliament 114322
Luxury 114318
org 114312
Ray@@ 114300
bhi 114295
Cricket 114291
pouring 114280
pee@@ 114279
Kim@@ 114258
shorter 114258
lined 114255
rows 114230
Dumb 114202
infected 114199
Journey 114176
comparing 114173
n-@@ 114158
Kylie 114149
flaws 114146
creator 114140
Mode 114129
clap 114104
kay@@ 114104
Kane 114098
#PeoplesChoice 114086
Py@@ 114080
fic 114061
IRS 114048
Todd 114043
basket 114033
Harvard 114020
properties 113995
computers 113993
discussed 113967
labour 113952
ssa 113950
Obamacare 113945
Letter 113943
popularity 113938
representation 113919
kies 113917
turnt 113904
fol@@ 113900
less@@ 113897
:alien: 113895
Killing 113895
masters 113887
#giveaway 113879
ggg 113877
GRE@@ 113873
á 113873
Self-@@ 113870
4.0 113865
referendum 113864
jer@@ 113857
clu@@ 113825
:globe_showing_Americas: 113824
deleting 113798
KKK 113788
prominent 113765
Celebrate 113756
trigger 113712
GETTING 113711
will@@ 113710
FLO@@ 113707
explode 113705
whos 113700
occupied 113683
adopt 113682
ward@@ 113676
blacks 113673
electronic 113672
LIE 113665
overrated 113663
tel 113660
ects 113659
anon 113648
WI@@ 113645
22nd 113613
Wenger 113602
creativity 113602
side@@ 113565
#lov@@ 113557
itz 113547
shyt 113542
Ellen 113518
Lmaoo 113493
Figure 113484
lb 113484
yed 113476
Was@@ 113471
Signs 113468
ironic 113456
commonly 113439
sarcasm 113435
Trail 113431
gee 113417
#Do@@ 113398
itis 113374
Caribbean 113337
risks 113328
ght@@ 113325
ises 113312
tak@@ 113280
plan@@ 113262
Shadow 113251
decline 113209
olo 113177
resort 113174
crashed 113152
Ou@@ 113147
courtesy 113140
VI 113135
dee@@ 113108
Cohen 113081
Presidential 113072
Medicine 113054
106 113048
ving@@ 113048
Smoke 113036
oven 113031
hom@@ 113017
Welp 113001
remembering 112980
POST 112969
appearances 112969
Killed 112958
gener@@ 112936
dur@@ 112916
Reveals 112893
sul@@ 112880
Mitch 112865
assigned 112861
iti@@ 112837
Marriage 112830
#too@@ 112824
av 112811
1967 112809
pi 112809
ides 112791
Kir@@ 112763
Circle 112751
1960 112750
Quite 112739
idols 112734
JESUS 112722
1/5 112696
Gives 112695
After@@ 112686
reserve 112674
show@@ 112649
THOUGHT 112641
Il@@ 112600
Pas@@ 112597
wud 112593
reli@@ 112585
arrives 112567
witnessed 112566
Ric@@ 112543
U-@@ 112543
Budget 112537
apa 112537
visible 112508
Comment 112505
tured 112495
vil@@ 112484
#big@@ 112483
#AS@@ 112480
Cul@@ 112474
fuckers 112470
slavery 112460
#auspol 112457
poppin 112451
duo 112443
SHO@@ 112431
shouldnt 112426
watchin 112423
Susan 112418
Molly 112410
onna 112386
charm 112374
treasure 112371
#get@@ 112362
VC 112354
Miles 112353
Baby@@ 112341
stal@@ 112341
Expect 112325
premium 112321
sid@@ 112321
Tesla 112318
cle@@ 112292
tellin 112240
kick@@ 112232
CHAR@@ 112215
pero 112195
Steady 112165
Queens 112160
Issue 112158
youngest 112156
loading 112145
conduct 112142
yl 112132
chil@@ 112131
Hunger 112127
twerk 112118
LESS 112108
roast 112088
CAUSE 112071
ENG 112064
Nail 112056
Rugby 112055
P-@@ 112053
tropical 112026
Roo@@ 112024
sno@@ 112005
strongest 111986
regrets 111978
Reserve 111960
maximum 111959
Hang 111939
cab 111939
Huh 111934
stein 111929
#is@@ 111926
F1 111926
Chairman 111905
t-shirt 111888
blowjob 111884
ando 111879
engineer 111861
ema 111858
slapped 111854
runner 111848
extend 111845
WOR@@ 111838
LD 111837
rain@@ 111833
CRAZY 111828
ail@@ 111811
#health 111808
Spo@@ 111803
1.6 111792
unto 111773
ulation 111765
BC@@ 111764
ANG@@ 111761
KC 111755
1.2 111707
160 111705
FAKE 111689
learnt 111680
chop 111671
utter 111662
apologies 111642
practically 111623
fortune 111617
Promise 111616
parks 111614
diary 111607
eno 111601
Deb@@ 111572
increases 111568
Yea@@ 111544
kat 111544
Technical 111529
PSA 111494
Near 111481
ox@@ 111481
posters 111476
anya 111449
stating 111433
Olivia 111418
Whitney 111377
distracted 111373
Heading 111364
Pendant 111364
stepping 111364
que@@ 111332
Shah 111321
Mourinho 111309
A. 111307
Domin@@ 111303
cave 111303
ATT@@ 111284
institutions 111277
BOX 111275
servers 111262
survival 111261
16:@@ 111240
Wat 111217
Fav 111205
Mouse 111204
hills 111204
Upon 111203
Andre 111196
Wearing 111188
MAD 111184
ock 111164
curry 111116
person@@ 111113
ular 111107
inform 111104
Inv@@ 111102
Penn 111042
constructed 111029
Corp 111013
5.00 110995
Kick 110993
Calvin 110983
ix@@ 110980
illy 110979
maps 110979
Inst@@ 110973
Proof 110961
wed@@ 110947
Blo@@ 110933
Rainbow 110926
Movement 110917
mv 110915
#Cor@@ 110905
mighty 110861
yal 110861
ARY 110830
Lab@@ 110816
Shake 110802
the-@@ 110795
27th 110785
lifted 110782
hospitals 110773
carbon 110735
BOTH 110720
LD@@ 110715
pepper 110711
colored 110697
ram 110691
smashed 110689
hay@@ 110688
thank@@ 110678
jack@@ 110656
̈ 110635
hee 110624
plates 110582
Portable 110538
fitting 110529
✩ 110514
connecting 110508
#NY@@ 110502
FUNNY 110496
Petition 110495
bers 110491
haha@@ 110491
improving 110480
ultimately 110479
nooo 110477
4pm 110464
Actress 110462
Te 110442
PIC 110413
Border 110375
accomplish 110375
28th 110356
Flying 110355
STAY 110343
shire 110339
Boots 110325
Ye 110325
wood@@ 110313
authors 110311
Ward 110303
inging 110270
Highlights 110262
bets 110261
are@@ 110260
unusual 110256
scars 110244
premier 110238
ente 110235
tactics 110207
Minutes 110139
mam 110131
assets 110121
pad@@ 110117
#ipad 110113
invisible 110092
stat 110089
Nam@@ 110080
absence 110063
streams 110059
Tee 110037
Holder 110017
Wat@@ 110017
1500 110016
Alpha 110015
graphy 110012
chairman 110007
Broken 110000
mud 109992
experiencing 109985
graph 109970
Sn@@ 109967
Lace 109960
freeze 109951
#Android 109926
Dav@@ 109915
check@@ 109901
Ugly 109892
Debate 109891
bots 109878
poorly 109868
spar@@ 109867
guts 109861
terrified 109822
Engine 109817
takin 109803
extent 109801
entertain 109785
guards 109780
relation 109779
payments 109778
o'clock 109775
#PushAwardsKathNiels 109762
flirting 109762
contribute 109721
#Real@@ 109700
aspect 109663
Corps 109652
ces 109648
Steelers 109646
333 109623
Girlfriend 109594
26.@@ 109587
icky 109580
reminding 109577
AW 109576
Billboard 109575
Som@@ 109514
Unlocked 109510
KK 109500
Raj@@ 109497
bleeding 109497
technique 109496
mentioning 109493
dou@@ 109491
vile 109466
gee@@ 109451
Light@@ 109445
sch 109443
OKC 109435
Had@@ 109425
Crea@@ 109396
MIL@@ 109388
Joel 109384
I'ma 109376
Jet 109364
lightning 109357
istic 109346
eem 109310
yy@@ 109307
Way@@ 109298
contracts 109293
swallow 109293
box@@ 109292
requirements 109267
hhhhhh 109266
Turner 109256
ZE 109256
rewards 109254
hustle 109252
symbol 109233
FUL 109228
requested 109227
Tottenham 109210
Omfg 109180
Lev@@ 109173
shifts 109169
thumb 109167
;p 109159
ASS@@ 109137
PEN@@ 109128
haa 109080
Sex@@ 109078
Rodgers 109076
lun@@ 109052
Points 109049
OB@@ 109037
29th 109016
Hurry 109008
dev 108986
ord 108972
rin 108970
Rogers 108944
fts 108931
Music@@ 108929
consistently 108928
I'LL 108919
Given 108907
Positive 108905
Hit@@ 108901
periods 108893
efficient 108872
97@@ 108862
shutdown 108862
#Dont@@ 108861
filmed 108849
Calm 108836
stages 108832
tire 108829
:heart_with_ribbon: 108824
Bryant 108824
BAN@@ 108820
deer 108814
Jonas 108812
Got@@ 108801
DY@@ 108783
Ooh 108783
shakes 108782
10pm 108729
Foods 108728
#Stop@@ 108726
Bio 108712
evolution 108709
rear 108690
zu@@ 108670
annoys 108634
practicing 108632
stab 108621
seeds 108619
MENT 108611
thighs 108609
factors 108601
debating 108597
ming@@ 108591
gently 108577
TAL@@ 108571
#COVIDー19 108565
biology 108565
planes 108550
Fam 108548
ories 108536
mint 108532
tasty 108525
grandmother 108509
printing 108500
:woozy_face: 108496
:face_with_open_mouth: 108476
column 108457
ests 108452
operate 108433
ques 108414
spice 108398
conducted 108393
96@@ 108381
serial 108364
merely 108357
pork 108352
Bha@@ 108341
#real@@ 108339
Wins 108334
gray 108324
Norman 108323
:water_wave: 108322
1.3 108313
input 108311
Scar@@ 108310
VER 108304
Storage 108303
confirms 108303
probe 108300
Crime 108279
Nic@@ 108271
Boom 108270
reader 108261
radical 108257
CHO@@ 108246
Flag 108227
lungs 108187
Colin 108170
association 108169
eable 108160
Taken 108159
Salt 108150
blasting 108138
ANOTHER 108111
:03 108092
aliens 108082
repeatedly 108081
yuh 108076
trucks 108055
tweeps 108049
pierced 108040
ç@@ 108037
70s 108012
Shower 108007
SURE 107984
journal 107966
slight 107959
:crescent_moon: 107950
STER 107946
generous 107946
rob 107938
spoon 107938
Yours 107935
Possible 107932
carefully 107925
Victor 107921
Dell 107910
favs 107894
smartphone 107844
Richmond 107843
lawyers 107833
Rest@@ 107827
mentality 107820
Bass 107807
irony 107804
gin@@ 107797
ND@@ 107794
thi@@ 107793
overseas 107764
legends 107759
Status 107725
Myself 107724
Premiere 107702
Dol@@ 107698
ei 107697
animation 107675
powder 107628
scra@@ 107598
vir@@ 107597
Language 107595
Muhammad 107592
muscles 107577
raid 107575
veterans 107568
whatsapp 107557
LINK 107556
Gospel 107544
Fur@@ 107539
Eng@@ 107529
multi@@ 107527
kai 107514
Independence 107511
Theater 107508
galaxy 107508
#tbt 107487
intention 107474
prints 107463
Attorney 107454
Mah@@ 107448
trainer 107446
ب@@ 107426
long@@ 107385
msg 107381
ICS 107374
rival 107362
drown 107360
leaf 107346
FX 107337
Surprise 107332
bay@@ 107328
followback 107320
Dakota 107294
keen 107290
ense 107266
priorities 107265
scum 107251
innovation 107250
kal@@ 107245
Jump 107235
Guest 107229
counter@@ 107220
198@@ 107215
teaser 107169
slice 107165
Accident 107149
SHIP 107139
stack 107133
Theme 107132
stake 107119
Suarez 107117
tummy 107117
crawl 107108
lam 107108
Chil@@ 107099
closure 107069
rains 107063
automatic 107060
#socialmedia 107047
Les 107044
Buying 107036
wives 107028
gaining 107023
alia 107019
13:@@ 107007
busted 106973
eled 106922
1990s 106918
techniques 106899
Russians 106891
deb@@ 106884
Streaming 106876
transferred 106863
paradise 106858
Famous 106856
Benefits 106850
principal 106847
Deluxe 106843
heated 106825
JK 106812
Kh@@ 106809
esh@@ 106802
betting 106787
invasion 106787
Interested 106761
house@@ 106759
critics 106743
slaves 106741
Tories 106725
pause 106725
Greater 106713
Spa 106705
gona 106690
Cardiff 106687
rats 106684
hips 106680
road@@ 106672
kan@@ 106668
White@@ 106667
recruiting 106651
ints 106642
worthless 106620
。 106618
Mom@@ 106615
Nav@@ 106614
monkeys 106613
Beatles 106608
DB@@ 106602
#black@@ 106600
MEN 106561
#FollowMe@@ 106559
mand@@ 106559
donuts 106540
monitor 106528
DC@@ 106527
Pants 106495
FOLLOWERS 106492
west@@ 106487
sleeps 106468
noo 106465
Horror 106449
LT 106437
Rooney 106433
Satan 106421
consideration 106403
Forces 106400
THINGS 106369
Sou@@ 106361
hotels 106321
Poly@@ 106310
Description 106295
2,000 106292
123 106286
Carson 106267
OF@@ 106206
Toyota 106205
Mental 106191
ato 106176
bees 106165
publishing 106165
ext@@ 106155
Push 106139
underground 106137
Arkansas 106135
gloves 106121
Loves 106120
segment 106091
monsters 106076
Triple 106074
aly@@ 106067
gathering 106058
uss 106050
GH 106031
26th 106017
Toys 105993
cliff 105986
MAY 105983
crucial 105981
objects 105972
Aw@@ 105970
musicians 105965
Rad@@ 105951
socialist 105947
screening 105920
hearted 105914
shipped 105881
Server 105869
brag 105861
coupon 105839
LEAVE 105811
translation 105811
consumer 105807
FaceTime 105762
bash 105750
#MUFC 105749
Douglas 105732
Türkiye 105724
Motion 105723
asi 105687
thro@@ 105681
towel 105676
commented 105670
FUCK@@ 105656
itting 105643
xy 105641
soooooo 105637
hal 105634
Chile 105623
bang@@ 105616
Coin 105613
800@@ 105593
23.@@ 105578
ros 105571
hear@@ 105555
replacing 105550
4G 105540
mist@@ 105536
weirdest 105534
ooooooo 105525
gutted 105520
Notice 105491
WN 105458
greatness 105456
environmental 105454
SER@@ 105450
#On@@ 105447
b-@@ 105441
Avoid 105434
103 105418
Ros@@ 105392
kel@@ 105382
Along 105372
Benjamin 105372
refreshing 105359
Samuel 105335
workin 105335
GF 105318
Aqu@@ 105295
cnt 105272
ch-@@ 105252
27.@@ 105250
Associate 105240
tus 105240
ith@@ 105236
purposes 105232
RM@@ 105229
Protect 105224
#lo@@ 105219
vers@@ 105219
#Stay@@ 105218
grabs 105211
notable 105192
OOOO@@ 105180
skies 105178
Usually 105175
Sz 105169
whoop 105169
#Ha@@ 105156
Our@@ 105138
Teachers 105134
diving 105120
2am 105116
#Top@@ 105102
Floor 105102
Ann@@ 105096
sho 105096
functions 105067
CITY 105058
dre@@ 105020
potentially 105011
contemporary 104992
Acc@@ 104955
SN 104920
ials 104918
harassment 104917
faggot 104902
ET@@ 104900
Property 104875
effectively 104871
nnn 104863
Holland 104855
1964 104853
100,000 104847
spr@@ 104843
Amsterdam 104840
enders 104825
accountable 104821
cent@@ 104820
Arch@@ 104817
grandparents 104816
stickers 104802
knocking 104783
suggestion 104781
document 104780
Pad 104772
negativity 104768
Prison 104765
VES 104757
settings 104754
Dee@@ 104753
cunts 104737
PST 104731
Rel@@ 104724
entr@@ 104724
#Hiring 104721
5.5 104710
C'mon 104688
supportive 104686
ucks 104656
heh 104631
eville 104611
Jackie 104598
Display 104581
Yorkshire 104574
JJ 104562
m-@@ 104553
banging 104545
glow 104537
fighters 104529
LEY 104525
conscious 104521
amounts 104518
ental 104515
Prices 104506
Basic 104490
POWER 104470
NESS 104468
whites 104459
firing 104439
Upper 104438
=D 104427
Losing 104420
Engagement 104413
Walter 104407
Pac@@ 104401
lmaoooo 104383
rts 104380
TOR 104379
proving 104372
spinning 104347
eu@@ 104340
platforms 104339
spurs 104315
3pm 104308
NL 104280
manga 104265
summit 104264
Pics 104259
os@@ 104256
valentine 104242
#LFC 104236
Prayer 104215
hah@@ 104215
Must@@ 104197
counted 104195
granny 104195
1965 104184
Gur@@ 104170
25.@@ 104168
japanese 104168
4:30 104157
Too@@ 104152
Pick@@ 104145
ón 104133
HD@@ 104128
TI 104127
Celtics 104111
ariana 104111
WB 104107
glorious 104106
kh 104100
yn@@ 104095
Repair 104094
irritating 104094
Iggy 104071
generations 104071
remembers 104071
drums 104069
vital 104055
ñ@@ 104024
WR@@ 104019
eg 104009
Ferguson 104001
11:30 103978
POR@@ 103976
Dea@@ 103967
3-0 103963
involve 103957
yes@@ 103944
dow@@ 103922
е@@ 103900
000@@ 103893
refers 103886
ICK@@ 103843
FRE@@ 103837
Ground 103835
unlocked 103835
But@@ 103818
gates 103815
manufacturing 103773
tmr 103773
kitten 103754
Ther@@ 103752
Earn 103731
TL@@ 103724
leggings 103723
participated 103721
defo 103717
lololol 103717
ard@@ 103689
respected 103681
Hot@@ 103658
Comp@@ 103647
izer 103636
Sara 103625
Show@@ 103566
democrats 103562
ENS 103556
actively 103554
flop 103530
McDonalds 103524
noodles 103510
Wing 103465
Fair@@ 103451
Switzerland 103431
bling 103422
PERSON 103404
YAY 103398
#Con@@ 103377
experiment 103356
abused 103355
eda 103354
1.1 103353
sim 103345
aspects 103335
musician 103334
Bored 103333
Jon@@ 103324
cans 103324
Julie 103320
instructions 103314
Sundays 103293
NING 103286
questioning 103270
lee@@ 103263
Alive 103255
Map 103249
Places 103249
Bus@@ 103243
KER 103226
cage 103211
Volume 103204
:man_and_woman_holding_hands: 103198
Dating 103198
KI@@ 103198
gem 103155
dawn 103144
Earl 103126
digging 103116
warn 103109
kas 103105
aching 103094
Production 103080
associate 103070
initiative 103051
ASK 103045
vic 103045
Studios 103039
Wall@@ 103033
jimin 103028
invitation 103015
switching 103013
aman 103004
ential 103001
log@@ 103000
Smash 102994
hahaa 102989
recipes 102985
subjects 102977
Steam 102965
Ruby 102961
Connect 102950
Resources 102946
1966 102943
acoustic 102939
neva 102935
:rocket: 102930
seller 102898
bend 102890
Reply 102886
#RIP@@ 102882
6am 102877
det@@ 102863
Grill 102862
ags 102859
detailed 102853
veteran 102848
travels 102837
Gates 102802
15:@@ 102787
Veterans 102781
Trek 102768
shady 102761
Sunshine 102748
Hoodie 102725
ORDER 102710
Corporate 102695
agrees 102695
HEL@@ 102691
85@@ 102689
tooo 102683
Connor 102682
wonders 102679
pursue 102677
targeted 102659
Cleaning 102656
ands 102645
ress 102631
#Me@@ 102627
JE@@ 102620
Girl@@ 102617
resident 102606
Neck 102593
Umm 102584
luc@@ 102584
001 102563
Females 102558
Leg@@ 102519
18:@@ 102515
clash 102513
churches 102492
notification 102482
а@@ 102479
FAN@@ 102462
Primary 102459
Punk 102452
Boris 102445
mut@@ 102444
sounding 102443
piercing 102426
Vikings 102422
Tech@@ 102420
ownership 102414
Craft 102393
immune 102392
xes 102392
revision 102379
crushed 102375
aired 102361
tering 102343
Hil@@ 102341
jumps 102334
__@@ 102332
animated 102323
confirmation 102315
Feed 102288
ound 102282
Jess 102277
setup 102268
Gave 102260
STUPID 102257
CLICK 102256
Anonymous 102244
IQ 102241
Ash 102238
oni 102236
influenced 102224
rookie 102223
Opinion 102205
wd 102205
gays 102204
Clip 102189
Honor 102181
Resort 102178
Spend 102161
stic@@ 102160
mic@@ 102129
Pull 102126
competing 102123
underrated 102103
percentage 102099
Busy 102092
14:@@ 102089
Warner 102058
universal 102043
curve 102039
Rain@@ 102027
Luis 102021
PRO 102020
poo 102016
flawless 102001
Otherwise 101973
Ace 101967
111 101966
Bac@@ 101951
ummm 101941
spicy 101935
iv 101931
Beliebers 101928
Hispanic 101918
10:00 101910
Brooks 101909
Spread 101896
pick@@ 101895
Wit 101893
Math 101892
hit@@ 101863
Reid 101857
Factor 101838
bd 101830
RARE 101821
Replacement 101783
penny 101780
buddies 101774
Manning 101772
#Fuck@@ 101771
ez@@ 101747
acking 101746
Session 101734
Higher 101722
sip 101720
6.5 101716
able@@ 101702
orn 101691
dial 101675
Within 101648
producers 101646
MOR@@ 101636
Vic@@ 101621
Meek 101608
Exc@@ 101605
:cloud: 101597
stunt 101593
Powerful 101577
bk 101561
Kerry 101556
rrrr 101555
Manhattan 101554
Nine 101531
bikini 101524
lum 101522
www 101521
Palestinian 101504
Mea@@ 101488
#GetGlue 101482
involves 101481
Bright 101477
MP3 101477
meaningful 101463
Gameplay 101448
LEFT 101445
mining 101445
slim 101416
FIND 101402
:04 101401
enforcement 101396
AI@@ 101387
Trending 101384
ل@@ 101381
elling 101362
calum 101350
zen 101345
papa 101337
Pinterest 101336
ket 101306
4am 101291
ALBUM 101290
bis@@ 101285
1950 101277
Historic 101275
tiger 101274
uce 101268
HER@@ 101267
cy 101242
discovery 101220
:53 101200
Christina 101194
LinkedIn 101191
Spencer 101190
Mia 101181
Therefore 101168
:nauseated_face: 101156
gather 101132
#android 101113
Broke 101108
sofa 101107
#Tra@@ 101092
WiFi 101089
tent 101089
Finale 101075
hotter 101062
Lun@@ 101052
disappeared 101047
tro 101047
USED 101041
desperately 101041
N-@@ 100994
VEN@@ 100968
cry@@ 100967
clueless 100960
ece 100954
quietly 100954
h-@@ 100943
plea@@ 100941
sausage 100920
#Follow@@ 100903
LOOKS 100882
rabbit 100881
nursing 100864
Husband 100852
Antique 100844
curly 100831
handy 100817
concrete 100803
attorney 100797
mmmm 100744
crystal 100741
ef 100733
ange 100723
Forbes 100710
Tennis 100705
Means 100675
:dizzy_face: 100668
14-@@ 100664
allegations 100642
illo 100640
poison 100622
lawn 100614
Ner@@ 100594
yi@@ 100593
#Its@@ 100590
presidency 100581
twi@@ 100575
ARD 100574
hang@@ 100569
master@@ 100559
Killer 100538
19:@@ 100536
ett@@ 100531
Pakistani 100524
MU 100507
eli 100498
mont 100495
ect@@ 100488
:59 100487
halloween 100477
WING 100465
Master@@ 100444
Crush 100419
pokemon 100414
Helen 100407
oning 100404
applying 100403
nest 100398
terrifying 100394
highschool 100392
dozen 100379
hr@@ 100374
zer@@ 100364
#Save@@ 100359
Gold@@ 100359
Fridays 100358
NH 100347
ult 100346
someones 100343
ast 100332
Economy 100331
BRA@@ 100327
Tho 100309
MOVIE 100306
ports 100305
COOL 100267
ris@@ 100265
nomination 100260
JA 100257
Palm 100248
IRE 100247
countdown 100235
strawberry 100233
Kuala 100228
Winds 100228
DNC 100200
uri 100164
crop 100163
Philip 100162
right@@ 100159
ull@@ 100154
Neither 100139
#me@@ 100132
fella 100123
Lon@@ 100118
liquid 100109
Raiders 100081
deciding 100077
attendance 100076
err@@ 100008
mos 99984
20-@@ 99975
three-@@ 99963
dead@@ 99951
mir@@ 99925
1-1 99924
Fr 99920
bow@@ 99919
douche 99917
oooooooo@@ 99915
:globe_showing_Europe-Africa: 99893
Dennis 99890
cringe 99888
sympathy 99879
cart 99866
Mind@@ 99862
V-@@ 99857
Pin 99829
pit@@ 99828
Gosh 99824
zzz 99823
intellectual 99820
Plastic 99816
atives 99799
bs@@ 99797
nightmares 99778
NOBODY 99759
lyn 99742
startup 99733
aj 99730
screamed 99724
queue 99696
Successful 99694
holla 99692
95@@ 99687
Motor 99686
bot@@ 99650
Ang 99649
WP 99616
inda 99615
wages 99610
☽ 99590
shud 99589
salon 99585
Christianity 99583
Ul@@ 99575
Chiefs 99570
Lov@@ 99565
tease 99554
auction 99546
ikr 99540
mark@@ 99532
Poll 99497
Expert 99464
Alexis 99460
Gaza 99459
Steph 99446
Minute 99434
savage 99434
gentle 99429
len@@ 99421
preparation 99409
encouraging 99400
OfThe@@ 99380
ram@@ 99376
Roberts 99371
HIV 99370
grinding 99365
Cir@@ 99360
Pocket 99331
representative 99328
Mickey 99326
breed 99314
dark@@ 99293
GER 99285
trials 99276
Downtown 99240
economics 99240
sequel 99234
BAL@@ 99232
som 99216
â 99215
x4 99205
weirdo 99198
Treatment 99176
Harrison 99143
spoilers 99132
Unlike 99125
sided 99119
Releases 99118
:two_women_holding_hands: 99107
Hill@@ 99099
rooting 99097
sco 99094
vast 99092
touches 99083
THOSE 99080
Standing 99078
Insider 99067
tv@@ 99061
Entry 99059
circles 99056
ely@@ 99037
eri 99031
horn 99029
cloudy 99020
600@@ 99011
Pokémon 99010
viewed 98999
Musical 98996
atta 98991
Operation 98989
50,000 98980
Victory 98977
listens 98946
Emperor 98945
shield 98931
fying 98930
demons 98924
cks 98918
HTC 98914
#TeamFollowBack 98857
hee@@ 98851
Liberals 98847
Drunk 98814
sane 98810
chains 98800
HT 98797
ditch 98795
RM 98794
blogs 98782
Butler 98776
Barbara 98746
eel 98738
Hudson 98732
robbed 98731
salute 98724
ART 98709
Kris 98681
occasionally 98663
cigarettes 98660
Lanka 98659
educate 98653
fulness 98653
tat 98653
signature 98617
ired 98599
lesbians 98593
ALE 98592
affairs 98590
sym@@ 98581
cons 98556
statistics 98556
esses 98547
skating 98537
Iranian 98530
SINGLE 98519
sketch 98515
NP 98486
nan@@ 98468
cab@@ 98466
Brighton 98460
controls 98457
Needed 98447
banking 98425
Omar 98405
PD@@ 98399
Sanchez 98379
Bil@@ 98378
ese 98377
#Sha@@ 98376
Lock 98364
PS3 98359
Paperback 98354
principles 98332
Bou@@ 98331
lawsuit 98331
assembly 98321
ested 98314
judged 98305
drafted 98303
fish@@ 98257
Herald 98254
wht 98253
Cs 98235
Praise 98216
,7@@ 98213
Gulf 98202
ted@@ 98195
Keys 98194
offs 98182
Louisville 98166
greedy 98162
WISH 98150
Wiz 98147
resource 98136
ores 98134
verified 98126
sunglasses 98106
Claire 98102
:heavy_multiplication_x: 98100
Luv 98098
goofy 98086
admits 98080
Kur@@ 98075
#Ac@@ 98073
Glory 98070
bbed 98063
warriors 98061
Cherry 98049
IBM 98044
acks 98043
bbing 98041
Enjoying 98032
oud 98028
Cli@@ 97978
bak 97967
formerly 97957
dash 97950
Colors 97949
earrings 97930
foolish 97928
18-@@ 97925
stly 97923
tre 97915
partying 97914
fat@@ 97903
idek 97878
presenting 97868
iii@@ 97865
bleed 97864
sion@@ 97863
arr@@ 97829
baking 97827
convenient 97815
Nate 97801
got@@ 97788
Singer 97780
Jar@@ 97774
interact 97774
28.@@ 97772
element 97767
hometown 97740
approaching 97733
tunnel 97727
conservatives 97719
Seat 97697
stoked 97687
chu@@ 97657
pencil 97651
Pirates 97635
Quarter 97632
embarrassment 97620
governments 97615
#fre@@ 97613
caption 97594
LIN@@ 97592
3-1 97572
dddd 97572
Broncos 97557
aches 97542
Therapy 97534
ected 97532
ayy 97495
ranking 97475
hub 97462
themed 97459
syn@@ 97458
neutral 97449
tes@@ 97437
ballot 97435
Linda 97434
fleet 97422
motor@@ 97419
liner 97403
china 97385
ouch 97385
kor@@ 97383
opener 97377
Knew 97376
M-@@ 97373
:06 97371
Ds 97367
shelf 97358
Monica 97357
preferred 97345
Wii 97340
ont@@ 97333
predict 97329
Shoe 97295
Edit 97294
Liz 97289
grabbed 97286
rever@@ 97284
Opportunity 97272
#20@@ 97270
Jk 97263
itter 97254
SAVE 97249
Mason 97248
Position 97229
hike 97194
Workers 97187
:51 97186
ord@@ 97183
Button 97179
Julian 97173
:-/ 97159
compliments 97150
bcs 97142
town@@ 97137
domain 97134
gus 97114
LGBT 97106
Bottle 97095
uuuu@@ 97095
secretary 97059
VID@@ 97056
bud@@ 97026
Morris 97020
Simpson 96998
,6@@ 96997
like@@ 96994
ر@@ 96991
Sing 96974
ACC 96964
Dat@@ 96952
FAMILY 96950
vie 96946
dae 96941
superb 96926
jaw 96909
reactions 96898
theories 96893
Bailey 96886
#Never@@ 96875
catches 96869
Milk 96864
Marco 96860
104 96852
lol@@ 96849
sorts 96834
stown 96819
delusional 96813
handled 96806
Psalm 96785
Theresa 96780
En 96779
#fashion 96778
Holding 96778
recommendations 96775
responses 96772
affair 96770
envy 96768
ZZ@@ 96760
positivity 96760
lobby 96747
tab 96719
rapping 96717
allegedly 96714
avoiding 96698
Bee 96683
x5 96663
wy@@ 96659
lock@@ 96654
15-@@ 96642
meter 96634
brighter 96607
opp@@ 96601
Milwaukee 96591
:58 96574
Barca 96574
eco@@ 96568
behave 96556
Appreciate 96544
UE 96540
RR 96539
Rivers 96522
Sit 96520
Bed@@ 96504
ination 96472
87@@ 96459
Christ@@ 96458
Province 96458
MEET 96454
#do@@ 96453
Idea 96446
broadcasting 96436
skate 96436
Cavs 96428
titties 96397
Animals 96391
challenged 96391
Ship 96388
layer 96370
tha@@ 96366
fascinating 96360
fl 96312
bail 96308
OO 96307
Mint 96304
hunter 96295
diverse 96273
#am@@ 96254
hobby 96254
puppies 96224
pol 96221
Comics 96216
#Ad@@ 96215
vinyl 96213
Duck 96211
#never@@ 96201
Bec@@ 96201
AU@@ 96191
noises 96178
eeeeee 96156
Cruise 96155
complaints 96155
bed@@ 96153
vid@@ 96142
Representative 96140
Bundle 96121
bracelet 96117
Profile 96073
tender 96059
30-@@ 96058
buck 96057
camps 96050
than@@ 96038
statue 96036
Organic 96033
Lines 96016
slu@@ 96013
bothering 96007
Commerce 96002
1.4 95988
sought 95982
gar 95979
scor@@ 95971
Re-@@ 95961
swap 95951
#Bu@@ 95944
feel@@ 95940
PAN@@ 95933
TOUR 95927
ratio 95921
Che@@ 95919
sville 95919
genus 95917
Signed 95904
UV 95894
Has@@ 95882
betta 95881
Campus 95869
#Repost 95867
convicted 95867
elo 95859
sies 95857
า@@ 95848
muslim 95844
turtle 95838
kr@@ 95835
nw 95834
uch 95821
Statement 95817
#bb@@ 95794
Ko 95794
17:@@ 95777
long-@@ 95770
BP 95769
#that@@ 95764
easiest 95763
12:00 95757
Shell 95746
OD 95735
BLE 95733
Changing 95733
judgement 95731
niggaz 95725
5am 95718
Amendment 95717
rah 95713
tto 95705
tex@@ 95702
Se 95684
#MA@@ 95671
Mandela 95669
lian 95667
athletic 95661
LINE 95656
dialogue 95653
Suicide 95646
:56 95634
ax@@ 95632
off-@@ 95625
opera 95625
strings 95623
lio 95618
Welsh 95604
TICKETS 95582
sporting 95581
feminist 95580
STFU 95569
Panthers 95564
Sad@@ 95557
Issues 95551
scenario 95547
squeeze 95545
#sorrynotsorry 95540
full@@ 95529
irritated 95523
concerning 95513
carries 95511
Rat@@ 95496
Vince 95495
Oak 95490
achi@@ 95484
stop@@ 95481
igh 95429
Tour@@ 95419
bombing 95411
Wondering 95409
Shu@@ 95402
5k 95391
assignments 95384
openly 95381
fore@@ 95375
instance 95358
LLC 95306
Bangladesh 95294
Moms 95288
eon 95287
DRA@@ 95284
backyard 95263
10/10 95261
#x@@ 95258
unfortunate 95258
moo@@ 95248
elect 95235
Karma 95232
Alliance 95227
managing 95224
bent 95209
Adapter 95206
Kurt 95204
passport 95192
nec@@ 95166
cycling 95158
Zach 95152
lig@@ 95143
Egyptian 95118
unlikely 95104
Ottawa 95095
hen 95090
biting 95084
inviting 95084
succ@@ 95072
swi@@ 95069
Rally 95059
:snowman_without_snow: 95057
31st 95053
Taiwan 95043
Mitt 95040
:money-mouth_face: 95037
separated 95020
#truth 95018
creatures 95008
throne 95007
:baseball: 94985
:52 94953
START 94947
deaf 94939
Jamaica 94930
tension 94928
controversy 94927
Protection 94925
cover@@ 94913
:54 94902
Mariah 94893
Thus 94893
fictional 94885
11am 94884
dammit 94860
por 94860
banner 94852
discipline 94829
Scientists 94795
psycho@@ 94782
Strike 94776
ib@@ 94772
sim@@ 94749
Won 94747
Tou@@ 94744
Hub 94743
Kis@@ 94740
Foot 94732
Mondays 94724
#bad@@ 94722
essentially 94714
Dam 94711
MPH 94708
Mixtape 94699
rubber 94697
SEN@@ 94686
DV@@ 94674
soo@@ 94669
pak 94641
Stevie 94639
phi@@ 94632
Kendall 94631
L-@@ 94608
Denmark 94604
Riley 94601
rzzp 94599
mock 94595
ution 94590
dynamic 94583
Nak@@ 94572
NER 94551
tham 94550
DEC@@ 94549
Trey 94537
:08 94521
VED 94507
Open@@ 94497
allergic 94497
banter 94491
naps 94491
Florence 94490
quoted 94487
soil 94482
Mets 94459
buttons 94453
helmet 94447
Bills 94432
hou@@ 94427
Thank@@ 94407
underway 94404
inas 94391
Ke 94387
Euro@@ 94378
Cities 94368
surprises 94355
participating 94305
Cost 94279
cheesy 94272
42@@ 94268
lens 94261
ika 94252
Eli@@ 94234
BF 94227
overs 94200
empire 94196
Team@@ 94192
Eli 94191
cupcakes 94178
Bloody 94174
centuries 94166
#sc@@ 94160
architecture 94152
enters 94134
suspected 94131
Hey@@ 94123
nipples 94122
then@@ 94093
:cat_face: 94089
Scene 94078
tae 94071
ffle 94068
resolve 94060
:person_getting_massage: 94051
chairs 94047
scroll 94042
establish 94028
Blair 94023
teaches 94023
Inspired 94008
nicer 94006
Thousands 94000
Bayern 93981
essing 93978
Nazis 93961
candle 93952
JP 93943
Normal 93942
Instant 93941
#Can@@ 93930
Nd 93929
pr 93926
arti@@ 93917
essi@@ 93911
iiii@@ 93910
IAN 93905
Cav@@ 93897
Dre 93895
week@@ 93895
WOO@@ 93894
arriving 93891
#photography 93886
resulted 93874
dil@@ 93859
Hurt 93849
LCD 93846
bob 93842
oul 93813
bastards 93810
Nikki 93801
Melissa 93798
Bottom 93795
FFS 93793
compassion 93787
dge 93783
grill 93781
stabbed 93780
gimme 93779
sup 93774
:07 93770
reject 93768
sport@@ 93766
IP@@ 93751
FAN 93741
HOR@@ 93735
:cross_mark: 93729
converted 93727
Enterprise 93722
lining 93720
Darren 93715
rap@@ 93702
gger 93701
Workout 93689
talents 93686
pains 93664
AINT 93663
him@@ 93651
Poster 93649
Beta 93631
expanded 93596
floating 93593
interior 93589
Cher@@ 93572
Nova 93569
gentleman 93566
Chart 93564
Frozen 93563
Vincent 93563
NOTICE 93559
Months 93553
rum 93543
t.@@ 93533
Fucked 93530
consecutive 93518
16-@@ 93517
slot 93515
LB 93513
transit 93503
gues 93497
kam@@ 93474
signals 93470
#forex 93453
1.8 93450
collecting 93449
mg 93439
Sid@@ 93435
whatsoever 93429
Lay@@ 93424
nets 93403
es.@@ 93400
HB@@ 93391
grandfather 93389
Bureau 93387
Maker 93386
Doll 93368
Demand 93355
Mix@@ 93350
subscription 93348
after@@ 93333
nag@@ 93333
Chloe 93295
53@@ 93288
ethnic 93267
1963 93243
ning@@ 93234
Guns 93222
patterns 93222
Berry 93213
CAL@@ 93210
introduction 93201
extensive 93194
discrimination 93192
hari 93191
WW 93190
DES@@ 93181
pale 93175
props 93153
Thankyou 93147
posed 93115
arrogant 93113
disgusted 93088
advert 93077
wait@@ 93061
umi 93059
dull 93055
HAHAHAHAHA 93054
heating 93042
tl@@ 93041
recovered 93033
yess 93031
errors 93009
cigarette 92993
JR 92989
Jerusalem 92981
Colombia 92978
anim@@ 92976
Crying 92967
oooooo@@ 92953
IB@@ 92943
dragged 92943
ML 92931
corny 92916
tem@@ 92912
ert 92908
JC 92903
itor 92903
cray 92894
IK 92886
motor 92886
itted 92878
chats 92869
yang 92857
Host 92850
from@@ 92850
Understand 92848
riot 92846
Joshua 92840
#KCAPinoyStar 92834
hart 92834
Auburn 92830
Felt 92823
Staying 92819
uda 92792
cock@@ 92755
̩ 92748
ridge 92742
Painting 92732
iii 92718
PER 92709
Mega 92700
scholarship 92686
christ@@ 92680
meters 92678
jungle 92662
prank 92657
indie 92653
#De@@ 92650
Ohhh 92640
korean 92631
milf 92624
LUKE 92613
Fuel 92607
HHH 92605
-time 92602
Dis 92600
Know@@ 92597
Vehicle 92593
Range 92588
rell 92587
regions 92582
convert 92578
Grandma 92565
Stocks 92564
Consumer 92555
wolves 92553
uuu@@ 92546
Rescue 92533
ua 92525
Tears 92521
pon 92511
Nigerians 92500
Lau@@ 92486
Democracy 92483
nods 92483
FR 92478
climbing 92469
dealt 92461
Wen 92457
AMERICA 92445
Papa 92430
É 92430
CHRISTMAS 92428
fly@@ 92423
OOO 92421
suc@@ 92414
Changes 92409
universities 92384
STORY 92382
slee@@ 92367
huhu 92364
bestfriends 92356
aaaaa 92318
Cal 92315
investigating 92314
toss 92314
eau 92309
LER 92308
dunk 92308
NU@@ 92288
Twit@@ 92254
guilt 92242
uhh 92239
numb 92238
:09 92232
fare 92224
Criminal 92215
aaaaaaaa@@ 92213
hp 92209
wu@@ 92205
Violence 92202
bait 92197
denial 92197
SILVER 92192
poet 92175
Wallet 92172
Handmade 92171
zombies 92160
Id@@ 92159
awh 92155
uro 92154
creature 92143
NWS 92127
Purchase 92121
wt 92114
fin 92108
Jessie 92096
2/3 92080
1pm 92077
Randy 92076
Doc@@ 92067
roughly 92055
iti 92044
flesh 91991
cheeky 91978
yi 91978
10x 91943
colleges 91934
ppa 91934
Troy 91911
Kno@@ 91908
top@@ 91905
Lightning 91902
O-@@ 91896
In-@@ 91895
tax@@ 91874
span 91858
Sti@@ 91852
eek 91852
Plaza 91851
Juice 91847
enjoyable 91841
Sharing 91839
Barr 91826
10.5 91805
Wheel 91796
ols 91784
perfume 91783
F-@@ 91767
Screw 91754
˚ 91753
ffin 91736
MIND 91734
Coldplay 91731
pens 91722
lastnight 91721
affects 91720
Lmaooo 91718
disorder 91694
translate 91693
ener 91691
#Par@@ 91686
21:@@ 91681
#Bar@@ 91670
elephant 91660
Bomb 91659
footballer 91648
WN@@ 91646
Row 91637
Len@@ 91629
HOURS 91615
clar@@ 91612
BRAND 91610
nod 91608
ffer 91594
portfolio 91593
sley 91556
Comic 91553
Comey 91550
#ed@@ 91546
LOST 91546
Dist@@ 91544
Savage 91529
Rid@@ 91527
offline 91527
subsequently 91523
bride 91515
ousted 91495
innovative 91489
bikes 91487
Belt 91485
Launches 91484
Ik 91482
kkkk 91482
door@@ 91474
test@@ 91470
Birds 91464
drill 91464
Casual 91439
Cincinnati 91434
psychology 91433
#Pre@@ 91430
ツ 91411
HAN@@ 91388
WhatsApp 91384
tol@@ 91377
Andrea 91354
Fac@@ 91344
Directioners 91337
AMA 91335
:@ 91314
narrow 91314
[...]
